#version: 0.2
t h
i n
th e</w>
a n
r e
t i
o n
e r
o u
e n
o f</w>
t o</w>
a r
e d</w>
in g</w>
o r
o n</w>
i t
a l
an d</w>
a t
r o
e r</w>
s t
i n</w>
a t</w>
i s</w>
o m
e s
i s
o r</w>
i c
a c
e s</w>
a ti
e c
e l
a s</w>
o u</w>
v e</w>
n o
a s
T h
w h
l e
a l</w>
i l
a n</w>
h a
e n</w>
u s
th at</w>
y ou</w>
s i
l i
u r
' s</w>
p ro
f or</w>
s h
m en
r i
l o
l e</w>
b e</w>
m e
l y</w>
u n
d i
a b
th e
c on
. .
ati on</w>
y ou
s u
b e
a d
g h
it h</w>
in g
e d
l d</w>
i t</w>
w ith</w>
s e
a g
a p
d e
w as</w>
s .</w>
Th e</w>
er e</w>
t s</w>
c om
u l
a m
' t</w>
n e
p o
c h
t r
no t</w>
e .</w>
v er
al l</w>
i m
o p
ou ld</w>
a y
e x
i r
c e</w>
f or
o l
ati on
i d
ha ve</w>
s ,</w>
p l
ou t</w>
a k
ar e</w>
ou n
e m
u t</w>
.. .</w>
e re
d o
g o
b y</w>
a y</w>
I '
th is</w>
t er
q u
ti c
h e</w>
ti on</w>
e ,</w>
t o
s p
u c
ti on
m e</w>
f f
men t</w>
f ro
t .</w>
us t</w>
fro m</w>
p e
th er</w>
t ed</w>
2 0
at e</w>
on e</w>
y ,</w>
y .</w>
w e
k no
p ar
a in
p re
m o
s e</w>
A n
p er
h e
m y</w>
g e
gh t</w>
it y</w>
C om
en t</w>
w or
an t</w>
an d
t ,</w>
s t</w>
c i
h is</w>
c o
you r</w>
e v
l l</w>
r e</w>
b o
Com m
W h
p or
a i
s om
Y ou</w>
h i
f i
ha d</w>
g r
a r</w>
n 't</w>
il l</w>
ic h</w>
b er</w>
w e</w>
re c
st r
s o</w>
re d</w>
t er</w>
' re</w>
b ut</w>
I' m</w>
un d
wh ich</w>
t ing</w>
ur e</w>
A r
k e</w>
be en</w>
ou r
f in
S t
es .</w>
c l
g i
u t
u m
h o
es ,</w>
is si
20 0
u d
ed .</w>
on 't</w>
c an</w>
wh at</w>
th ing</w>
m in
al l
i f</w>
or d
t ak
w ill</w>
el l
Ar tic
er s</w>
v i
v er</w>
en d
the y</w>
An d</w>
ac c
w ere</w>
d o</w>
k e
pro v
r a
g u
es s
con t
al ly</w>
sh all</w>
li ke</w>
h er</w>
kno w</w>
c h</w>
e st
us e</w>
ab out</w>
n i
d uc
an y</w>
ab le</w>
j ust</w>
an ce</w>
u re
i r</w>
Artic le</w>
h as</w>
er .</w>
a u
is i
ing .</w>
at ed</w>
es s</w>
w n</w>
R e
f e
d .</w>
o ther</w>
it s</w>
ou r</w>
m or
w ould</w>
po s
en t
com p
th in
o d</w>
w i
th at
Comm issi
a v
m ar
o k
a re
I t</w>
for m
em ber</w>
the ir</w>
ai d</w>
H e</w>
el l</w>
y e
som e
ge t</w>
p r
sh ould</w>
d on't</w>
I n</w>
s er
o b
ti ve</w>
N o
t h</w>
g ul
an c
sp ec
in to</w>
d is
t 's</w>
s a
u p</w>
sh e</w>
g h</w>
wh en</w>
c ould</w>
p p
am e</w>
s o
ar y</w>
lo w
d s</w>
c er
Commissi on</w>
an g
ar d</w>
n o</w>
me .</w>
u ro
f ac
s ec
in t
a d</w>
a in</w>
s el
ti es</w>
j ec
m on
d ,</w>
Th is</w>
B ut</w>
su b
ed ,</w>
men ts</w>
ation s</w>
d n't</w>
m an
.. .
e p
c re
hi m</w>
E uro
b ac
h im
o se</w>
tion s</w>
a w
mor e</w>
d ec
thin k</w>
wi th
c an
the re
u b
wh o</w>
s ti
u s</w>
f o
M ember</w>
ver y</w>
u p
pre s
pro duc
on ly</w>
ff ic
a f
p le
si d
ing ,</w>
on s</w>
en ti
es t</w>
m ak
f ir
is h
ou gh</w>
t e
as t</w>
il l
k ing</w>
re qu
it .</w>
g re
es e</w>
at es</w>
as e</w>
th an</w>
er ,</w>
p ri
en c
be t
oun d</w>
wh ere</w>
men t
pl ic
v e
t y</w>
pro c
or i
w ant</w>
t w
a use</w>
m ust</w>
I t's</w>
Euro pe
I f</w>
m ay</w>
kno w
W e</w>
f ic
go t</w>
an y
t ur
go ing</w>
it 's</w>
Th e
se e</w>
th ere</w>
h ere
Europe an</w>
a st
D i
for e</w>
h ,</w>
ag e</w>
v el
b ec
Re gul
o k</w>
ic e</w>
ne w</w>
t ec
k s</w>
re f
ti me</w>
i c</w>
ad e</w>
b r
c ar
as s
on .</w>
sh o
ser v
som e</w>
the m</w>
m i
in v
n ed</w>
k ed</w>
t u
ing s</w>
20 1
ap plic
ho w</w>
en ce</w>
tak e</w>
b le</w>
w ay
N o</w>
pl ac
in ter
you 're</w>
at ing</w>
k .</w>
' ll</w>
ation al</w>
a il
tr an
th ose</w>
ou s</w>
prov id
on g</w>
re n
ye ar
re l
in e</w>
und er</w>
com m
s y
ne ed</w>
I n
op er
d ay
re s
ri gh
ou l
at 's</w>
H o
on ,</w>
le g
su ch</w>
au th
cl ud
t ri
ell ,</w>
t al
e ment</w>
di d</w>
you .</w>
al so</w>
ere n
h el
g o</w>
y ing</w>
b as
u st
' ve</w>
ou ght</w>
i p
c oun
ac h</w>
spec i
me ,</w>
el i
in form
en er
l ic
Wh at</w>
ti v
me as
und er
th ese</w>
w an
e 's</w>
en d</w>
lo ok
isi on</w>
le .</w>
pe op
f ol
bac k</w>
u e</w>
t or
n ing</w>
it t
ure s</w>
f ul
ff ec
I' ve</w>
bo d
th er
com e</w>
on g
s ure</w>
mak e</w>
tw o</w>
ag ain
Regul ation</w>
v ing</w>
n ec
do wn</w>
ation .</w>
al i
the m
ere d</w>
b u
s aid</w>
o f
ic al</w>
p ub
st e
el y</w>
E C
th en</w>
us ed</w>
ap p
e t</w>
ver y
in d
ci al</w>
por t</w>
The y</w>
w ay</w>
con cer
e t
s ur
mar ke
di dn't</w>
re ad
o ver</w>
su p
Y ou
th r
me an
ev en</w>
fir st</w>
re e</w>
m at
d es
b l
per i
S he</w>
v en
St ates</w>
af ter</w>
ab l
r is
we en</w>
W ell,</w>
per s
o c
d ing</w>
Di rec
par tic
n ational</w>
c as
ha pp
a ,</w>
be fore</w>
ri ght</w>
i st
bet ween</w>
p ur
ar i
m il
ne ver</w>
e l</w>
t ell</w>
a m</w>
h ere</w>
o d
r ap
t ly</w>
m ade</w>
Comm un
o ver
i g
bec ause</w>
it e</w>
ch ang
. "</w>
' d</w>
re g
ex p
w ar
l a
lo c
P ar
, "</w>
wor k</w>
a .</w>
e i
c or
t re
ation ,</w>
p h
st ar
) .</w>
por t
w n
I' ll</w>
g e</w>
su l
si g
v ed</w>
po in
ti m
ap pro
r u
fol low
a ve</w>
m an</w>
requ i
no w
or y</w>
in clud
S o</w>
at t
li f
er i
he 's</w>
tr ac
U ni
acc ord
s c
can 't</w>
mo st</w>
inform ation</w>
C oun
C h
c lo
il ity</w>
some thing</w>
k ,</w>
ac h
ou t
f u
him .</w>
1 9
ffic i
Th at</w>
ati ve</w>
f ri
th is
v al
e very
sti ll</w>
e ffec
C on
d ed</w>
d at
se t</w>
c ol
P ro
l itt
peop le</w>
w at
s ay
ev er</w>
il e</w>
thr ough</w>
s w
W e
ord er</w>
with in</w>
c ur
c ap
in d</w>
1 0
b i
h and
pl an
em p
ou s
s ay</w>
is ed</w>
r .</w>
l y,</w>
t ain</w>
me m
uc h</w>
fo re
go od</w>
is e</w>
c ri
c our
bod y</w>
ag rap
it ,</w>
r y</w>
vi e
is h</w>
tran s
le ,</w>
E U</w>
f a
f l
li c</w>
com pe
di ff
v en</w>
pos si
you ,</w>
litt le</w>
n um
D ec
s ame</w>
en ts</w>
in i
at e
Th at's</w>
f r
re ally</w>
al s</w>
tion .</w>
that 's</w>
e y
b ro
est abl
no w</w>
li m
u m</w>
sp on
f t</w>
fi ed</w>
v es</w>
ch o
E U
St ate</w>
di rec
e qu
wh o
par agrap
t t
diff eren
w r
st and
fin d</w>
oun t</w>
si st
oul dn't</w>
ex c
qu es
st o
to ld</w>
e p</w>
do es</w>
re as
s ed</w>
c le
pro b
g l
str uc
om e</w>
tr y</w>
re spon
ci l</w>
m p
l ast</w>
t ain
tion ,</w>
partic ul
ou gh
Direc tive</w>
do c
s or
Commun ity</w>
e f
Coun cil</w>
b re
meas ures</w>
gi ve</w>
u al</w>
in ce</w>
w as
Wh en</w>
A s</w>
lo w</w>
M ar
ro w
proc ed
e a
c r
pro tec
here .</w>
b eli
l at
fu l</w>
with out</w>
er red</w>
read y</w>
an t
lo ok</w>
gr am
pub lic</w>
nec ess
o ff
e ach</w>
de vel
it ed</w>
o ,</w>
con di
l in
s it
th ought</w>
ic es</w>
e ar
si de
im ple
m uch</w>
L o
ec on
d ay</w>
A ll</w>
le t</w>
int ere
ch ar
n a</w>
F or</w>
re le
a ir
men t.</w>
l ess</w>
le t
si on</w>
auth or
Uni on</w>
ver ,</w>
way s</w>
se .</w>
be ing</w>
e ?</w>
happ en
isi ons</w>
sid e</w>
r ul
an cial</w>
sel f
an i
Th ere</w>
requi re
No ,</w>
a x
wh y</w>
j o
mi ght</w>
t y
s ol
re gi
A c
M y</w>
p ut</w>
sel f</w>
c all
ar m
ne ed
th ing.</w>
on e.</w>
l ar
0 0
U n
o wn</w>
o .</w>
r an
pos ed</w>
Ho w</w>
establ ish
re gul
ag re
e ve</w>
/ 200
d er
sa id
You 're</w>
cont ro
fri end
g in
en ,</w>
D o</w>
w om
st s</w>
the y
m is
that ,</w>
is su
al .</w>
d er</w>
year s</w>
l ed</w>
f ound</w>
) ,</w>
a th
sec on
po w
s s</w>
in cre
plac e</w>
t ?</w>
ur ing</w>
re spec
sh i
g ener
that .</w>
t s.</w>
devel op
par t</w>
( 1
ob jec
an other</w>
g ir
s ?</w>
s m
il i
tion al</w>
appro pri
m ain
A l
accord ance</w>
he ad
po si
ac t</w>
c ase</w>
t or</w>
ay be</w>
h ou
ap pe
or g
ad op
an ti
l y.</w>
An ne
on al</w>
is t</w>
paragrap h</w>
ay ,</w>
h um
re sul
auth ori
lo g
know ,</w>
marke t</w>
or s</w>
ch il
i gh
men t,</w>
EC )</w>
ac k</w>
again st</w>
O n
provid ed</w>
Th ere
on -
l ong</w>
tak en</w>
for m</w>
s ha
econ om
w ell</w>
I' d</w>
pr in
p le</w>
d ic
fi c</w>
us i
to o</w>
l ong
id e</w>
c ame</w>
th ree</w>
them .</w>
im port
of f</w>
wh e
l es</w>
e -
we ver,</w>
E C</w>
ref erred</w>
we 're</w>
fin ancial</w>
b us
k ill
al ways</w>
b en
it y.</w>
L e
h ar
f am
st em
d r
reg ar
m any</w>
e very</w>
C our
th er.</w>
ti l</w>
v is
dat a</w>
an n
h ol
num ber</w>
a red</w>
t en
St at
n al</w>
are n
O h,</w>
su m
wan ted</w>
di st
we e
o t
l aw
al ready</w>
ti c</w>
i de
follow ing</w>
d u
al ,</w>
bo th</w>
tec h
con sid
in c
g on
po lic
en .</w>
b ur
vie w</w>
rele v
b er
man ag
h er
d ra
he ar
can not</w>
p ay
pro gram
ter min
jec t</w>
th ing
ex am
mo re
tak ing</w>
i d</w>
? "</w>
en tr
p ec
v ir
w a
f un
ar ound</w>
h er.</w>
applic ation</w>
c ul
H e
di v
en g
e ed
d re
sy stem
( EC)</w>
om e
hel p</w>
un til</w>
cont in
il y</w>
sa w</w>
Wh y</w>
s en
par t
an k</w>
ste m</w>
li g
us .</w>
poin t</w>
n at
k new</w>
p ati
J o
ac ti
cer tain</w>
e as
( 2
Anne x</w>
th ir
ni gh
sub m
necess ary</w>
M r.</w>
con f
w ,</w>
o ld</w>
sti tu
es n't</w>
H e's</w>
s ing</w>
o m</w>
and ,</w>
ri ed</w>
ac k
d uring</w>
se ,</w>
ab o
li st
j ud
t s,</w>
s ince</w>
any thing</w>
includ ing</w>
ad di
bet ter</w>
N e
to ok</w>
an is
produc ts</w>
p ic
prov isions</w>
i l</w>
f ur
ad d
p s</w>
ne x
p e</w>
ut e</w>
ad v
beli eve</w>
de fin
l ec
m s</w>
m er
s ...</w>
it y,</w>
re co
se e
ab ly</w>
v e.</w>
Th en</w>
h al
w al
en sure</w>
T o</w>
i str
ass ess
con trac
f ra
n or
ge t
1 .</w>
do esn't</w>
Cour t</w>
gon na</w>
a men
leg al</w>
19 9
z e</w>
hi gh
enc y</w>
w ent</w>
mon th
to ge
peri od</w>
E x
m om
y s
fic ation</w>
ab ility</w>
c al
so ci
Y ea
ad min
er s.</w>
whe ther</w>
te e</w>
tic al</w>
differen t</w>
y 's</w>
E n
p ul
ter s</w>
me di
M o
is l
no ti
un i
lo ve</w>
y ?</w>
chang e</w>
el ec
there 's</w>
b el
st u
rul es</w>
coun tri
- -</w>
st anc
id enti
al ity</w>
B o
la w</w>
t ent</w>
doc u
is ,</w>
Y our</w>
ke ep</w>
you r
end ed</w>
I s</w>
L i
authori ties</w>
le ast</w>
sh ip
look ed</w>
now .</w>
s k
ple as
dec ision</w>
ou t.</w>
ind ic
wor k
v o
t ure</w>
tr ying</w>
p .</w>
c all</w>
G o
do ing</w>
o ffic
wh ile</w>
se en</w>
or .</w>
ex ist
p i
li gh
sy stem</w>
d ri
de p
gr ou
w in
th ings</w>
J ust</w>
prin ci
tal k</w>
ic k
le ft</w>
av ail
bu il
prob le
au gh
li ght</w>
ve l</w>
do wn
d ro
f y</w>
it ted</w>
shi p</w>
fe w</w>
relev ant</w>
condi tions</w>
gi ven</w>
bus in
lif e</w>
1 2
op e</w>
m ain</w>
ti me.</w>
cur ren
ay .</w>
particul ar</w>
no thing</w>
im p
th ough</w>
c ir
ar ly</w>
k ind</w>
some one</w>
ai r</w>
c ha
re at
li k
m y
es si
po se</w>
go ver
this .</w>
lo y
de termin
fe el</w>
es s.</w>
b ility</w>
m a
b lo
ak e</w>
g g
su pp
w on't</w>
look ing</w>
bas ed</w>
el e
n on-
sp or
mean s</w>
it al</w>
mem ber</w>
li ed</w>
pre t
Yea h,</w>
There 's</w>
es ti
bas is</w>
sit u
speci fic</w>
compe ti
Ho wever,</w>
ha ving</w>
st or
lo t</w>
ter .</w>
was n't</w>
possi ble</w>
1 0</w>
re por
oper ation</w>
g y</w>
n ame</w>
t e</w>
gir l
tur n</w>
v ered</w>
ac tion</w>
him ,</w>
y s</w>
pres ent</w>
le vel</w>
there fore</w>
i es</w>
all y,</w>
se em
as k</w>
for c
d ate</w>
go o
tur ned</w>
you 've</w>
econom ic</w>
an .</w>
ac tu
h our
it ing</w>
p en
w s</w>
f und
rec ei
b est</w>
as s</w>
a im
pro f
er s,</w>
mon e
se qu
ment ation</w>
exp ec
w ard</w>
s ch
t on
m issi
nex t</w>
tre at
p ed</w>
f ar</w>
acc ount</w>
ch ec
re sid
s al
st and</w>
ob lig
is n't</w>
h om
serv ices</w>
aw ay</w>
se ar
sup port</w>
provid e</w>
cl usi
Comm it
sec ur
admin istr
a z
st .</w>
S e
secon d</w>
th .</w>
n a
gre at</w>
div id
an s</w>
gu ar
Dec ision</w>
li a
day .</w>
ini ti
call ed</w>
l ine</w>
est ed</w>
d e</w>
an ,</w>
k id
f il
cont ain
st at
al low
d en
who le</w>
A t</w>
an im
thir d</w>
sw er</w>
us ing</w>
me ?</w>
you ?</w>
pur su
A d
pr is
con c
min ut
f re
ch ed</w>
in ation</w>
S ome
b ed</w>
am ount</w>
o l</w>
tr a
b ar
b or
1 .
pro pos
di es</w>
he al
he ad</w>
t al</w>
m en</w>
inv est
at h</w>
The y
wor l
fi el
appropri ate</w>
leg isl
they 're</w>
righ t,</w>
A u
there .</w>
acti vi
gr an
ment al</w>
l and
respon si
pl ay
sh e's</w>
B ec
ri bu
respec t</w>
des ig
con side
k ill</w>
O n</w>
v e,</w>
ye ar</w>
Lo ok
en t.</w>
is .</w>
tim es</w>
le ave</w>
or ,</w>
ure .</w>
our c
Th ese</w>
s es</w>
vir on
p ass
require ments</w>
ell ing</w>
Wh ere</w>
fac e</w>
C o
ro om
contro l</w>
ex t</w>
D on't</w>
here ,</w>
D e
b ut
r it
No w</w>
d ar
again .</w>
comm un
c ro
c a
p er</w>
ent ly</w>
v ic
re s</w>
fur ther</w>
in stitu
es s,</w>
s le
g n
e ...</w>
in .</w>
ris k</w>
r ic
M aybe</w>
he ard</w>
f ec
every thing</w>
ac e</w>
fac t</w>
ust om
A gre
proc eed
pers on</w>
us ,</w>
z ed</w>
all ,</w>
produc t</w>
enti al</w>
incre as
wor king</w>
con nec
app ly</w>
l aid</w>
mil li
c are</w>
concer ned</w>
concer ning</w>
le vel
concer n
n er
s ing
import ant</w>
ep t</w>
ati s
O k
d one</w>
th er,</w>
ni fic
h y
l l
esti g
ad .</w>
str ic
for ce</w>
We 're</w>
Y es,</w>
all .</w>
f e</w>
str u
fe el
sa fe
re duc
t a
eren ce</w>
er ing</w>
inv ol
you n
b ud
im um</w>
it ?</w>
cir c
st ,</w>
en ough</w>
is ation</w>
ar ,</w>
No t</w>
ai l</w>
end ing</w>
Par lia
m .</w>
ques tion</w>
en t,</w>
n am
re pres
up .</w>
op en
P le
n ess</w>
re t
l ab
ir e</w>
h or
pl ain
F in
ure ,</w>
inv estig
self .</w>
protec tion</w>
H is</w>
2 0</w>
comp let
posi tion</w>
ro w</w>
hum an</w>
com ing</w>
wh ere
wh at
f el
gover n
b ers</w>
add res
th ough
on ce</w>
sub ject</w>
me th
v ol
ac ro
w ouldn't</w>
comp ani
said .</w>
I I
at ory</w>
en viron
ful ly</w>
proced ure</w>
re p
conside red</w>
w .</w>
Bec ause</w>
ev id
sig nific
an al
contin u
u ary</w>
avail able</w>
mean ,</w>
he ar</w>
imple mentation</w>
h on
1 3
c are
n er</w>
way .</w>
mak ing</w>
as ked</w>
( b
l y
wor ld</w>
ap prov
(1 )</w>
an ts</w>
S ub
d om
sh or
reg ard</w>
s cho
le ar
s us
s ci
ffici al</w>
s po
countri es</w>
v ari
gre at
co sts</w>
ing ?</w>
ti me,</w>
establish ed</w>
ag es</w>
me an</w>
org anis
tr ain
be h
ec h
S ec
acc ess</w>
ben ef
r un
ch .</w>
su c
st ay</w>
ish ed</w>
c ra
G ener
vel y</w>
acc oun
h ur
sto p</w>
you 'll</w>
ar d
tr u
u tion</w>
day s</w>
ex peri
at ely</w>
jec t
com men
co vered</w>
d am
bi g</w>
in divid
comm on</w>
w on
us ti
sho w</w>
car ried</w>
fun c
oun d
1 ,</w>
gener al</w>
B e
tion s.</w>
ti es.</w>
le av
ac tions</w>
On e</w>
G er
re al</w>
f ish
t om
Di d</w>
me work</w>
E E
st op
i al</w>
sm all</w>
c ouldn't</w>
p ing</w>
th ,</w>
on e,</w>
g ave</w>
st ud
u r</w>
get ting</w>
compe tent</w>
partic ip
ag e.</w>
ey es</w>
intere st
emp loy
re port</w>
tor s</w>
ic k</w>
fr on
sup posed</w>
possi b
ab le.</w>
wh at's</w>
al most</w>
develop ment</w>
ac hi
w ell
por ts</w>
1 5
h ic
tran spor
m ul
adop ted</w>
d el
t en</w>
an k
val ue</w>
Commit tee</w>
me dic
W ith</w>
rel ated</w>
g ed</w>
me et</w>
as si
3 0</w>
s on</w>
Ok ay,</w>
1 4
s :</w>
requi red</w>
h ard</w>
li ve</w>
op en</w>
hi gh</w>
Ac c
mat eri
G r
nor m
In ter
1 /
ation s.</w>
pp ed</w>
in st
o wn
ori gin
c ustom
said ,</w>
produc tion</w>
a ffec
ti es,</w>
ch ing</w>
A g
0 0</w>
A f
(b )</w>
bac k.</w>
ful l</w>
ur al</w>
J u
g row
sp e
fi ve</w>
o ther
br ought</w>
o g
ou b
rel ating</w>
t est
now ,</w>
secur ity</w>
J an
s ent</w>
le d
th re
need s</w>
tal king</w>
prob ably</w>
ni ght</w>
righ t?</w>
r y,</w>
m ur
(2 )</w>
i ght</w>
ous ly</w>
j ust
pri v
th ing,</w>
H ar
ep t
oul d
anc e.</w>
star t</w>
de st
T reat
t ar
a k</w>
s il
ser i
ffici ent</w>
commun ic
serv ice</w>
B y</w>
in ed</w>
kno wn</w>
up on</w>
S o
Parlia ment</w>
pro jec
s l
cor rec
activi ties</w>
trans f
in t</w>
dec isi
f ail
A re</w>
manag ement</w>
br ing</w>
tur al</w>
ation s,</w>
n ical</w>
pati ents</w>
re .</w>
sel ec
beh ind</w>
ang e</w>
pub lic
( 3
accord ing</w>
... and</w>
le ad
f ut
m aybe</w>
dec id
hal f</w>
kill ed</w>
ver al</w>
coun try</w>
" I</w>
c at
C ar
li es</w>
val u
ter ,</w>
de t
, '</w>
y -
00 0</w>
h ome</w>
l an
assess ment</w>
mon it
re commen
di t</w>
S o,</w>
day ,</w>
2 .
C O
1 5</w>
b al
A p
hou se</w>
treat ment</w>
b ri
oun ds</w>
so cial</w>
c ou
8 /
ro om</w>
s s
gu y</w>
re ad</w>
applic ant</w>
si mp
or ity</w>
f ree</w>
pow er</w>
dep end
pursu ant</w>
re main
know .</w>
ac tiv
C an</w>
righ ts</w>
p t</w>
gr ap
m ag
in es</w>
sh e
Dec ember</w>
bec ome</w>
G re
er r
at e,</w>
d eli
fa ther</w>
per form
pr ac
acro ss</w>
ar gu
P e
are a</w>
suc c
tr ade</w>
I O
S he's</w>
ta x</w>
be g
ve hic
c op
po t
4 .
them ,</w>
Gener al</w>
circ um
col lec
R o
un e</w>
f our</w>
de f
S h
F ir
mat ter</w>
ei ther</w>
1 2</w>
proc ess
Look ,</w>
st re
w o
G u
hel d</w>
n .</w>
do .</w>
abo ve</w>
in ,</w>
polic y</w>
busin ess</w>
t ed.</w>
o t</w>
o d.</w>
ne w
op ini
under stand</w>
el se</w>
p ay</w>
comp le
re st</w>
b it
as sist
at e.</w>
inter national</w>
cl aim
char ac
Q u
ar .</w>
f lo
wan ts</w>
imple men
intere st</w>
as h
actu ally</w>
month s</w>
p ain
' il</w>
ed uc
enc e.</w>
more .</w>
tiv es</w>
on 's</w>
Artic les</w>
f av
Af ter</w>
ex pres
comp any</w>
author ity</w>
uc k
b ab
contro l
ma j
wom an</w>
t em
int ro
C ha
ob serv
ha ven
2 ,</w>
1 7
y ...</w>
elec tr
s )</w>
au ti
al u
no t
tion s,</w>
reas on
effec t</w>
in stru
wat er</w>
long er</w>
we 'll</w>
1 6
regar ds</w>
They 're</w>
u fac
ul t</w>
h and</w>
lif e.</w>
P o
fri end</w>
b il
A mer
ach ed</w>
er c
l ist</w>
cont ribu
youn g</w>
des cri
ch e
po l
ex ac
Amer ic
fel t</w>
1 8
cr it
m ,</w>
clo se</w>
ati c</w>
way ,</w>
g a
b ad</w>
to tal</w>
bac k
EU R</w>
se veral</w>
a )</w>
crit eri
sear ch</w>
mo ve</w>
pro per
el s</w>
at or</w>
pl ay</w>
toge ther</w>
tri ed</w>
du ce</w>
fr ing
ic e.</w>
t ro
ord in
man .</w>
3 ,</w>
sing le</w>
rec ord
fore ,</w>
cle ar</w>
requ est</w>
pro mo
applic able</w>
ou t,</w>
re member</w>
this ,</w>
haven 't</w>
cal cul
comm it
j ur
to o.</w>
mone y</w>
com b
al e</w>
ate g
agre e
ver s
T r
star ted</w>
m u
d on
know s</w>
ne t
Wh at's</w>
qu i
tion ed</w>
cas es</w>
2 /
w ed</w>
h er,</w>
consid er
ke y</w>
di ffic
p aren
guar an
ri b
pr ice</w>
ar ing</w>
l ing</w>
gran ted</w>
stand ing</w>
ide a</w>
he 'd</w>
evid ence</w>
jud g
d en</w>
n s</w>
curren t</w>
happen ed</w>
u ally</w>
addi tional</w>
sub st
t est</w>
under tak
ref erence</w>
c ent
ener gy</w>
program m
int ended</w>
str y</w>
need ed</w>
c ause</w>
ev alu
cri min
tech nical</w>
l and</w>
E very
anc ed</w>
c us
incre ase</w>
pl es</w>
O J</w>
c am
in fring
t ou
co ver</w>
sti t
con sum
6 /
t -
9 /
min d</w>
ment s.</w>
situ ation</w>
any one</w>
on d</w>
t ax
4 ,</w>
ty pe</w>
en s
you 'd</w>
P ol
M ay</w>
re stric
M on
stanc es</w>
d ue</w>
tech no
a ut
reas on</w>
P er
ter rit
re ali
that ?</w>
b ir
3 /
ver .</w>
( c
s cre
lo st</w>
man ufac
dr in
cer ti
g en
N or
ourc es</w>
b it</w>
fam ily</w>
re ly</w>
fra mework</w>
speci al</w>
ject :</w>
blo od</w>
con sul
thin king</w>
for t
pro ve</w>
g .</w>
par ties</w>
issu e</w>
Sub ject:</w>
say s</w>
pers on
so on</w>
Ne w</w>
pret ty</w>
h .</w>
ai m</w>
3 .
ar s</w>
t el
as soci
mak es</w>
I S
at ors</w>
4 /
h op
p at
es ?</w>
me e
de m
de b
S er
F or
re li
sch em
D o
fron t</w>
det ail
t ure
No w,</w>
su per
milli on</w>
subm itted</w>
wor d</w>
al low</w>
C ap
anc ing</w>
r ate</w>
we 've</w>
bel o
ren g
m us
chil d
ter m</w>
h us
anc e,</w>
includ e</w>
enc e,</w>
se tt
up ,</w>
grou p</w>
him self</w>
year s.</w>
g er</w>
ind u
A n</w>
at .</w>
2 .</w>
plac ed</w>
st ate</w>
o log
pur pos
er y</w>
tic s</w>
agre ement</w>
e gr
ment s,</w>
Wh o</w>
safe ty</w>
E N
ar ds</w>
ad ,</w>
s am
d um
gir l</w>
5 /
an t.</w>
An swer</w>
p aid</w>
d augh
seem ed</w>
war ds</w>
O r
mo ved</w>
gu ys</w>
Au th
You 've</w>
im prov
cour t</w>
resul t</w>
con clud
j usti
j ob
out side</w>
Le t's</w>
ven tion</w>
ac tive</w>
s '</w>
201 0
app lied</w>
righ t.</w>
I m
pur pose</w>
goo ds</w>
si ve</w>
cap ac
proced ures</w>
fiel d</w>
pay ment</w>
more ,</w>
de red</w>
h un
loc al</w>
b an
decid ed</w>
qu anti
He y,</w>
h ope</w>
sto od</w>
con sist
say ing</w>
co operation</w>
im medi
re st
M r
beli ev
is ing</w>
prac tic
exac tly</w>
hus b
a 's</w>
cas e,</w>
5 0</w>
s av
be auti
individ ual</w>
r up
Acc ord
cer tain
J une</w>
signific ant</w>
st reng
fi gh
d ang
M an
en ted</w>
con duc
st ak
B r
qu ality</w>
ch ,</w>
p an
ge ts</w>
O c
comp li
lar ge</w>
as se
com es</w>
priv ate</w>
fin al</w>
meas ure</w>
tiv e.</w>
f f</w>
av o
T ell</w>
s ;</w>
m ess
A T
Agre ement</w>
pec i
legisl ation</w>
se par
en ing</w>
w ill
on s.</w>
gu ess</w>
an sw
is s</w>
ab le,</w>
sup por
n ,</w>
direc t</w>
heal th</w>
h u
po li
M a
prov ision</w>
know led
w ish</w>
over ,</w>
fl u
th ers</w>
to .</w>
tr av
proceed ings</w>
effec ts</w>
E ven</w>
3 0
wor k.</w>
ye t</w>
me d
C ol
lo gi
y l
o ds</w>
ag e,</w>
enc es</w>
pers ons</w>
Jan uary</w>
m id
ex t
and /
er 's</w>
pre c
w it
exist ing</w>
re ,</w>
ou s.</w>
ru n</w>
k s.</w>
mo ther</w>
tr ad
int egr
do or</w>
there ,</w>
look s</w>
imp act</w>
gr ound</w>
anal ys
bo ok
or ing</w>
administr ative</w>
princi ple</w>
and/ or</w>
d s.</w>
le d.</w>
ho ld</w>
m ax
fi g
g lo
si mil
repres ent
(c )</w>
meas ure
fo od</w>
nigh t.</w>
ing s.</w>
1 1</w>
ust ri
fi x
( a)</w>
resul ts</w>
win do
O r</w>
op port
in no
w el
men tioned</w>
bre ak
s we
ben e
ay ?</w>
5 ,</w>
200 7
serv ic
am .</w>
w ast
at ,</w>
a ff
pre p
Ju ly</w>
en ter
am ong</w>
L a
ar ri
G i
me t</w>
uc k</w>
us h
M or
er al</w>
si x</w>
oun d.</w>
on es</w>
3 .</w>
t elling</w>
af f</w>
or d</w>
t ...</w>
We 'll</w>
en s</w>
effec tive</w>
R es
pl an</w>
wh ose</w>
de ad</w>
p ap
mor n
d in
ty p
ra ther</w>
ag o.</w>
con fir
ag ain</w>
O fficial</w>
ter ms</w>
ha ps</w>
s mo
cour se</w>
e f</w>
Ple ase</w>
sor ry</w>
O f</w>
necess ar
ag ed</w>
id .</w>
f le
are as</w>
intro duc
m ach
Re public</w>
w ing</w>
( see</w>
cont ested</w>
propos al</w>
Un ited</w>
f ill
direc tly</w>
re d.</w>
mem bers</w>
i a</w>
at ed.</w>
system s</w>
s atis
program me</w>
achi ev
hour s</w>
en ter</w>
per fec
Fir st</w>
ing s,</w>
transpor t</w>
A s
su g
go tt
le ad</w>
w ere
im ag
F r
b ul
enti re</w>
sec re
mom ent</w>
aw ay.</w>
w ell,</w>
su d
bas ic</w>
nat ure</w>
to p</w>
o d,</w>
tom or
ra di
6 ,</w>
G over
d oub
Jo h
dis cus
ti z
3 1</w>
we ap
here ?</w>
dre n</w>
r y.</w>
v es.</w>
ver i
as k
ori es</w>
T o
W or
ea k</w>
missi on</w>
th us</w>
provid es</w>
ed ?</w>
regi st
F ur
su fficient</w>
pre vi
hand s</w>
Ch ar
pers onal</w>
par ty</w>
E S
9 ,</w>
recei ved</w>
c ar</w>
e !</w>
We 've</w>
cou ple</w>
responsi ble</w>
in al</w>
amen d
au ght</w>
p ho
hom e.</w>
m ed</w>
I I</w>
sp eak</w>
comp u
chang es</w>
S ome</w>
F ro
1 4</w>
am oun
P r
inter nal</w>
d ut
re turn</w>
4 .</w>
proc ess</w>
lim ited</w>
contin ue</w>
poin ts</w>
adv ant
scho ol
fam il
e )</w>
re pe
de mon
li ving</w>
me mor
an t,</w>
P l
mul ti
wh ite</w>
con clusi
g ni
de v
pr ices</w>
Ch in
go .</w>
di ed</w>
competi tion</w>
att en
S y
P resid
in side</w>
E N</w>
man ,</w>
ef for
pub l
st ain
IO N</w>
Mar ch</w>
expec ted</w>
f ast
Treat y</w>
t able</w>
M e
w ed
F e
conc entr
some thing.</w>
wr ong
1 3</w>
qu ite</w>
r aid</w>
to wards</w>
c li
compani es</w>
ili ties</w>
fut ure</w>
ho wever,</w>
wa iting</w>
fic i
plac e.</w>
equ ip
D r.</w>
coun tr
be gin
ann ual</w>
mee ting</w>
invest ment</w>
H ave</w>
be fore
seem s</w>
Oc to
1 8</w>
B ar
s end</w>
prov isi
J our
sa ve</w>
side .</w>
ter n
dest ro
requ est
b ig
su mp
es ...</w>
on s,</w>
On ly</w>
docu ments</w>
high er</w>
(3 )</w>
do se</w>
end it
sec tion</w>
t y.</w>
an swer</w>
co ver
2 5</w>
as ,</w>
t on</w>
beg an</w>
pro gre
W i
chil dren</w>
d -
co st</w>
increas ed</w>
mar k</w>
ran ge
pro por
rel ation
S u
do m</w>
pot ential</w>
8 ,</w>
c y
objec tive</w>
pro posed</w>
af raid</w>
vi l</w>
con sequ
wor ks</w>
ex erc
wr ong</w>
g ar
T w
bl ack</w>
pi ec
max imum</w>
exp lo
purpos es</w>
i an</w>
compli ance</w>
sc ope</w>
ati ves</w>
( EU
ti me
sle ep
st ory</w>
d s,</w>
c ateg
No v
tak es</w>
g in</w>
p ast</w>
n ice</w>
ou th</w>
every one</w>
go od
ad m
down .</w>
ke pt</w>
e t.</w>
ap pl
g one</w>
implemen ting</w>
lan gu
on ic</w>
d res
C l
them sel
reco gni
tiv e,</w>
sec tor
in sur
wi fe</w>
ke t</w>
co st
s qu
str ate
B l
equ i
ell s</w>
lik ely</w>
ex por
el .</w>
K ing
techno log
norm al</w>
1 6</w>
Octo ber</w>
. '</w>
low er</w>
I tal
s ound</w>
struc ture</w>
Com e</w>
ic ally</w>
defin ed</w>
de ath
mean ing</w>
p ack
re view</w>
ple ,</w>
in spec
st ep
ch i
un less</w>
b le
5 .
hear t</w>
a ver
gu id
allow ed</w>
po st
pre v
sig n
sec tor</w>
exp endit
ac ts</w>
prof essi
es sion</w>
ac y</w>
ch all
sh are</w>
h und
end s</w>
com par
cont ext</w>
pro m
im ports</w>
minut es</w>
mo ve
criteri a</w>
charac ter
cor respon
f all
ad just
s !</w>
and .</w>
5 .</w>
ap ar
Commissi on,</w>
room .</w>
le t's</w>
tain ed</w>
A N
re search</w>
rel ation</w>
S ept
F i
entr al</w>
po pul
7 /
h s</w>
p u
co -
as .</w>
for ward</w>
0 /
govern ment</w>
ci tiz
c ut</w>
simil ar</w>
Th ose</w>
no ,</w>
tr ust</w>
nat ural</w>
d ers</w>
jo b</w>
re mem
en try</w>
reas ons</w>
again ,</w>
g un
sur vi
I N
Gover n
oper ating</w>
fo c
a vi
hou se.</w>
R us
ex per
g ent
z z
wa it</w>
G od</w>
objec tives</w>
certi fic
at el
M ic
self ,</w>
per m
m ech
are .</w>
O ur</w>
exc ep
an tly</w>
Jour nal</w>
anc es</w>
in e.</w>
d ru
f ing
en ess</w>
he av
worl d.</w>
so ,</w>
fish ing</w>
cre dit</w>
this ?</w>
vari ous</w>
su ff
bo dies</w>
Stat es.</w>
chec k</w>
regi onal</w>
com plain
speci fied</w>
thr ough
er g
wom en</w>
pre par
il it
ar range
el ,</w>
pri l</w>
G e
ch ance</w>
ro c
some body</w>
say ,</w>
Mr s.</w>
E ar
I s
ric ul
ch es</w>
A pril</w>
defin i
m ut
S ince</w>
car ry</w>
lat er</w>
C an
ple ase</w>
at or
supp ly</w>
train ing</w>
undertak ings</w>
Fro m</w>
exc ept</w>
includ ed</w>
gr ad
amen ded</w>
establ ish</w>
sig ned</w>
ak ing</w>
ok ay?</w>
Accord ing</w>
friend s</w>
g ro
Regul ation.</w>
con stit
ver se</w>
sci enti
hol ding</w>
se x
ton igh
A b
2 4</w>
al ong</w>
protec t</w>
pri or</w>
L et</w>
F o
pre ci
l ay
f ying</w>
fi ght</w>
go ti
E l
list ed</w>
po int
ph ys
de al</w>
res ources</w>
Sept ember</w>
H er</w>
be y
run ning</w>
1 7</w>
opini on</w>
il li
int en
4 )</w>
peop le.</w>
on e's</w>
comp ati
ne t</w>
lim it</w>
oblig ations</w>
su stain
interest ed</w>
B el
S tr
p a
al le
feel ing</w>
er ?</w>
B ri
b al</w>
B u
char g
dec isions</w>
head .</w>
al loc
consid er</w>
seri ous</w>
f ile</w>
monit oring</w>
cra z
c lim
ing ...</w>
thin k
Nov ember</w>
p ,</w>
min imum</w>
o ther.</w>
in depend
e ment.</w>
well .</w>
cap ital</w>
t ab
on ?</w>
R O
particul arly</w>
Stat es,</w>
de .</w>
, 000</w>
th ous
t ed,</w>
th ank</w>
see m</w>
poin ted</w>
ex plain
me et
M i
t ation</w>
cl assi
capac ity</w>
r an</w>
ag ricul
demon str
n ation
gi ving</w>
ch em
contrac t</w>
environ mental</w>
k en</w>
ig n</w>
f arm
( i
ri st
R ec
an ks</w>
all y.</w>
who 's</w>
T H
wan na</w>
mar ri
m un
year s,</w>
si t</w>
oc cur
be .</w>
qu ar
s low
f all</w>
as ed</w>
maj or</w>
under stand
assist ance</w>
s li
pol ice</w>
issu ed</w>
fig ure</w>
An y
in s</w>
oblig ation</w>
ex port</w>
Th ank</w>
desig n
ro r</w>
comm er
re ached</w>
sho t</w>
ent ly,</w>
You 'll</w>
him ?</w>
proble m</w>
wal k</w>
custom s</w>
al s.</w>
bo y
ne goti
ful .</w>
e ty</w>
k il
S C</w>
ad equ
ould 've</w>
ex pl
O ffic
institu tions</w>
S p
ke ep
level s</w>
comp ens
projec ts</w>
S uch</w>
benef it</w>
open ed</w>
! "</w>
clo s
won der
employ ment</w>
ti s
10 0</w>
dre am
to wn
le f
addres s</w>
h id
ho sp
ser ve</w>
ref lec
' t.</w>
qu ick
activ ity</w>
c il
stu ff
ex change</w>
what ever</w>
no tic
re tur
t end
re al
scho ol</w>
th ro
Mo re
t y,</w>
us es</w>
E R
sig n</w>
m b
ter nal</w>
addi tion,</w>
itt en</w>
any thing.</w>
in f
chang ed</w>
ac qu
ou ble</w>
l augh
toge ther.</w>
hand ,</w>
determin ed</w>
Wh ich</w>
issi on</w>
agre ed</w>
anim al</w>
d ?</w>
over all</w>
it ation</w>
comp ly</w>
cor por
st ay
n or</w>
C or
poli tical</w>
at s</w>
cont act</w>
loc k</w>
child ren
at ure</w>
cour se,</w>
R om
A R
re v
st oc
particul ar,</w>
de tec
l ad
you ...</w>
ar tic
fin ally</w>
wal ked</w>
M E
bac k,</w>
princi ples</w>
F ren
ess ential</w>
An y</w>
ex emp
reco gn
b ra
of ten</w>
mo di
ev ent</w>
(EU )</w>
M r</w>
investig ation</w>
bud get</w>
fi gu
ques tions</w>
fin ancing</w>
r ac
let ter</w>
dut y</w>
mar y</w>
2 5
de ,</w>
o -
lo se</w>
de ath</w>
oun ded</w>
Pro gram
li fe
res ol
es peci
my self</w>
paragrap hs</w>
vi ol
offic e</w>
O p
id ,</w>
cl in
p ut
s mil
pro ject</w>
de ad
author isation</w>
se t
possi bility</w>
bod y.</w>
ther more,</w>
happ y</w>
Rus si
I ,</w>
requ ire</w>
gr ant</w>
ro le</w>
st er
O ther</w>
Re gi
schem e</w>
complet ely</w>
regul ation</w>
h it</w>
M in
Ex c
re main</w>
tion ing</w>
oc c
ir ,</w>
200 6</w>
noti fied</w>
f e.</w>
fill ed</w>
des er
cle arly</w>
goo d.</w>
ast ,</w>
Li ke</w>
ear li
en jo
th en,</w>
regar ding</w>
doc tor</w>
t in
indu stry</w>
tur ing</w>
pleas e.</w>
? '</w>
year .</w>
qu ali
docu ment</w>
your self</w>
c es</w>
Wi th
est er
complet e</w>
especi ally</w>
l un
oun d,</w>
re ven
bo y</w>
and s</w>
st ri
succ ess
en ough
ob vi
stud y</w>
s at</w>
stop ped</w>
tu al</w>
sor ry,</w>
Ple as
bey ond</w>
anti -
EC ,</w>
anim als</w>
c u
ad ded</w>
tr ue</w>
programm es</w>
vo ice</w>
m ad
ro ad</w>
expendit ure</w>
beauti ful</w>
D oc
S i
analys is</w>
S or
Euro pe</w>
f our
law ,</w>
cre ate</w>
wee k
en ed</w>
prev ent</w>
recommen d
fir e</w>
ra ised</w>
More over,</w>
Fur thermore,</w>
e ffici
form s</w>
de al
se e,</w>
insur ance</w>
e .
ele g
d )</w>
ati c
buil ding</w>
go es</w>
al leg
s un
en n
sp ir
1 9</w>
sud den
tre ated</w>
author ised</w>
x i
sen se</w>
ph one</w>
belo w</w>
friend .</w>
6 .</w>
di e</w>
st air
acc id
ent ered</w>
L ist
2 1</w>
dec lar
pur ch
conclud ed</w>
g ri
judg ment</w>
dis appe
f low
gi ble</w>
dar k</w>
J e
b order</w>
es tim
on e
are n't</w>
cro ss
invol ved</w>
c ris
stand ards</w>
ar r
im por
r ying</w>
There fore,</w>
Fe br
Lo ok</w>
en em
str ai
wat ch</w>
v ess
m ir
establish ing</w>
c y</w>
st aff</w>
es cap
wh i
d ol
Jo int</w>
ther 's</w>
to ward</w>
h ate</w>
o thers</w>
wr itten</w>
so li
mo ving</w>
ear ly</w>
c anc
CO M
i ties</w>
al s,</w>
c e
ex ec
chil d</w>
sc en
as king</w>
produc ers</w>
char ge</w>
str ong
speci fic
fac e.</w>
o fficial</w>
con struc
ne g
en forc
ter ri
m oun
do ,</w>
subm it</w>
materi al</w>
ti l
our ce</w>
m g</w>
under taking</w>
I C
marke t.</w>
comp on
transf er</w>
no t,</w>
m ic
experi ence</w>
re d
any more.</w>
sus pec
P h
c le</w>
A C
marke ting</w>
approv ed</w>
previ ous</w>
buil d
n ic
it ch
5 0
equ al</w>
requ ested</w>
sit ting</w>
En gl
l ess
before .</w>
de ad.</w>
l ay</w>
sal es</w>
hal f
fre ed
associ ated</w>
str ong</w>
con tr
aw are</w>
ca used</w>
ast .</w>
adop t</w>
in flu
opport un
th reat
it ary</w>
inno v
determin e</w>
x .</w>
appro ach</w>
wast e</w>
201 0</w>
tiv eness</w>
st up
s ou
happ en</w>
car ri
tomor row
fam ili
n e</w>
( E
i ther</w>
vol u
aver age</w>
6 .
see ing</w>
re d,</w>
diffic ul
o p</w>
Tw o</w>
W ould</w>
Febr uary</w>
Go d,</w>
ne ar</w>
es tic</w>
are ,</w>
follow ed</w>
re -
it self</w>
5 )</w>
approv al</w>
an g</w>
reduc tion</w>
2 9
contain s</w>
wor ds</w>
great er</w>
ed ...</w>
T ran
nigh t,</w>
wor ked</w>
bec ame</w>
comp ared</w>
m ast
g as</w>
mech anis
2 2</w>
ag o,</w>
equip ment</w>
wee ks</w>
k in
ain 't</w>
2 7
in fec
bre ak</w>
ris ks</w>
200 5</w>
P or
ar m</w>
con v
M iss</w>
sor t</w>
cas e.</w>
form ation</w>
D ev
B ro
me ...</w>
dang er
bo ard</w>
R E
1 )</w>
ab il
Wh ere
hur t</w>
ed ing</w>
H av
v ed.</w>
agree ments</w>
repor ted</w>
ex clud
he 'll</w>
avo id</w>
in de
o grap
es :</w>
in fra
am ,</w>
fin e</w>
wor k,</w>
perform ance</w>
commer cial</w>
bene fici
af ter
f ell</w>
ex clusi
infring ement</w>
c aught</w>
aut om
guaran te
l ying</w>
we igh
im prove</w>
bu y</w>
si r.</w>
C I
sub si
knowled ge</w>
200 7</w>
pro hi
k ne
in e,</w>
Coun cil
G et</w>
al though</w>
off er</w>
- term</w>
tem por
c ity</w>
contain ing</w>
s on.</w>
en ci
enc our
sur ve
off .</w>
grow th</w>
x im
to ,</w>
org an
in ste
sp aren
as i
ad ap
equi val
simp ly</w>
st atis
consid ers</w>
fix ed</w>
emp lo
n ess
b att
' cause</w>
al one</w>
pre f
2 8</w>
201 1</w>
o x
sp ac
re ach</w>
acc ep
dist ribu
dec ide</w>
j e
t ures</w>
us e
8 .</w>
li e</w>
m l</w>
leav ing</w>
ent s.</w>
day s.</w>
ti ll</w>
sho wed</w>
stand ard</w>
app ed</w>
v isi
of ,</w>
Pro to
thing ?</w>
circum stances</w>
star ting</w>
har d
ar d.</w>
Bo ard</w>
repor ts</w>
em erg
w id
201 3</w>
sho wn</w>
Regul ation,</w>
i m</w>
e ed</w>
ship s</w>
w ide</w>
g s</w>
F ran
am p
fac ilit
L u
hou se
desig ned</w>
al tern
w ise</w>
o ffici
si r
201 2</w>
" You</w>
Wh at
territ ory</w>
( d)</w>
2 3</w>
EE A</w>
C ould</w>
ur ation</w>
manufac ture
har mon
K e
character is
A pp
jud ic
al o
ex ten
connec tion</w>
p ter</w>
contribu tion</w>
de gre
200 8</w>
e ment,</w>
sump tion</w>
E ach</w>
9 .</w>
ru le</w>
guaran tee</w>
u red</w>
fund s</w>
typ es</w>
dra wn</w>
amoun ts</w>
dom estic</w>
evalu ation</w>
cont ent</w>
n ess.</w>
T om
to day.</w>
c e.</w>
of .</w>
lin es</w>
me ant</w>
sur ing</w>
att emp
T ur
w ar</w>
2 4
play ing</w>
par ts</w>
gu n</w>
r ing</w>
li ves</w>
agricul tural</w>
200 4</w>
sp ace</w>
M c
t un
instru ments</w>
f requ
diffic ult</w>
subst anti
mi stak
ari es</w>
le d,</w>
im port</w>
shor t</w>
i f
cap able</w>
S ha
chall eng
EE SC</w>
mone y.</w>
kid s</w>
set ting</w>
inst all
E very</w>
ing ly</w>
p tion</w>
2 3
m a</w>
a ?</w>
a h
sh ouldn't</w>
bro ad
Pe op
Presid ent</w>
law .</w>
ach ing</w>
process ing</w>
origin al</w>
in form</w>
clo sed</w>
atten tion</w>
ste p</w>
sp ent</w>
th y</w>
V i
regul atory</w>
h our</w>
U N
ic ity</w>
to wn</w>
N ational</w>
cl aim</w>
el se.</w>
as ks</w>
ou s,</w>
em o
require s</w>
adop tion</w>
b on
su it
wh ic
E EC</w>
lo s
sol di
hund red</w>
pre gn
sa fe</w>
gr and
0 ,</w>
- -
es ;</w>
d g
200 9</w>
Fren ch</w>
produc ed</w>
co oper
en h
at ed,</w>
administr ation</w>
b y
Fin ancial</w>
applic ations</w>
but ...</w>
Par ties</w>
Be fore</w>
d ated</w>
med ical</w>
D es
p un
men ,</w>
no t.</w>
fol low</w>
t op
fac t,</w>
bo ok</w>
a me
Se e</w>
st ate
provid ing</w>
in k</w>
ther ap
proble ms</w>
claim s</w>
gu e</w>
v es,</w>
se v
pr acti
enti t
ac e
tran sparen
sub sequ
P ri
e at</w>
A .</w>
Pro c
to o,</w>
it er
bro ther</w>
men d
g er
King dom</w>
e t,</w>
l ate</w>
continu ed</w>
h ell</w>
ti vely</w>
as h</w>
down ,</w>
identi fied</w>
ship .</w>
con ver
vehic le</w>
en suring</w>
an ci
establish ment</w>
pass eng
si ons</w>
pay ments</w>
themsel ves</w>
F un
B i
an 's</w>
pr ic
b es
detail ed</w>
g ,</w>
ere d.</w>
vic tim
s tic
ne igh
ab s
app aren
stu dies</w>
glo bal</w>
2 8
T ake</w>
benef its</w>
ci vil</w>
r ain
0 .</w>
le y</w>
bel ong
and ...</w>
re duce</w>
par ti
acc ept
oper ations</w>
4 0</w>
w is
gr av
pow er
um ,</w>
2 7</w>
H el
v al</w>
r out
propor tion
ex tent</w>
s ite</w>
noti ce</w>
ne y</w>
lif e,</w>
j our
side ,</w>
dar k
d le</w>
7 ,</w>
S econ
b le.</w>
di d
affec t</w>
wat ching</w>
in jur
con form
dri ve</w>
gott en</w>
g est</w>
were n't</w>
qu ot
n er.</w>
self -
pass ed</w>
sudden ly</w>
re placed</w>
r ange</w>
progre ss</w>
TH E</w>
we ak
ha dn't</w>
re mo
1 1
is c
dum ping</w>
te l</w>
medic inal</w>
ac ting</w>
om ic</w>
bo tt
so f
cross -
ex ternal</w>
de part
stat ement</w>
curren tly</w>
for get</w>
publ ished</w>
t ly,</w>
dra w</w>
emplo ye
cre ated</w>
mo d
E con
regi str
intere sts</w>
concern ed.</w>
att ac
sh ar
st er</w>
inform ed</w>
] .</w>
r y
ge st
inter pret
vis ory</w>
ord ers</w>
sur pr
dis crimin
ris e</w>
circum stanc
over .</w>
work ers</w>
wr ite</w>
k s,</w>
asse ts</w>
2 9</w>
ing :</w>
us ually</w>
al ed</w>
f air</w>
descri bed</w>
ev en
actu al</w>
Un der</w>
head ing</w>
cat ch</w>
v ision</w>
as pec
lear n</w>
6 )</w>
H i
some times</w>
where .</w>
Auth ority</w>
bec om
achi eve</w>
R ic
exc eed
thing s.</w>
a ther</w>
us h</w>
expl ain</w>
co l</w>
net work</w>
thin ks</w>
ind ustri
prep ared</w>
pen sion</w>
do or.</w>
D is
na me.</w>
ey es.</w>
husb and</w>
j um
meth od</w>
2 6</w>
err ing</w>
d y
mi x
subst ance</w>
lik e,</w>
ud e</w>
olog ical</w>
i ous</w>
vi a</w>
inc id
mon th</w>
polic ies</w>
ter s.</w>
E d
wor th</w>
T F
bal ance</w>
ou d</w>
G o</w>
II I</w>
initi al</w>
p il
m er</w>
a ud
acc ept</w>
we ight</w>
a mental</w>
si ze</w>
m and
th en
tou ch</w>
who m</w>
Some thing</w>
der og
immedi ately</w>
z ation</w>
19 8
tor y</w>
professi onal</w>
10 0
er ation</w>
is m</w>
S .</w>
H ol
el ines</w>
In di
is on</w>
b our
issu es</w>
n y</w>
m ing</w>
li qu
de ep</w>
p sy
str ang
en able</w>
pro pri
I P
ab out.</w>
pre -
marke ts</w>
electr onic</w>
fort un
p ac
contrac ts</w>
ab sol
Y or
Sec tion</w>
W ill</w>
rec ital</w>
hum an
ec h</w>
A S</w>
G od
pic k</w>
b ank</w>
ag ing</w>
Go od</w>
l ack</w>
Americ an</w>
system .</w>
grou ps</w>
compati ble</w>
year ,</w>
gent le
O b
ment ary</w>
b er,</w>
y ed</w>
st ated</w>
be ha
reduc ed</w>
wee k</w>
Wh o
separ ate</w>
fo ot
tor .</w>
gr ounds</w>
ye t.</w>
in struc
worl d
al one.</w>
exist ence</w>
Commissi on.</w>
is es</w>
pl ant</w>
ap preci
t ext</w>
scienti fic</w>
abl es</w>
Govern ment</w>
indic ated</w>
u h,</w>
" The</w>
relation ship</w>
sle ep</w>
h en
h es
t ly.</w>
o s
oper ators</w>
paren ts</w>
oun c
ent s,</w>
( 4)</w>
selec ted</w>
it ting</w>
v ot
sub stances</w>
ter r
condi tion</w>
arrange ments</w>
On ce</w>
exam ination</w>
ell .</w>
b on</w>
w il
i es.</w>
Pleas e,</w>
o s</w>
f uc
l uck
w all
Ger man</w>
c ent</w>
0 .
t an
ur o</w>
pul led</w>
fin ding</w>
plac e,</w>
valu es</w>
in e
A T</w>
concern s</w>
ut h</w>
mo der
exam ple,</w>
gl ad</w>
cont ain</w>
ph arm
lo ad
or s.</w>
Gr ou
sub jec
Do es</w>
St ar
car rying</w>
c ut
w ish
i ed</w>
ing ing</w>
w er</w>
T E
eas y</w>
opportun ity</w>
in ter</w>
move ment</w>
sh oul
rib ute</w>
Ch rist
F ra
Wh ile</w>
( 200
exerc ise</w>
pho to
ent y</w>
begin ning</w>
re serv
every thing.</w>
lo ved</w>
re turned</w>
fi f
communic ation</w>
e. g.</w>
exp en
fund ing</w>
di d.</w>
fin e.</w>
ir .</w>
Ag ency</w>
no ted</w>
develop ed</w>
D u
con sci
Per haps</w>
proble m
law y
lim its</w>
lo ss</w>
R i
peop le
ful ,</w>
resul ting</w>
possib le.</w>
sor ry.</w>
uc le
c ast
co ff
whic h,</w>
differen ce</w>
clin ical</w>
sy mp
p on
in jec
my self.</w>
pre ven
n ers</w>
i on</w>
r at
pres sure</w>
regist ered</w>
was ,</w>
ne l</w>
s mar
noti fication</w>
apar t
proper ty</w>
ar ti
applic ants</w>
a h,</w>
concern ed,</w>
2 6
recei ve</w>
as su
fore ign</w>
id ity</w>
reali zed</w>
bor n</w>
appro xim
sur pris
regul ar</w>
E A
adequ ate</w>
respon se</w>
per haps</w>
sol ution</w>
clo th
en gin
ush ed</w>
to x
man 's</w>
ar y.</w>
pres ented</w>
lab or
y !</w>
in ing</w>
( C
supp li
import ance</w>
fe et</w>
to o
Sec ur
m ust
R u
me !</w>
get ary</w>
recommen ded</w>
go ,</w>
organis ations</w>
no d
ic .</w>
im pres
her ?</w>
7 .
ob tained</w>
le ment</w>
repor ting</w>
W al
ele ments</w>
s ac
conduc t</w>
st age</w>
s ounds</w>
g am
I .</w>
B er
tra di
ul es</w>
S a
lin ked</w>
s n
du ties</w>
Cha pter</w>
c entral</w>
require ment</w>
a ...</w>
im posed</w>
d ad</w>
g /
pp ing</w>
correspon ding</w>
advant age</w>
ar y,</w>
str ange</w>
off ered</w>
enti ty</w>
stu ff</w>
step s</w>
te am</w>
b om
as s.</w>
es '</w>
lear ned</w>
be ,</w>
eri es</w>
app lies</w>
cas e-
K o
prom ise</w>
appropri ate,</w>
M ed
d eleg
ag e
n one</w>
em issi
su ffici
tran si
ne ither</w>
ag ree</w>
eli gible</w>
g ol
b un
ri d
e fficient</w>
v ill
Peop le</w>
wat ched</w>
famil y.</w>
Ser v
Econ omic</w>
daugh ter</w>
si gh
equival ent</w>
call s</w>
jur is
o logi
conform ity</w>
on d
in -
Mor e</w>
mor ning</w>
they 'll</w>
develop ing</w>
piec e</w>
no thing.</w>
tal ked</w>
(1 )
mil itary</w>
ag o</w>
jo int</w>
hand .</w>
la un
devel op</w>
Al though</w>
manag ed</w>
arm s</w>
thing 's</w>
Con vention</w>
compe t
b er.</w>
us e,</w>
fail ed</w>
so ld</w>
p ite</w>
particip ation</w>
pow ers</w>
dr ag
abs ence</w>
pl as
tre m
s on,</w>
regar ded</w>
n ess,</w>
Con sequ
de l</w>
lead ing</w>
tr ust
consider ation</w>
im e</w>
ha ir</w>
ut es</w>
S A
practi ce</w>
car .</w>
S ch
m ou
de ep
oper ational</w>
ori gin</w>
morn ing.</w>
R igh
I ...</w>
s ent
implemen ted</w>
fav our
R ob
consum er</w>
anal y
M al
f ru
EC .</w>
tar get</w>
re vie
list en</w>
g ust</w>
e ments</w>
gu y
ne arly</w>
do ?</w>
be ar</w>
o v
W a
S ar
now ?</w>
appe al</w>
D at
inste ad</w>
Par ty</w>
ey e</w>
co ordin
independ ent</w>
on ed</w>
meth ods</w>
bl ed</w>
forc ed</w>
cont ribute</w>
... but</w>
environ ment</w>
M s.</w>
amen ding</w>
secre t</w>
v es
co de</w>
ord ination</w>
vehic les</w>
volu me</w>
z ing</w>
busin ess
dra w
hel p.</w>
reali ze</w>
expec t</w>
men .</w>
observ ed</w>
d eri
appl ying</w>
bet ter.</w>
I T
through out</w>
e m</w>
plan s</w>
sp end</w>
b ing</w>
ph as
i er</w>
ordin ary</w>
Inter national</w>
tar ge
ques tion.</w>
Ger man
x ,</w>
sho ws</w>
play ed</w>
6 0</w>
s ell</w>
bil li
Commissi on's</w>
remain s</w>
open ing</w>
func tion</w>
mu ch.</w>
Ac tu
materi als</w>
pres ent
gi c</w>
hand le</w>
ali d</w>
follow s</w>
um .</w>
peop le,</w>
Direc tive.</w>
f ast</w>
s ligh
some where</w>
mis s
responsi bility</w>
min ary</w>
k er</w>
hol ders</w>
com fort
at trac
li ved</w>
end .</w>
call ing</w>
l ap
it ely</w>
contain ed</w>
A fr
ol s</w>
she 'd</w>
c e,</w>
con ven
M at
sustain able</w>
G D
correc t</w>
J usti
sh op
juris dic
any body</w>
mo vi
stat us</w>
out ?</w>
e ase</w>
low ing</w>
In formation</w>
f er
sha do
there ?</w>
wr it
pro per</w>
crimin al</w>
am az
Par t</w>
con vers
s si
ic ,</w>
posi tive</w>
happen s</w>
spe ak
read ing</w>
r ates</w>
organis ation</w>
pic ked</w>
dis eas
foc us</w>
compu ter</w>
effor ts</w>
friend s.</w>
constit ute</w>
Man ag
we b
h as
fe ar</w>
fa ther.</w>
min e.</w>
girl s</w>
for war
t ered</w>
direc tive</w>
blo od
U h,</w>
b loc
d er.</w>
b ag
vess els</w>
pre jud
enter pris
mar ried</w>
st res
ex pos
ti t
ei ght</w>
s ource</w>
S im
tu red</w>
accoun ts</w>
certain ly</w>
l or
kill ing</w>
rec ent</w>
cho ose</w>
Uni on.</w>
qu e</w>
concer n</w>
an e</w>
appe ar</w>
addi tion</w>
" .</w>
f ish</w>
4 0
o w
ur g
Some one</w>
ic s</w>
Stat e.</w>
head ,</w>
se ven</w>
List en,</w>
bud getary</w>
cre d
nam ed</w>
v est
aw ay,</w>
on i
conclusi on</w>
Consequ ently,</w>
sen si
cle an
bab y</w>
No .</w>
legisl ative</w>
room ,</w>
ques tion
gi ves</w>
F und
t ex
accep ted</w>
se x</w>
I t
dam age</w>
him self.</w>
ge ograp
d ings</w>
fic ations</w>
abo ve,</w>
H ere
public ation</w>
hosp it
promo te</w>
beha vi
speci es</w>
mat ters</w>
enforc ement</w>
ag u
fir st,</w>
s en</w>
No thing</w>
A P
vi de
p al
ell ed</w>
ho od</w>
E m
org ani
freed om</w>
- up</w>
dra ft</w>
affec ted</w>
for .</w>
F ol
th i
a -
z er
s mi
hy dro
th el
coun ter
jo in</w>
educ ation</w>
res h</w>
R em
individ u
sm all
know ?</w>
ri c</w>
girl .</w>
to -
us ?</w>
we 'd</w>
ar d,</w>
ro b
end ,</w>
comp an
was .</w>
subsi di
hear ing</w>
it !</w>
bro ke</w>
D ar
us e.</w>
fall ing</w>
t ol
tain ing</w>
ucle ar</w>
imple ment</w>
in ary</w>
dat ab
. 0
trans m
interpret ation</w>
C al
Commun ic
fund amental</w>
consist ent</w>
sub paragraph</w>
O F</w>
bi o
cent ur
M em
tonigh t.</w>
el se
T e
it y
perfec t</w>
cro s
to t
With out</w>
C ro
Hav ing</w>
p ath
Dec isi
po c
con stitu
t ast
respec tive</w>
k e.</w>
judic ial</w>
ic e,</w>
ass ess</w>
fail ure</w>
COM M
sel y</w>
Every thing</w>
Au gust</w>
e k</w>
connec ted</w>
pos s
o ther,</w>
compens ation</w>
8 )</w>
mis sing</w>
ho t</w>
sh all,</w>
y ester
T ech
citiz ens</w>
l .</w>
cam er
gu ard</w>
vol un
di e.</w>
h ous
em s</w>
mis s</w>
prejud ice</w>
le -
po or</w>
co ld</w>
gu il
tem per
d ...</w>
main tain</w>
d ail
ed ly</w>
admin ist
M il
every body</w>
own .</w>
simp le</w>
inter pre
Afr ic
institu tion</w>
W at
j un
enci es</w>
exc eed</w>
dist inc
Bel gi
mic ro
land s</w>
fa ul
l eng
propos als</w>
do or
n ar
re new
fi ed.</w>
minut es.</w>
pre li
spo ke</w>
conf lic
bod y's</w>
test s</w>
li ke
fir st.</w>
d one.</w>
mess age</w>
Proto col</w>
phys ical</w>
your self.</w>
is ...</w>
el im
achiev ed</w>
expor ting</w>
au di
conf id
ad y</w>
. .</w>
that ...</w>
recogn ised</w>
main ten
ing ly,</w>
W in
per man
so .</w>
O K
200 3</w>
le an
wrong .</w>
ep h
er ror</w>
Ap propri
we aring</w>
includ es</w>
Pro duc
I S</w>
k ni
sp i
keep ing</w>
hou se,</w>
tor ,</w>
st ance</w>
C z
hom e,</w>
x es</w>
C H
is s
ro ll
b all</w>
Fra mework</w>
hu ge</w>
e uro</w>
u g
hi stor
occ up
J ack</w>
no te</w>
e u
min d.</w>
thous and</w>
tr uth</w>
strate gy</w>
de re
pro mis
b ase</w>
necessar y,</w>
buil d</w>
la red</w>
uni ties</w>
L ord</w>
ref erring</w>
to day</w>
sch ed
b ank
happen ed.</w>
coff e
buil t</w>
sol u
ro g
sho ot</w>
B et
lab our</w>
terri ble</w>
lat ter</w>
su gg
increas ing</w>
comm and
preli minary</w>
Ger many</w>
bro ken</w>
figh ting</w>
sav ed</w>
A m
mis sed</w>
ne ws</w>
F S
Justi ce</w>
registr ation</w>
b ought</w>
reason able</w>
Ge or
Uni on,</w>
job .</w>
al ised</w>
fac ts</w>
ra ise</w>
f as
P ub
A D
r ati
H on
H un
M S</w>
bod y,</w>
ind ing</w>
ir y</w>
suppor ted</w>
mi gr
h ?</w>
level .</w>
So cial</w>
ir d</w>
Comm on</w>
Stat e,</w>
long -term</w>
fuc king</w>
no body</w>
gre en</w>
B en
ter s,</w>
i e</w>
c ere
langu age</w>
usi on</w>
earli er</w>
oc cas
li ked</w>
wan t.</w>
th row</w>
e :</w>
ri d</w>
me rely</w>
a ur
ori ties</w>
cho ice</w>
ol .</w>
b ath
Ne ther
es )</w>
st ates</w>
introduc ed</w>
nigh t
si on.</w>
d uration</w>
us ers</w>
se l</w>
I -
reco very</w>
pres ence</w>
tr oub
struc turing</w>
Gu id
re ci
marke t,</w>
Cap tain</w>
J ud
bl ue</w>
Th ree</w>
b ad
an gr
calcul ated</w>
S lo
n ing.</w>
certific ate</w>
strai ght</w>
wor ry</w>
technolog y</w>
or dered</w>
ver s</w>
mom ent,</w>
appe ars</w>
so ft</w>
g one.</w>
in come</w>
int el
com pre
I M
enc ed</w>
C y
. e.</w>
est .</w>
say .</w>
signific antly</w>
pres cri
se a</w>
... I</w>
com e.</w>
form er</w>
d ge</w>
death .</w>
deb t</w>
Actu ally,</w>
month s.</w>
p ain</w>
dist or
c ab
Dev el
nam es</w>
grow ing</w>
drin k</w>
comb ination</w>
it s.</w>
con sumption</w>
EU .</w>
tr ouble</w>
con st
protec ted</w>
ar ity</w>
cas h</w>
cl ass</w>
quanti ty</w>
re ve
a h</w>
Chin ese</w>
pris on
hel ped</w>
th es
J es
provisi onal</w>
on to</w>
appe ared</w>
o il</w>
distribu tion</w>
J am
Mo st</w>
ast er
decisi on,</w>
comm itted</w>
are d.</w>
c ell</w>
dem and</w>
g ame</w>
re jec
atel y,</w>
produc er</w>
B ur
quanti ties</w>
or al</w>
mid dle</w>
ver sion</w>
t ap
chec ks</w>
objec t</w>
fac tors</w>
sh ould
k e,</w>
worl d,</w>
hour s.</w>
p ass</w>
b a
fi l</w>
J ap
n '
La w</w>
H um
quick ly</w>
expres sed</w>
app li
tim ate</w>
U S</w>
cas es,</w>
ap point
op tion</w>
Im ple
Program me</w>
de mo
co ok
competi tive</w>
Bu t,</w>
trans actions</w>
lin k</w>
e uro
per cent
decisi on.</w>
f ai
tempor ary</w>
declar ation</w>
pre sid
indu str
rec ord</w>
le gi
V AT</w>
avo id
dre w</w>
201 4</w>
ligh ts</w>
acc ur
M ari
num bers</w>
at ures</w>
destro y</w>
min im
v acc
exam ine</w>
w av
we ar</w>
The ir</w>
neg ative</w>
Proc ed
it 'll</w>
om ,</w>
ev ol
f resh</w>
k itch
infra structure</w>
dam n</w>
Ma j
il .</w>
after no
characteris tics</w>
H er
cam p
b an</w>
they 'd</w>
s co
Joh n</w>
pen al
bo o
T y
re plac
plan ning</w>
I V
sh ut</w>
1 /200
mur der</w>
ex tr
f em
h ical</w>
z en</w>
B al
high -
sk in</w>
tot ally</w>
( e)</w>
g ain
enti ties</w>
countr y.</w>
read y.</w>
ed :</w>
here n
A S
7 .</w>
le ?</w>
origin ating</w>
hop ing</w>
pro of</w>
fe ed</w>
peri od.</w>
k ing.</w>
exam ined</w>
ing u
C i
indic ate</w>
in s
6 0
inform ation.</w>
re port
bo ys</w>
Offic e</w>
ob tain</w>
coun t</w>
friend ,</w>
H ou
represent ative</w>
M ad
bo x</w>
cra ft</w>
w all</w>
ther n</w>
what ?</w>
rele ase</w>
effici ency</w>
plan ned</w>
soci ety</w>
righ t
m al
func tioning</w>
pos al</w>
un it</w>
they 've</w>
le ts</w>
c row
ad ver
pati ent</w>
maj ority</w>
k y</w>
acc essi
wat er.</w>
ff ic</w>
O L
h ang
other wise</w>
Secur ity</w>
gl ass</w>
s kill
fi re
A le
e th
stak e
well -
ev ents</w>
imag ine</w>
f e,</w>
Devel op
confir med</w>
a di
ad missi
s car
in a</w>
cl ass
St and
C hi
in sul
W o
pharm ac
sho o
abo ve
ei gh
Euro p
danger ous</w>
tim es.</w>
ish ing</w>
... to</w>
3 4
trav el</w>
pul l</w>
countri es.</w>
Con trac
n it
windo w</w>
cl u
half -
a b</w>
identi fy</w>
wo od
pres s</w>
l am
) ;</w>
V er
fa ult</w>
recei ving</w>
mo m</w>
pl at
wa it
E r
wor ried</w>
el y.</w>
emissi ons</w>
degre e</w>
Cap tain
Appropri ations</w>
br ain
C re
r am
dri ving</w>
s ).</w>
econom y</w>
12 .
T A
en su
ach es</w>
amend ments</w>
" What</w>
follow s:</w>
W as</w>
stor e</w>
lef t.</w>
D en
doub t</w>
part ner
m outh</w>
' s.</w>
mo del</w>
assess ed</w>
anc y</w>
Commit te
t asks</w>
am ing</w>
ch ur
st ared</w>
wr iting</w>
ad verse</w>
as sum
y es,</w>
us ed.</w>
ex ha
d y</w>
ere d,</w>
C er
proble m.</w>
intel lig
ci v
for d</w>
selec tion</w>
v alid</w>
ok ay.</w>
claim ed</w>
instru ment</w>
ori z
cle ar
B ud
Pro tec
lat er,</w>
ple a</w>
occur red</w>
c k</w>
ak ed</w>
att ack</w>
some thing,</w>
K ing</w>
k ?</w>
ner v
re in
don '
er ...</w>
supp le
in ated</w>
is ?</w>
stanc e,</w>
in corpor
with .</w>
ligh t.</w>
form al</w>
wh is
her self</w>
expos ure</w>
Ital ian</w>
conf identi
g ari
will ing</w>
tomorrow .</w>
detail s</w>
Pol ic
F ed
stor age</w>
br an
inform ation,</w>
in cur
ed ;</w>
addres sed</w>
A t
bir th
pap er</w>
me at</w>
gener ally</w>
inv ited</w>
spe ed</w>
( T
ask ed.</w>
D on
9 0</w>
re ac
g ing</w>
enough .</w>
gr am</w>
re min
defin itely</w>
k id</w>
conv inc
stup id</w>
H ere</w>
su re.</w>
ist er</w>
enti ally</w>
on e?</w>
N i
be d.</w>
law s</w>
n uclear</w>
school .</w>
artic le</w>
practic es</w>
w ind</w>
ac com
om .</w>
facilit ate</w>
won der</w>
vi g
J ac
ve ?</w>
t ure,</w>
EU ,</w>
pro duce</w>
sal e</w>
Some times</w>
se ts</w>
not es</w>
s ."</w>
" ?</w>
R y
P at
H en
str ain
ali ve.</w>
sup pose</w>
me d.</w>
sw it
dis cre
min e</w>
al ing</w>
em bar
mainten ance</w>
dev ice</w>
g al</w>
pl us</w>
as es</w>
on ...</w>
streng th
remain ed</w>
Cz ech</w>
toge ther,</w>
c ele
di es,</w>
od e</w>
A ustri
v ac
industri al</w>
Mic ha
morn ing,</w>
res ourc
n ur
ext ended</w>
f ound
b at
us er</w>
ous ly,</w>
it s,</w>
so ...</w>
lo ve.</w>
li t</w>
secon d
v ed,</w>
B ul
regi ons</w>
know ing</w>
vers ity</w>
hel p
put ting</w>
il ,</w>
author is
it ...</w>
m g/
oper ator</w>
effec tiveness</w>
can .</w>
v an
s wor
S am
believ ed</w>
popul ation</w>
loc ated</w>
t ure.</w>
D uring</w>
O ut
S peci
r s</w>
mil es</w>
mem ber
wee k.</w>
has n't</w>
w ro
pur po
isc al</w>
construc tion</w>
dol lar
possib le,</w>
st one</w>
control s</w>
craz y</w>
I D
men ting</w>
di alo
th en.</w>
just ...</w>
B as
bra in</w>
mar k
prom ised</w>
d educ
circumstanc es,</w>
control led</w>
g y
desig n</w>
town .</w>
er -
si m
ill ance</w>
ro l
id s</w>
I F
fin ished</w>
noti fy</w>
them ?</w>
bre a
Por tu
atic ally</w>
explain ed</w>
sp read</w>
sh ir
ap ologi
re sear
wom an.</w>
day s,</w>
ver thel
consul t
us ual</w>
aspec ts</w>
approxim ately</w>
sy n
inter ven
tain s</w>
A no
sam pl
V ic
Ac tion</w>
e ts</w>
ach .</w>
justi fied</w>
hi story</w>
defini tion</w>
fi es</w>
Gi ve</w>
Joh n
S co
hol der</w>
n er,</w>
regul ations</w>
g e,</w>
re sist
D r
sc ri
offic e.</w>
I V</w>
ut ely</w>
be t</w>
U S
consul tation</w>
bl ing</w>
lic en
hel ping</w>
c ell
remain ing</w>
J im
exam ple</w>
i es,</w>
argu ments</w>
offic er</w>
au dit</w>
V al
sug gest
C entral</w>
servic es,</w>
determin ing</w>
g e.</w>
Agre ement.</w>
gu y.</w>
si ght</w>
pri mary</w>
c k
IO N
tr ain</w>
min istr
lay ing</w>
dis ease</w>
be red</w>
inter rup
heav y</w>
loc ation</w>
br inging</w>
o do
cle an</w>
sha re
gl anced</w>
S pec
inspec tion</w>
cl ari
servic es.</w>
un able</w>
dro pped</w>
ser ies</w>
P R
tre at</w>
Can 't</w>
on e-
consum ers</w>
main ly</w>
M ag
ev ent
concentr ation</w>
lin e.</w>
Sec ret
Or g
m ay,</w>
sec tors</w>
system ,</w>
wal king</w>
vis it</w>
ship ,</w>
ad d</w>
19 7
t ells</w>
exec u
b all
Ap plic
E D
re structuring</w>
2 2
di r
dis covered</w>
electr icity</w>
bes ide</w>
cele br
recommend ations</w>
sur r
sam ple</w>
ex plan
ful fil</w>
l u
B es
dail y</w>
in clusi
tic ally</w>
suffici ently</w>
T er
man ner</w>
' C
lat er.</w>
l ac
w in</w>
proced ure
busin ess.</w>
p age</w>
Manag ement</w>
ple .</w>
tra ffic</w>
' I</w>
f erence</w>
Christ m
fav or
sp r
c entr
suppor ting</w>
ol der</w>
subsequ ent</w>
ess ed</w>
an s.</w>
be half</w>
com ments</w>
Fun d</w>
ann ounc
dro p</w>
categ ory</w>
Col on
9 )</w>
EN .0
p s,</w>
mil k</w>
bre ath
. ,</w>
power ful</w>
3 3
countri es,</w>
fac e,</w>
Ano ther</w>
si x
W il
categ ories</w>
goo d,</w>
ul ar</w>
di men
h arm
f light</w>
S ol
lo ad</w>
suit able</w>
symp tom
high ly</w>
l es.</w>
test ing</w>
P i
B ank</w>
mo ther.</w>
P al
di g
wi fe.</w>
199 9</w>
su n</w>
n 't.</w>
or s,</w>
pay ing</w>
? !</w>
R ules</w>
ing !</w>
gran ting</w>
ther ?</w>
dec lared</w>
ver si
( S
perform ed</w>
L is
though t.</w>
sig ns</w>
compre hen
s -
cris is</w>
slow ly</w>
ste pped</w>
ey es,</w>
cost s.</w>
estim ated</w>
measure s,</w>
wor se</w>
see k</w>
influ ence</w>
commit ments</w>
er t</w>
un g</w>
flo or</w>
invest ments</w>
C .</w>
Th anks</w>
at ur
H al
O R
altern ative</w>
as ing</w>
any way.</w>
amend ment</w>
ques tion,</w>
A re
or e</w>
... that</w>
ir ing</w>
hand s.</w>
ast er</w>
aim ed</w>
n ing,</w>
techno logi
sha res</w>
identi fication</w>
ar ch
Un der
al co
An n
mom ent.</w>
recogni tion</w>
cri me</w>
percent age</w>
contribu tions</w>
e z
calcul ation</w>
An d,</w>
be at</w>
8 .
g ate</w>
E M
cop y</w>
norm ally</w>
Direc tive,</w>
Fin ally,</w>
cross- border</w>
S ir,</w>
accoun ting</w>
p s.</w>
in ess</w>
pri ority</w>
ak e.</w>
W ell
pic ture</w>
Com pe
lic ence</w>
allow s</w>
great est</w>
li ber
200 6,</w>
a head</w>
em ed</w>
do g</w>
co ordination</w>
fu el</w>
mo del
reven ue</w>
no .</w>
tic ip
an a</w>
improv ing</w>
i di
ac compani
A ,</w>
F ri
to day
t !</w>
occas i
min ute</w>
r ub
conduc ted</w>
W el
num ber
ex -
mar ks</w>
charg es</w>
w ould've</w>
ul l</w>
il ing</w>
9 .
s ourc
ter i
s oul
O per
l ast
dist ur
collec tion</w>
0 ,
P a
spo t</w>
S al
land .</w>
t ac
surpr ised</w>
our sel
ail .</w>
measure s.</w>
L ast</w>
entit led</w>
year -
dre am</w>
plac es</w>
Sh ould</w>
notic ed</w>
enjo y</w>
possib ly</w>
h ide</w>
en 's</w>
mach in
loc ked</w>
j u
l ,</w>
tiv ity</w>
et c
IS S
p ute</w>
log y</w>
An g
ti n</w>
al ong
St aff</w>
Look s</w>
s ources</w>
id es,</w>
sur face</w>
memor y</w>
f iscal</w>
S il
dru g</w>
four th</w>
jurisdic tion</w>
se e.</w>
S wed
di es.</w>
def en
( 5)</w>
children .</w>
2 )</w>
tri c</w>
c ru
men tion</w>
ay s</w>
ref eren
d ged</w>
beg in</w>
n ut
s elling</w>
ha m
cir cul
am bi
e y</w>
ra w</w>
fil es</w>
b le,</w>
m ass</w>
ag es.</w>
x ml</w>
eas ily</w>
de fic
Qu e
tw ice</w>
Ad ministr
ash ed</w>
transf erred</w>
you !</w>
excep tion</w>
thin k.</w>
produc ts,</w>
im bur
fo od
reduc ing</w>
r ound</w>
(E EC)</w>
ing -
argu ment</w>
1 ,
Dat a</w>
s anc
Par agrap
ag ue</w>
dom in
re ti
As soci
ati vely</w>
ful fil
200 4,</w>
form ul
le n</w>
2 /200
ann ul
comple ted</w>
you 'il</w>
level ,</w>
te ach
ed ge</w>
to ...</w>
ac qui
lat est</w>
tomor row</w>
cre ation</w>
gott a</w>
z o
t ari
b .</w>
wro te</w>
mut ual</w>
represent atives</w>
3 5</w>
constit utes</w>
est ,</w>
h ...</w>
air .</w>
po ll
intro duce</w>
are a.</w>
dist ance</w>
it ors</w>
record s</w>
J ack
meet ings</w>
ves sel</w>
and -
sho ok</w>
differen ces</w>
serv ed</w>
5 00</w>
ar ound.</w>
trans mission</w>
com plic
atel y.</w>
N E
ant s,</w>
T it
discus s</w>
pp er</w>
cr y
b ound</w>
U se</w>
fi x</w>
sev ere</w>
un its</w>
guid elines</w>
Fr ance</w>
satis fac
hi c</w>
ab ilities</w>
P re
administ ered</w>
Wor ld</w>
200 2</w>
regar d,</w>
din ner</w>
t able.</w>
E mp
as signed</w>
repres ented</w>
um ul
ali a,</w>
success ful</w>
j ac
m ail</w>
ag gre
Grou p</w>
ous ly.</w>
c ard</w>
Com p
head ed</w>
se es</w>
any thing,</w>
dec reas
ill .</w>
201 1)</w>
ant s.</w>
( e.g.</w>
promo ting</w>
GD P</w>
8 0</w>
wo od</w>
ban ks</w>
exemp tion</w>
cho sen</w>
us tic
h at
N ic
Ap pe
lik e.</w>
ti vel
under stood</w>
resid ence</w>
sug ar</w>
el y,</w>
Every one</w>
pers on.</w>
e ip
comm and</w>
" And</w>
emp ty</w>
enc y.</w>
produc ts.</w>
f it</w>
tur ning</w>
al th</w>
perm it</w>
wor st</w>
bre ach</w>
Is n't</w>
where ,</w>
con soli
design ated</w>
integr ation</w>
apparen t</w>
ei ther.</w>
proc ure
s in
re imbur
4 5</w>
f ar
ag ent</w>
F re
to m</w>
m el
am s</w>
Commun ity,</w>
na me,</w>
alloc ation</w>
Auth or
trac k</w>
I rel
D av
S pan
T on
classi fied</w>
accompani ed</w>
en z
clos er</w>
Ab out</w>
effor t</w>
l es,</w>
'C ause</w>
i ,</w>
r ad
fl ying</w>
No body</w>
t ing.</w>
chang ing</w>
ke ts</w>
civ ili
Communic ation</w>
y el
sist er</w>
L ond
gr ound.</w>
al ity.</w>
te e
s ong
i .</w>
regi on</w>
integr ated</w>
dis pute</w>
w ine</w>
heal th
consequ ences</w>
( P
pack age</w>
ap pointed</w>
anci ent</w>
7 /200
dr un
lat e.</w>
se min
your s.</w>
adjust ment</w>
enti rely</w>
cover ing</w>
ke t.</w>
vie w,</w>
e ut
200 4/
N um
sc ale</w>
S outh</w>
ve ter
m ay
time -
emerg ency</w>
on er</w>
g are
B ob
appreci ate</w>
al ity,</w>
COMM ISS
b are
ty -
obvi ously</w>
tim es,</w>
opport unities</w>
peri od,</w>
an s,</w>
clo sure</w>
clim ate</w>
rec eip
ide a.</w>
s s.</w>
geograp hical</w>
M ac
st ret
the red</w>
ex trem
V ery</w>
streng th</w>
feel s</w>
figu red</w>
hum ans</w>
k is
for got</w>
or y.</w>
t ask</w>
request s</w>
Bo th</w>
incur red</w>
rest aur
big gest</w>
bu t,</w>
Sor ry,</w>
sus p
chec ked</w>
H y
thre w</w>
en di
des pite</w>
t a</w>
r ing
per form</w>
wel come</w>
re move</w>
di ed.</w>
bl ack
In de
li ability</w>
assu me</w>
ok ay,</w>
mun ic
ac tion.</w>
derog ation</w>
off ,</w>
bo y.</w>
D id
... the</w>
resol ution</w>
demo cr
e gg
schem es</w>
injur y</w>
def end
te en</w>
in ser
C ur
lim it
200 0</w>
tru ly</w>
ear ch</w>
cre w</w>
de emed</w>
ch an
L ou
st ly</w>
follow ing:</w>
e an</w>
L uc
v ul
fin ance</w>
great .</w>
introduc tion</w>
Pro f
tru e.</w>
s ought</w>
S top</w>
C a
adv ice</w>
soci et
S k
ri fic
imple ment
e di
fa ir
shor t
ro ad
po st</w>
prep are</w>
do or,</w>
E v
t our
re gre
ri es</w>
ra il
absol utely</w>
terr or
ac e.</w>
200 5,</w>
bene ath</w>
bl u
monit or</w>
happen ing</w>
comp any
20 0</w>
interest ing</w>
ri de</w>
poin t.</w>
ani a</w>
w ake</w>
fa ther's</w>
charac ter</w>
pleas e,</w>
sligh tly</w>
f la
bab y.</w>
ref er</w>
sus pic
to day,</w>
th anks</w>
E li
essi ve</w>
bur den</w>
T able</w>
In stance</w>
L oc
sleep ing</w>
w 's</w>
d er,</w>
i )</w>
chil d.</w>
be fore,</w>
re moved</w>
Contrac ting</w>
record ed</w>
200 1/
col um
3 5
chang e.</w>
bro ther.</w>
mar ked</w>
chem ical</w>
substanti al</w>
bo t
oper ate</w>
rul es.</w>
ay ed</w>
poin t,</w>
tech ni
compon ents</w>
o red</w>
Hi gh</w>
sir ,</w>
pre dic
m ol
deal ing</w>
Council ,</w>
ord er.</w>
E F
sho wing</w>
M er
it or</w>
Ch ris
tru th.</w>
v ing.</w>
anti- dumping</w>
Gi ven</w>
tic .</w>
s ending</w>
Ar gu
2010 ,</w>
st ac
e ;</w>
offici als</w>
ch ick
luck y</w>
sec ure</w>
gre w</w>
se as
3 9
Sy stem</w>
mast er</w>
P ay
care fully</w>
perman ent</w>
B re
c el
S up
medic ine</w>
high est</w>
att ached</w>
Russi an</w>
eut en
lo dged</w>
reli gi
L at
t ren
sc ared</w>
n om
d es</w>
happen .</w>
leav e.</w>
r ang
cour se.</w>
my st
D el
Regul ations</w>
innov ation</w>
p ath</w>
ab and
es !</w>
there of,</w>
descri ption</w>
R ight</w>
What ever</w>
mone y,</w>
particip ating</w>
re present</w>
fin ish</w>
deli vered</w>
ti gh
though t,</w>
lo sing</w>
I P</w>
struc tural</w>
war ri
ser ver</w>
proced ure.</w>
it ems</w>
cre ating</w>
g row</w>
veri fication</w>
log ical</w>
im possible</w>
fin ds</w>
id es</w>
supp lied</w>
other s.</w>
weap ons</w>
form ed</w>
T i
ac ted</w>
arri ved</w>
ro se</w>
s ,"</w>
fut ure.</w>
D an
V e
" I'm</w>
gi es</w>
restric tions</w>
fin dings</w>
Har ry</w>
f al
th or
ke y
el ev
prac tical</w>
appropri ations</w>
wa ited</w>
2007 ,</w>
su re,</w>
at tri
thing s,</w>
s wee
Did n't</w>
re actions</w>
in side.</w>
plan e</w>
M ay
3 2</w>
% .</w>
M ax
Exc use</w>
st ro
surve illance</w>
authori ties,</w>
bi tion</w>
U .
C am
f ly</w>
op h
extrem ely</w>
Fir st,</w>
necessar y.</w>
mar ry</w>
, I</w>
commit ment</w>
commit tee</w>
i .e.</w>
mach ine</w>
Tr ade</w>
as s,</w>
4 8</w>
fr ag
l iter
al ?</w>
look ,</w>
te ach</w>
proceed ings,</w>
sha red</w>
f ill</w>
gover ning</w>
Th ank
2010 )</w>
S um
stic k</w>
t aught</w>
air craft</w>
par ame
L ar
200 9,</w>
T al
hid ing</w>
d ing.</w>
I r
hosp ital</w>
e x</w>
billi on</w>
dec re
l uc
f low</w>
200 8,</w>
hid den</w>
ati ve,</w>
8 0
N et
Develop ment</w>
invol ving</w>
h ang</w>
go ld</w>
l er</w>
en i
wh it
Paragrap h</w>
sm ell</w>
fir st
case- law</w>
p ill
Ju li
k ind
c oul
purch ase</w>
impor ted</w>
d ouble</w>
there fore,</w>
exper ts</w>
hear t.</w>
S m
here by</w>
manufacture r</w>
n ed.</w>
at or.</w>
n ine</w>
hy po
part ners</w>
G ar
end er</w>
1. xml</w>
Fol lowing</w>
ation ?</w>
wat er,</w>
uni form</w>
part ner</w>
en ever</w>
ton n
R ev
tri gg
g en</w>
200 6/
Spec ial</w>
re form</w>
enc y,</w>
v oc
believ es</w>
sac rific
per c
ke t
ic k.</w>
adm it</w>
nam ely</w>
peri ods</w>
wi fe
tou ched</w>
COMMISS ION</w>
ic i
star ing</w>
et ary</w>
3 6
in k
exam in
201 1,</w>
stre et</w>
fle xi
b y.</w>
b low</w>
us ed,</w>
s on
He 'd</w>
l in</w>
prof it</w>
pro to
er gy</w>
dest in
contr ary</w>
plac e
div or
on es.</w>
ol ,</w>
comple x</w>
bare ly</w>
rep li
b inding</w>
cul tural</w>
spor t</w>
min d,</w>
tur ns</w>
smo o
embar r
des per
Accord ingly,</w>
mo b
ar t</w>
alloc ated</w>
E P
conclusi ons</w>
Nor th</w>
St e
allow ing</w>
st om
s at
ar ising</w>
gh o
He 'll</w>
T ar
' s...</w>
im age</w>
qu e
th ank
m es</w>
Nether lands</w>
char ged</w>
gr ound
en ting</w>
jo ined</w>
3 6</w>
S ci
wonder ing</w>
cap it
a id.</w>
ren t</w>
Par t
de ad,</w>
h oriz
pr oud</w>
ha ve.</w>
fu n</w>
thing ...</w>
c in
Gre ec
will .</w>
di d,</w>
cont ex
col leg
C T
S ME
st y
Re port</w>
e at
psy cho
eas ier</w>
fo ot</w>
car bon</w>
an ?</w>
p ig
incre di
ag o
situ ations</w>
plan .</w>
tend er</w>
ri but
ener g
A mend
ar my</w>
Con tro
Anne xes</w>
ush ing</w>
ex ist</w>
wonder ful</w>
Wh ite</w>
D EC
r um
c ity.</w>
3 8
Win do
Un til</w>
strai gh
dem and
b s</w>
Th us,</w>
3 7
T S
su m</w>
men ted</w>
ye ah,</w>
rec ently</w>
K ar
Commun ity.</w>
dres s</w>
O P
stoc k</w>
mus ic</w>
St re
cover s</w>
fiel ds</w>
W ar
ail ed</w>
man if
w s.</w>
we ver</w>
Who 's</w>
famili ar</w>
long .</w>
rul ing</w>
interpre ted</w>
Str ate
expres sion</w>
ac t.</w>
U L
de pos
i z
di ag
c ue</w>
Ear th</w>
remem bered</w>
hu h?</w>
A ir
inter vention</w>
le ...</w>
de vic
Ac t</w>
ti m</w>
exten sion</w>
k -
kid s.</w>
3 /200
cor e</w>
en ge</w>
app ell
op pos
bar ri
C ustom
se at</w>
Here 's</w>
whi le,</w>
vir tu
trad ing</w>
Gre at</w>
ve get
guar ds</w>
ust ed</w>
plan et</w>
sub -
ha z
or m
s /
aim s</w>
stay ed</w>
lin ed</w>
al -
B ra
w w
aw ard</w>
a x</w>
meth odo
Sa fe
9 0
ho st</w>
N ever</w>
Re public
ar ks</w>
encour age</w>
tel ev
cha ir</w>
mechanis m</w>
do ing.</w>
ol d.</w>
at eral</w>
on ce.</w>
photo grap
sa fe.</w>
pres sed</w>
EU RO
g )</w>
bo at</w>
al isation</w>
mon ey
I ts</w>
fast .</w>
complain t</w>
is tic</w>
b ar</w>
fa ther,</w>
sh el
oun ding</w>
ad ul
clo sely</w>
( the</w>
ig nor
stand ard
stor y.</w>
prepar ation</w>
t on.</w>
p ip
ti ll
201 2,</w>
deli very</w>
k g</w>
leng th</w>
res s</w>
dra wing</w>
Mar ket</w>
enterpris es</w>
d il
sol v
en abl
Con ven
cour ts</w>
A M
engin e
effec tively</w>
on om
ab sor
ten ed</w>
st uck</w>
gg ing</w>
H u
en vis
with draw
E G
g as
pat ter
( s)</w>
exceed ing</w>
ali a</w>
sex ual</w>
lear ning</w>
ti g
pleas e?</w>
D N
4 4
specific ally</w>
id en
contrac ting</w>
ha bit
under standing</w>
fac tor</w>
re mun
S elec
ish ,</w>
long ,</w>
L ord
know ...</w>
E I
plan ts</w>
f righ
W illi
use ful</w>
what ,</w>
previ ously</w>
w ol
sugg est</w>
na me
wed ding</w>
ol es
P .</w>
discrimin ation</w>
radi o</w>
S us
row ing</w>
pe ace</w>
har m</w>
posi tion.</w>
S ur
lic ences</w>
in fl
compar able</w>
trans action</w>
co heren
or 's</w>
en ?</w>
statis tical</w>
look .</w>
is e.</w>
el ess</w>
serv ation</w>
benefici ary</w>
neigh bor
ish ed.</w>
sett led</w>
rep ly</w>
t ing,</w>
( f
s ick</w>
ve ...</w>
stric t</w>
ed ic
Bul gari
perfec tly</w>
though .</w>
hard ly</w>
ter 's</w>
injec tion</w>
r ich</w>
shi el
am ed</w>
su re
forc es</w>
200 3/
si z
eng ine</w>
certain ty</w>
D ri
C ode</w>
direc tion</w>
They 've</w>
sk y</w>
war .</w>
answ ered</w>
v it
cli ent</w>
G l
ter ?</w>
A L
small er</w>
Sco t
el ement</w>
rele ased</w>
comb ined</w>
Se e,</w>
ori al</w>
Span ish</w>
sol ely</w>
in '</w>
way ?</w>
it em</w>
T -
Agre ement,</w>
fi re.</w>
situ ation.</w>
thous ands</w>
si on,</w>
si mul
lad y</w>
dec l
lik es</w>
ali ve</w>
Yor k</w>
d 's</w>
immedi ate</w>
ul ti
leav es</w>
Go d.</w>
e ."</w>
tradi tional</w>
Pub lic</w>
e ous</w>
me t
transparen cy</w>
ar rest
man age</w>
Imple menting</w>
Th om
S he
M S
en e</w>
rel ations</w>
Serv ice</w>
proper ly</w>
custom ers</w>
where as</w>
escap e</w>
am m
stair s</w>
200 1</w>
En ergy</w>
ag ents</w>
A id</w>
compar ison</w>
classi fication</w>
wit ness
particip ate</w>
fir m</w>
EU -
) :</w>
el in
4 5
mag ic</w>
They 'll</w>
gran ts</w>
alleg ed</w>
AT ION</w>
becom es</w>
L y
Mic ro
ex trac
bri ef
su ic
war m</w>
au l</w>
endi x</w>
objec tiv
lar ger</w>
enem y</w>
initi ative</w>
ure ly</w>
c and
f ,</w>
l and,</w>
7 5</w>
expec t
b ad.</w>
lo an</w>
fi ed,</w>
tis h</w>
C as
ev il</w>
f ant
g al
D .</w>
sl augh
ak e,</w>
% ,</w>
ful ly.</w>
therap y</w>
some thing?</w>
ri t</w>
her o
rec it
ag es,</w>
cr uc
negoti ations</w>
vie ws</w>
em phas
10 .
big ger</w>
blo od.</w>
determin ation</w>
indic ation</w>
ho tel</w>
whi le.</w>
Ru le</w>
3 7</w>
in hi
fas hi
" We</w>
ex ic
B ut
j ok
in stance,</w>
3 3</w>
won dered</w>
T S</w>
Engl ish</w>
wat ch
ou red</w>
smil e</w>
ho le</w>
ti s</w>
do g
batt le</w>
il ed</w>
employ ed</w>
wee ks.</w>
Chin a</w>
procure ment</w>
h ome
dro ve</w>
m s.</w>
b and</w>
cor rup
9 1/
p ushed</w>
Ang el
ish .</w>
P ur
subm ission</w>
Any way,</w>
guarante es</w>
spe aking</w>
be dro
promo tion</w>
ati ve.</w>
ste el</w>
all ed</w>
dev ices</w>
" It</w>
ra in</w>
Fr anc
proced ure,</w>
s es.</w>
Comm and
shi f
demonstr ate</w>
proc ess.</w>
as set</w>
for ?</w>
Inter net</w>
e ating</w>
he at</w>
st ation</w>
b y,</w>
legi timate</w>
201 3,</w>
op tions</w>
de struc
exp iry</w>
fac ilities</w>
( 4
inter medi
ed -
st ake</w>
state ments</w>
embarr ass
initi atives</w>
K y
ab out?</w>
fing ers</w>
Protec tion</w>
s ),</w>
il legal</w>
fun n
I R
we 'il</w>
od y</w>
adv anced</w>
fall s</w>
" S
smil ed</w>
sch e
ess ing</w>
ty pe
vul ner
M exic
ali ties</w>
b ly</w>
gro wn</w>
super visory</w>
Sp ain</w>
reci pi
s inc
medic ines</w>
roc k</w>
Su per
compet ence</w>
cl ou
tw o-
C ,</w>
le 's</w>
secon ds</w>
elim in
( 7
soldi ers</w>
ex tra
exc ell
ph ase</w>
do ing?</w>
com mon
lo ts</w>
EC B</w>
gg ed</w>
princi p
9 /200
ter ing</w>
- year-
to ols</w>
D am
ti al</w>
ing ly.</w>
ab ili
k ing,</w>
ari an</w>
hour .</w>
develop ments</w>
vide o</w>
rec ru
compan y.</w>
c ast</w>
c ells</w>
cl ub
assess ing</w>
T A</w>
hor se</w>
observ ations</w>
decre ase</w>
pro gram</w>
figu res</w>
tin y</w>
adv ance</w>
protec ting</w>
H or
d ed.</w>
T re
bot tom</w>
cor rid
M any</w>
hor ri
ar dis
meas ured</w>
air s</w>
p as
f at</w>
temper ature</w>
ide .</w>
paren t</w>
ab bed</w>
veri fy</w>
extr a</w>
stay ing</w>
ge t.</w>
li ver</w>
los ses</w>
be tr
ic h
f ed
M ake</w>
k 's</w>
( including</w>
i red</w>
Associ ation</w>
comfort able</w>
comprehen sive</w>
convinc ed</w>
medi um
control .</w>
Ag ent</w>
can di
cro ss</w>
C lar
st ed</w>
c ust
y ;</w>
dis put
ac id</w>
trans l
a p</w>
challeng es</w>
fiel d.</w>
friend s,</w>
pow er.</w>
attemp t</w>
transi tional</w>
was h
inclusi on</w>
as sa
so on.</w>
l on
here ...</w>
h all
camp ai
T R
val idity</w>
Op ini
8 7
trav el
exc it
inde ed</w>
P RO
countr y,</w>
acc el
il s</w>
deli ver</w>
y es.</w>
prof it
mar i
subm its</w>
rejec ted</w>
ligh t,</w>
li able</w>
fore ver.</w>
L an
: 00</w>
for ,</w>
bro ad</w>
wat er
mechanis ms</w>
gi f
medi a</w>
m s,</w>
loy ment</w>
cal m</w>
abil ity.</w>
lo ans</w>
] ,</w>
ail s</w>
mar gin</w>
2 1
appe ar
li ves.</w>
ig n
collec ted</w>
streng then</w>
individu als</w>
gen e
st aff
authori ties.</w>
s wi
" But</w>
fish eries</w>
differen t.</w>
un t</w>
an other.</w>
propor tion</w>
e ,"</w>
let ters</w>
employe es</w>
acqu isi
p in
proceed ings.</w>
o we</w>
Bes ides,</w>
w on</w>
alle n</w>
though ,</w>
dri ver</w>
consid ering</w>
activi ties.</w>
3 4</w>
chall enge</w>
4 6
S en
proportion ate</w>
J er
ro bo
s pl
institu tional</w>
super vision</w>
wis e,</w>
s la
arm ed</w>
er ship</w>
ga me.</w>
ri g
8/ EC</w>
ye t,</w>
sav ing</w>
est s</w>
thre at</w>
A .
s low</w>
indic ators</w>
mat ter.</w>
d ly,</w>
stuff .</w>
sp ending</w>
excep tional</w>
fin anced</w>
cha ir
book s</w>
form .</w>
M eas
en ...</w>
com ing.</w>
C C
Rem arks</w>
ak es</w>
Appe al</w>
del ay</w>
this ...</w>
defic it</w>
proced ural</w>
Commun ities</w>
respec t,</w>
M ur
strate gic</w>
ic ked</w>
cal end
fra me
tax ation</w>
f ought</w>
anc e)</w>
Inter nal</w>
famil y,</w>
3 8</w>
ti ve
(i )</w>
tro op
bro ther
d ry</w>
2010 .</w>
Polic y</w>
thin k,</w>
vot e</w>
T V</w>
sec ret
remem ber
r ab
is ol
ation :</w>
' s,</w>
wil d</w>
do ors</w>
daugh ter.</w>
air port</w>
( in</w>
pre clud
simp li
dep ending</w>
speci fy</w>
technolog ical</w>
8 8
parti al</w>
ci pl
ob stac
il y.</w>
exc use</w>
bel ong</w>
af ford</w>
li br
ris ing</w>
pro sec
con cre
ci gare
passeng er</w>
selec t</w>
sho w
communic ate</w>
girl ,</w>
Re member</w>
she 'll</w>
contrac tual</w>
P an
S hi
necessar ily</w>
condi tions.</w>
dis gu
With in</w>
E L
Res earch</w>
ag ency</w>
app ing</w>
Sor ry</w>
num er
A ss
go ing.</w>
car ,</w>
pro spec
se ?</w>
part y.</w>
dat a.</w>
lo t.</w>
are d,</w>
up ?</w>
sto le</w>
a qu
O ther
t esti
c it
ext end</w>
in ?</w>
Br us
datab ase</w>
inten tion</w>
avi d</w>
i a,</w>
ac knowled
sti mul
S P
a h.</w>
N one</w>
statis tics</w>
favor ite</w>
rel ax
struc k</w>
satis fy</w>
suff ered</w>
st ing</w>
compon ent</w>
occ ur</w>
multi ple</w>
ar ded</w>
as le
tre as
Some body</w>
7 0</w>
becom ing</w>
(f )</w>
T ime</w>
res cue</w>
fil m</w>
func tions</w>
B an
wat ers</w>
D un
aster n</w>
wall s</w>
list ening</w>
z one</w>
r ough</w>
de fe
me tal</w>
N C
val id
der s.</w>
ter rib
r a</w>
ve ment</w>
U R
E S</w>
enc oun
u tr
rap id
cloth es</w>
b right</w>
prepar ing</w>
Th ink</w>
avail able.</w>
hy per
post -
net works</w>
nation als</w>
bec a
n on
k ing
flo or.</w>
organ ised</w>
dat e.</w>
App endix</w>
prohi b
weap on</w>
Rec om
3 )</w>
stop p
reflec t</w>
forc e.</w>
month s,</w>
lean ed</w>
difficul ties</w>
sh aring</w>
tor s,</w>
r ural</w>
are s</w>
communic ated</w>
mu ch,</w>
sum m
Ko re
condi tions,</w>
AN NE
sc al
acqui red</w>
u tive</w>
certific ates</w>
migr ation</w>
me d,</w>
a c</w>
S ing
pl om
t emp
t es</w>
responsi b
communic ations</w>
4 3</w>
m ad</w>
ass ist</w>
Where 's</w>
pos ing</w>
drin king</w>
Ke ep</w>
us al</w>
ref used</w>
(T ext</w>
d ying</w>
fo ol
understand .</w>
B or
cho ice.</w>
C he
O ver
depend s</w>
3 00</w>
vic tim</w>
obvi ous</w>
pr ise</w>
J as
- to-
R en
for give</w>
dist ingu
cor ner</w>
It 'll</w>
ill ,</w>
ef .</w>
o le</w>
Americ a</w>
T ra
qui et
Un less</w>
regist er</w>
e tr
contro ll
200 2/
improv ement</w>
b us</w>
appropri ation</w>
H as</w>
lead s</w>
Treat y.</w>
cl ick</w>
olog y</w>
destro yed</w>
imp air
ti red</w>
quot a</w>
hang ing</w>
ell ec
accoun t.</w>
angr y</w>
jud ge</w>
an o
mi gh
ap s</w>
dialo gue</w>
G al
fav our</w>
T V
ac tion,</w>
experi enced</w>
wi fe,</w>
fac es</w>
er s'</w>
sector .</w>
af ra
ac h,</w>
let ting</w>
wor d.</w>
an nex
at ure
E st
see king</w>
at ing.</w>
me t.</w>
cl es</w>
( Article</w>
l s</w>
reg ime</w>
Custom s</w>
import ant.</w>
Ital y</w>
ok ed</w>
ol d,</w>
ne ,</w>
be d,</w>
head s</w>
sto red</w>
citiz en
book .</w>
there by</w>
rul es,</w>
ow ned</w>
col on
Gre ek</w>
B e</w>
ste al</w>
plac ing</w>
acc ession</w>
re place</w>
ANNE X</w>
gr ound,</w>
rep lied</w>
Num ber</w>
sa f
col lap
professi on
M id
p ack</w>
200 3,</w>
pro te
mat ch</w>
sum mer</w>
improv ed</w>
5 %</w>
uni ver
autom atically</w>
abil ity,</w>
adver ti
c ked</w>
stoc ks</w>
sat ell
process ed</w>
exper t</w>
con vic
com e,</w>
B .</w>
tis su
resid ent</w>
i or</w>
s on's</w>
ev ent,</w>
sent ence</w>
Fran k
3 9</w>
par t,</w>
gl ass
smar t</w>
ent y-
ass ass
C -
jun c
ol d
guid ance</w>
og en
favour able</w>
symptom s</w>
pain ,</w>
St ay</w>
del et
pris on</w>
n es
verthel ess,</w>
passeng ers</w>
dum ped</w>
In vest
ex ports</w>
C S
4 9</w>
wom an,</w>
struc tures</w>
di ver
amaz ing</w>
H igh
m bo
00 0.</w>
skill s</w>
A L</w>
recit als</w>
el ine</w>
ess or</w>
a i</w>
201 3.</w>
U k
so le</w>
per .</w>
mom ent
pu ts</w>
up date</w>
sud den</w>
again ?</w>
for gotten</w>
Lu x
T or
se ment</w>
cigare tt
br illi
pain .</w>
No ti
convers ation</w>
modi fied</w>
RE G
fam ous</w>
c ous
re ds</w>
A ud
EU R
troub le.</w>
P ap
stake holders</w>
frequ ency</w>
fic ial</w>
surpr ise</w>
ic k,</w>
system s.</w>
sti ll
be aut
m ...</w>
P ut</w>
v an</w>
expres s</w>
ac her</w>
victim s</w>
tion ?</w>
collec tive</w>
star ts</w>
perm itted</w>
R el
ed !</w>
N ext</w>
sleep .</w>
Wel come</w>
l ou
pro pose</w>
o t.</w>
l ess.</w>
bo w
any where</w>
sh it</w>
fore st</w>
rec ep
b id
an -
amen d</w>
peri od
out come</w>
tari ff</w>
go d
pl ying</w>
prec is
st able</w>
or y,</w>
f allen</w>
fin e,</w>
u le</w>
un law
2007 .</w>
w ind
bor ne</w>
Ci vil</w>
. )</w>
rol led</w>
c enter</w>
ad em
inv o
sub stanc
inter im</w>
instruc tions</w>
st ar</w>
affec ting</w>
Tech nical</w>
s ed.</w>
assi ve</w>
ri dic
benefici aries</w>
God 's</w>
Exc ept</w>
wor ding</w>
2 -
You 'd</w>
technologi es</w>
ex act</w>
cros sed</w>
e ye
cha m
d ance</w>
er n
w all.</w>
depend ent</w>
lo ves</w>
s s,</w>
di c</w>
deleg ated</w>
ation ;</w>
exclud ed</w>
g gl
d one,</w>
200 9.</w>
s lo
leg s</w>
ph one.</w>
200 9/
et t
heal thy</w>
U. S.</w>
any one.</w>
Safe ty</w>
receip t</w>
" ,</w>
Hum an</w>
in j
re s.</w>
L ab
g ard
pri mar
quali fied</w>
fe ed
% 1</w>
y :</w>
sus pension</w>
ev ening</w>
D avid</w>
smo ke</w>
! '</w>
al one,</w>
Uk rain
ro ad.</w>
C FS
qu ick</w>
tol er
rel atively</w>
Mr s</w>
cap tain</w>
consider able</w>
im m
some how</w>
not ably</w>
gen u
say ?</w>
re di
t on,</w>
st ability</w>
bus y</w>
A ir</w>
to w
curren cy</w>
fo rec
1 1.
ang er</w>
tre es</w>
cri tical</w>
De part
defin e</w>
per missi
t wi
r on
S pe
A h,</w>
nat ur
exc essive</w>
fo od.</w>
201 1.</w>
expen ses</w>
: /
wor ds,</w>
200 8.</w>
t ary</w>
second ary</w>
she et</w>
i zed</w>
pr ay
low -
C all</w>
Brus sel
po is
EURO P
vo ice.</w>
u es</w>
m acro
k iss</w>
it es</w>
" It's</w>
dru g
air ,</w>
He alth</w>
ba g</w>
d ating</w>
7 0
it self.</w>
poli tic
Pro v
fle w</w>
9 2/
ab out,</w>
keep s</w>
poin ting</w>
mix ed</w>
dat a,</w>
ar ound,</w>
sensi tive</w>
pre mi
qui et</w>
em ission</w>
A si
minut es,</w>
Bri tish</w>
no v
coffe e</w>
fant as
har d.</w>
adjust ed</w>
m ?</w>
justi fy</w>
compati bility</w>
c en
Windo ws</w>
tra ffic
chi ef</w>
him self,</w>
moun tain
dis posal</w>
system s,</w>
war ning</w>
c ould've</w>
w ag
leg ally</w>
hes ion</w>
treat ment.</w>
Direc tor
P aul</w>
scen e</w>
EN.0 100
cha mp
spi rit</w>
veter inary</w>
withdraw al</w>
respon d</w>
Ric hard</w>
201 2.</w>
C ase</w>
swe et</w>
pers on,</w>
tax able</w>
under taken</w>
th s</w>
mo stly</w>
tw enty</w>
Th en,</w>
tar gets</w>
im plic
S ou
g ain</w>
ren al</w>
ear th</w>
main tained</w>
chang ed.</w>
M y
nod ded</w>
fac ed</w>
um p</w>
clo sing</w>
ra ising</w>
b ,</w>
minut e.</w>
ti me?</w>
marri age</w>
C le
H am
hour s,</w>
Inde ed,</w>
fla g</w>
Fo re
col or</w>
V ir
Tit le</w>
mo ther
me tab
demonstr ated</w>
fe et.</w>
s word</w>
is lat
restric ted</w>
C ho
y al</w>
a id,</w>
8 /200
Recom mend
bur ied</w>
job ,</w>
u d</w>
tr ou
hand ling</w>
ail ing</w>
fe es</w>
ad vis
(2 )
4 2</w>
wrong ,</w>
si zed</w>
Ch il
fru it</w>
fl es
Sy stem
di e,</w>
S und
subsequ ently</w>
suspec t</w>
Y et</w>
kill er</w>
sett lement</w>
% )</w>
ex plic
( 6)</w>
ma p</w>
Lux em
se t.</w>
Decisi on.</w>
list .</w>
ess entially</w>
docu mentation</w>
n ed,</w>
stre am</w>
lat eral</w>
rep ut
ridic ul
f at
alco ho
:/ /
harmon ised</w>
ill ed</w>
ic ul
dis cipl
rel ate</w>
p air</w>
ho wever</w>
li e.</w>
l ess,</w>
D ann
ro p
ri ver</w>
w ai
s and
8 7</w>
tri al</w>
t ub
st ori
relev ance)</w>
offic ers</w>
P S</w>
pre vention</w>
ph en
ing redi
up dated</w>
ass ur
y )</w>
own er</w>
tal k.</w>
F ac
200 6.</w>
tw o,</w>
e ver.</w>
m ere</w>
husb and
aw aren
a uc
wan t,</w>
co ol</w>
thre e-
el s.</w>
in tr
M us
issu ing</w>
M O
enh ance</w>
fac ing</w>
incorpor ated</w>
an ticip
dang er</w>
here 's</w>
feel ings</w>
l es
hon est
ful ly,</w>
Christm as</w>
f .</w>
assum ed</w>
ne ur
gi ant</w>
- 0
bit r
De tec
fi red</w>
sol ve</w>
at o
immedi ately.</w>
TF EU</w>
windo w.</w>
process es</w>
f uck</w>
pl enty</w>
bas is,</w>
bott le</w>
iden tical</w>
arr ang
sa me.</w>
U p
K i
Secon d</w>
R ol
op tim
ab out
al is
sh r
y m
ir regul
le v
do zen</w>
job s</w>
ar rest</w>
invol ve</w>
(2 ),</w>
ho tel
col le
tw o.</w>
be g</w>
identi ty</w>
ac i
Fed eral</w>
M ol
ques tions.</w>
commun ity</w>
sha pe</w>
person nel</w>
form ,</w>
stu died</w>
sha p
the -
fa ith</w>
-year- old</w>
al y
T rib
u pper</w>
F B
ti ed</w>
mo ther's</w>
R am
t ree</w>
posi tions</w>
Th ir
there of</w>
confir m</w>
re aching</w>
OK ,</w>
( A
lef t,</w>
kil led.</w>
prescri bed</w>
supp lies</w>
bl ame</w>
manufac turing</w>
prec ise</w>
Part ner
in sist
say ing,</w>
sle pt</w>
sp ap
gener ation</w>
t um
restric tion</w>
here !</w>
l it
ent al</w>
sof tw
tion ally</w>
R ed</w>
at ric</w>
e ar</w>
ne utr
u til
bun ch</w>
EA N</w>
legisl ation.</w>
S wit
guy s.</w>
Hou se</w>
conc ept</w>
care ful</w>
moder n</w>
00 .</w>
expec ting</w>
diag no
pret end</w>
P ati
cut ting</w>
craz y.</w>
a er
lay s</w>
fortun ately,</w>
kid .</w>
eng aged</w>
yel low</w>
initi ated</w>
sou l</w>
a u</w>
work s.</w>
opini on,</w>
Pe ter</w>
Ne vertheless,</w>
vis ual</w>
in direct</w>
c av
Li euten
hon or</w>
of -
Direc tor</w>
manag ing</w>
d edic
br ings</w>
es tion</w>
hand ed</w>
ref use</w>
sp lit</w>
v am
ad ing</w>
oblig ed</w>
hol ds</w>
exclusi ve</w>
though ts</w>
( 201
at es.</w>
leg islat
E lec
tt p
s ong</w>
accel er
sam ples</w>
il y,</w>
sit es</w>
ent ly.</w>
p ir
el se,</w>
dis semin
Pl an</w>
cha in</w>
dres sed</w>
b lock</w>
g es</w>
fun d</w>
En viron
stud ents</w>
neigh bour
p ast
il st</w>
faul t.</w>
com for
bur ned</w>
re st.</w>
lin e,</w>
A gr
ni e</w>
C r
Europ e.</w>
apart ment</w>
sci ence</w>
Regi onal</w>
wh enever</w>
Jap an
conv ince</w>
L ady</w>
fa ther
Mem bers</w>
sum mary</w>
accessi ble</w>
bur ning</w>
Any thing</w>
ho li
S ho
im pose</w>
M ini
de pres
J on
em br
s ni
concre te</w>
ar ily</w>
repor t.</w>
fi le.</w>
hun g</w>
O ld</w>
t ested</w>
tru e,</w>
on ally</w>
nor th</w>
lo ,</w>
conflic t</w>
f li
loc k
ap .</w>
" If</w>
primar ily</w>
mob ile</w>
centr e</w>
cor p
Org anis
In t
Co operation</w>
gr ant
car s</w>
... you</w>
bur n</w>
9 5</w>
ill s</w>
Pro b
prohi bition</w>
fic ation,</w>
8 5
indic ates</w>
restric tive</w>
bri dg
re ject
mo sp
nigh t?</w>
R a
remun eration</w>
pregn ant</w>
Geor ge</w>
D ani
tri p</w>
play s</w>
children ,</w>
de fault</w>
Ad di
W est</w>
em er
exclusi vely</w>
ch ose</w>
bil ateral</w>
ligh t
bri dge</w>
ve -
se m
vari ety</w>
d ad
achiev ing</w>
criteri on</w>
new spap
y s,</w>
defini tive</w>
200 8/
f ain
dru gs</w>
fe atures</w>
ther ing</w>
h ttp
ch ance.</w>
gon e,</w>
V o
EUROP EAN</w>
di plom
tor s.</w>
business es</w>
po ly
sector ,</w>
recogni zed</w>
d ly</w>
cy cle</w>
P L
ul ed</w>
E ast</w>
him ...</w>
Proced ure</w>
4 /200
end a</w>
19 6
wee k,</w>
go ing,</w>
pro p
op en.</w>
cost s,</w>
break ing</w>
2 ).</w>
happ y.</w>
as k.</w>
... "</w>
S how</w>
(1 ),</w>
train ed</w>
sa d</w>
Amend ment</w>
s ounded</w>
V ol
speci ally</w>
regar d
spac e.</w>
bro k
ox y
there of.</w>
equ ity</w>
M P</w>
pri orities</w>
invol vement</w>
bo x
back ?</w>
foc used</w>
dis play</w>
mar ine</w>
strength ening</w>
en orm
mar gin
chec king</w>
T im
smi le.</w>
mur dere
na vig
k a</w>
ide ,</w>
d ates</w>
6 /200
reas on,</w>
200 5.</w>
hes it
T u
organi z
tur no
4 1</w>
sen s
B ased</w>
grad u
des c
do ing,</w>
s y</w>
F ish
In ste
shoo ting</w>
ke y.</w>
p ush</w>
divid ed</w>
O H
gr ade</w>
prov ed</w>
der s,</w>
Micro soft</w>
it e.</w>
We 'il</w>
per spec
avail ability</w>
particip ants</w>
our .</w>
Pa ul
on line</w>
4 7
kni fe</w>
P et
pl ate</w>
k o
at or,</w>
2 ,
fem ale</w>
serv ice.</w>
suggest ed</w>
ation ...</w>
( a
re mind</w>
conf erred</w>
suspec ted</w>
Ex ec
we ird</w>
ag encies</w>
dead line</w>
recogni ze</w>
bo ther</w>
increas es</w>
rev ised</w>
l uck</w>
e ing</w>
squ e
e ffic
call .</w>
enough ,</w>
deri ved</w>
D om
h ated</w>
our s</w>
Guid elines</w>
ator s,</w>
Cour t,</w>
mir ac
A G
lar gest</w>
plas tic</w>
TE R</w>
activi ties,</w>
in admissi
do ses</w>
ok ay</w>
ne are
hon est</w>
mad e.</w>
po ver
pow ered</w>
S atur
intere st.</w>
as :</w>
annul ment</w>
B ,</w>
me tal
no ise</w>
ha ir
movi e</w>
on ce,</w>
w est</w>
at mosp
Fo od</w>
Every body</w>
Treat y,</w>
ic a</w>
200 2,</w>
school ,</w>
Ass ess
volun te
dri ven</w>
compan y,</w>
serv ing</w>
Fi ve</w>
co ol
ha w
M el
ear s</w>
Ch ec
ch lor
2007 )</w>
so v
sig nal</w>
me ters</w>
b low
, ...</w>
B on
wom en.</w>
F ather</w>
Th ird</w>
some where.</w>
mo ther,</w>
can ,</w>
y a</w>
prof ile</w>
Trib un
we ak</w>
produc t.</w>
he pati
grou p.</w>
be aring</w>
sh ould've</w>
Doc u
un d</w>
am in
build ings</w>
D em
regul ated</w>
form at</w>
competi tiveness</w>
th o
W he
I- I</w>
ab le
piec es</w>
gu y,</w>
be d
int ellec
prec eding</w>
phys ic
tr uc
rout e</w>
mach ines</w>
( for</w>
agree ment.</w>
ver ing</w>
L in
princi ple,</w>
" How</w>
govern ance</w>
problem s.</w>
m m</w>
App aren
ass ure</w>
repe ated</w>
4 7</w>
farm ers</w>
out side.</w>
metab ol
belong s</w>
bro wn</w>
DEC IS
y ,"</w>
as ide</w>
bas is.</w>
b y-
Proto col
organ ic</w>
6 5</w>
belo w.</w>
pleas ant</w>
ti le</w>
ban king</w>
techni qu
deser ve</w>
car di
pil ot</w>
Serv ices</w>
Bl ack</w>
v is</w>
accept able</w>
seri ously</w>
investig ation.</w>
To o</w>
b one</w>
sear ching</w>
ra is
att ack
L ev
cra f
imag in
el s,</w>
mur dered</w>
20 20</w>
ar bitr
husb and.</w>
night m
stuff s</w>
y ."</w>
H an
bir th</w>
your self,</w>
C ity</w>
I .
9 3/
v ent
bre ast
ti an</w>
200 5/
contex t,</w>
announc ed</w>
G en
shor t-
enter ing</w>
lif ted</w>
re action</w>
re s,</w>
Si x
to ol</w>
are a,</w>
us ...</w>
respec tivel
ver 's</w>
num ber.</w>
D ep
ad ed</w>
S ure,</w>
Ty pe</w>
program me.</w>
fill ing</w>
F our</w>
sh ut
b it.</w>
eli gi
S C
lo ve,</w>
ha m</w>
l ing
sur g
inter f
S am</w>
li v
din ner.</w>
8 8</w>
ne ed.</w>
calend ar</w>
s essi
REG UL
abo ve.</w>
vir us</w>
s ell
ne .</w>
tra -
Yea h.</w>
T od
du ly</w>
be ?</w>
rel ative</w>
cooper ate</w>
shar p</w>
off ering</w>
dig ital</w>
http ://
transm itted</w>
di str
S ud
vers al</w>
under lying</w>
l au
bre ath</w>
ref ers</w>
off ers</w>
at es,</w>
in 's</w>
fir ms</w>
munic ip
wor se.</w>
rati o</w>
milli on.</w>
with ,</w>
cur i
confid ence</w>
my self,</w>
ch ?</w>
c eas
war d.</w>
w ished</w>
through .</w>
* *
En ter
t ted</w>
s outh</w>
reli able</w>
inv itation</w>
wit ness</w>
B lo
def end</w>
pass ing</w>
legisl ation,</w>
l y?</w>
stit ute</w>
beauti ful.</w>
inno cent</w>
Colon el</w>
web site</w>
subjec ts</w>
conclud e</w>
sil ver</w>
appl y.</w>
B il
industr y.</w>
as e.</w>
Micha el</w>
str ateg
n ice.</w>
rel ates</w>
thir d-
lim itation</w>
posi tion,</w>
disappe ared</w>
om en
tax es</w>
... in</w>
star s</w>
ord er
ment ?</w>
im al</w>
answ er.</w>
Agr icul
month .</w>
secon d,</w>
ex posed</w>
L aw
th in</w>
Council .</w>
200 8)</w>
pl y,</w>
will ,</w>
T ry</w>
regul arly</w>
pl ain</w>
at ing,</w>
R ac
repres ents</w>
te am.</w>
swe ar</w>
4 4</w>
strong er</w>
mo tor</w>
def ence</w>
sho t.</w>
b o</w>
200 4.</w>
spo ken</w>
hon e
D ef
N O
re lied</w>
e ag
stop .</w>
li sts</w>
man ?</w>
t ough</w>
di um</w>
situ ation,</w>
dy nam
applic ation.</w>
exec ution</w>
200 0/
ex po
r ace</w>
Wa it,</w>
st ories</w>
scen ari
satis fied</w>
ation )</w>
no t?</w>
an xi
princip al</w>
lar ge
artic les</w>
r are</w>
accid ent</w>
O '
tion ary</w>
or ...</w>
vie w.</w>
Irel and</w>
ate -
p .
Ar th
enc es.</w>
pl y.</w>
as yl
Le gal</w>
su res</w>
ga thered</w>
lead er</w>
Min ister</w>
hi red</w>
W ell</w>
s can
Y es.</w>
F ar
EU 's</w>
Th ough</w>
your s</w>
fle et</w>
nat ure.</w>
wor e</w>
r o</w>
cri tic
Th at
ac e,</w>
se en.</w>
pleas ure</w>
Ser ge
l a</w>
type -
hel p,</w>
we ir
transparen t</w>
gre en
ho w
G lo
sid es</w>
At l
sp are</w>
us u
hund reds</w>
Maj est
chang e,</w>
day ?</w>
th -
arm .</w>
be ...</w>
at er
Luxem bour
le y,</w>
% 1
oper ation.</w>
de ar</w>
produc ing</w>
pleas ed</w>
att ered</w>
ator s.</w>
E ur
ent re
fin anc
mi stake</w>
mari time</w>
Thank s,</w>
say s,</w>
ref u
present ation</w>
L _
mo bil
commit te
6 5
inv ite</w>
repres enting</w>
S par
reflec ted</w>
W ol
ab e
Secon d,</w>
or ation</w>
ail ,</w>
Jam es</w>
regul ation,</w>
sen se.</w>
o re
Cha m
sil ent</w>
absol ute</w>
gl y
multi -
to s
d anc
applic able,</w>
W ere</w>
associ ation</w>
vie w
al li
b ol
hop ed</w>
conc ep
environ ment.</w>
N av
in sufficient</w>
s ick
expor ted</w>
IN G</w>
so il</w>
reas on.</w>
tw o
W ash
exper ti
201 1/
soli d</w>
bir ds</w>
Contro l</w>
tru th,</w>
correc tly</w>
survi ve</w>
Parlia ment,</w>
cap tain
ord er,</w>
n u
autom atic</w>
on e...</w>
f are</w>
Righ ts</w>
load ed</w>
sho p</w>
expres s
u h...</w>
Wh at,</w>
as sign
a ther
acquisi tion</w>
kid n
equ ally</w>
protec tion.</w>
fast er</w>
bo y,</w>
in s.</w>
II ,</w>
I T</w>
then ?</w>
min or</w>
dec ad
O ver</w>
world 's</w>
2010 /
ret ail</w>
stair s.</w>
ch ann
build ing.</w>
mech an
o h,</w>
comp ul
Prob ably</w>
T ot
beh in
4 6</w>
jour ney</w>
pe di
decreas ed</w>
connec t</w>
t able,</w>
S an</w>
Tran s
pref er</w>
ac t
P O
tel eph
ins an
b ast
199 9,</w>
busin ess,</w>
sh u
di ed,</w>
hun gr
e g
y l</w>
gentle men,</w>
pic tures</w>
Med ic
par king</w>
M ary</w>
repli ed.</w>
presid ent</w>
3 2
in put</w>
your self
le y.</w>
guarante ed</w>
tic ,</w>
broad cast
tic s,</w>
succ ess</w>
hand s,</w>
gi ven
des k</w>
kitch en</w>
appoint ment</w>
care er</w>
r ough
sector al</w>
St u
solu tions</w>
dis closure</w>
d ing,</w>
gr ate
vam pi
continu ous</w>
gover ned</w>
long -
vi leg
corpor ate</w>
requ iring</w>
B eli
ri ding</w>
ti e</w>
Jo e</w>
some one.</w>
al ready.</w>
2007 /
doub ts</w>
supple mentary</w>
ha ve,</w>
um b
inc enti
Sch eng
D .
le t.</w>
Is ra
tri es</w>
mo bility</w>
N on-
Op en</w>
lin ks</w>
applic ation,</w>
Slo v
sampl ing</w>
dat e,</w>
envis aged</w>
La ur
ne y.</w>
as ha
tonigh t,</w>
advant ages</w>
col labor
sto len</w>
Auth orities</w>
har d,</w>
am a</w>
C entr
t ori
competi tion.</w>
Strate gy</w>
ne ar
specific ations</w>
plas ma</w>
yester day.</w>
P P
Th ought</w>
protec tive</w>
mand atory</w>
auth en
dark ness</w>
T O</w>
youn ger</w>
oppos ite</w>
apparen tly</w>
A F
wn .</w>
our ,</w>
ac t,</w>
(i i)</w>
gi ft</w>
vol um
N ame</w>
G ra
fun ny</w>
sup ports</w>
death ,</w>
anti c</w>
themsel ves.</w>
st ag
li p
German y,</w>
ac tions.</w>
sh ou
aw arded</w>
Lis bon</w>
m ass
hospit al.</w>
wish es</w>
scre en</w>
w are
Scheng en</w>
polic y.</w>
mor tal
... .</w>
ir on</w>
comple tion</w>
plan ,</w>
mistak e.</w>
lawy er</w>
jour n
did ates</w>
back ground</w>
T ri
wi z
am es</w>
I ra
lar g
j er
W ester
him !</w>
Le ave</w>
doc tor.</w>
p h</w>
sil ence</w>
su s</w>
myst eri
other s,</w>
tast e</w>
su peri
nigh ts</w>
deli ber
ret ro
bo ard.</w>
town ,</w>
aut onom
be st.</w>
cre ature</w>
int end</w>
s ne
reti re
I cel
telev ision</w>
w oul
way s.</w>
secur ities</w>
f arm</w>
sub sid
s es,</w>
though t
Bi g</w>
d war
5 5</w>
isl and</w>
" That's</w>
Wor king</w>
th ?</w>
r ail</w>
rapid ly</w>
wor ds.</w>
sp ar
attac ked</w>
install ation</w>
excell ent</w>
at tor
ath er,</w>
exist s</w>
Commun i
E mil
tr ag
fun .</w>
, and</w>
jum p</w>
dollar s</w>
B ab
su it</w>
consist s</w>
m al</w>
i el
CFS P</w>
li e,</w>
was ...</w>
Wash ing
in qu
bro ther,</w>
continu es</w>
inst ance</w>
bi ological</w>
precis ely</w>
g az
sho ld</w>
d are</w>
ef ,</w>
che e
don 't.</w>
care .</w>
5 6</w>
lab elling</w>
5 1</w>
chec k
star t
v il
rec alled</w>
cra w
ke t,</w>
offic e,</w>
l ing,</w>
roll ing</w>
at -
visi ble</w>
figh t.</w>
do gs</w>
righ ts,</w>
nerv ous</w>
C N</w>
main taining</w>
sc op
laun ched</w>
be gun</w>
' .</w>
nar row</w>
vis a</w>
sti c</w>
responsib ilities</w>
li ve.</w>
Que en</w>
cour t.</w>
Mini stry</w>
effic acy</w>
I ni
d on</w>
in compatible</w>
end or
m y.</w>
is e,</w>
clear ance</w>
mir r
b and
sur ren
D E
Direc tives</w>
R oc
sy ring
l ord
c ould
volun tary</w>
ver y,</w>
C R
innov ative</w>
S and
cruc ial</w>
confidenti al</w>
na me?</w>
m y,</w>
Acc ess</w>
coun ting</w>
sli pped</w>
cho o
Des pite</w>
re al.</w>
in ci
accom pl
exclud ing</w>
CO UN
people 's</w>
wo ke</w>
ke ys</w>
f ound.</w>
Ann ual</w>
C ali
mag az
above mentioned</w>
I M</w>
gr abbed</w>
preven ting</w>
Pr inc
lo vely</w>
labor atory</w>
discus sed</w>
friend ly</w>
sl av
pre mis
issu e.</w>
ton ight</w>
bl in
reject ed.</w>
mon st
fif th</w>
pre neur
provid ers</w>
De fin
sk i
f ab
Assess ment</w>
he ?</w>
l -
201 5</w>
fl at</w>
bu y
co- operation</w>
D G</w>
M aster</w>
fing er
suff ering</w>
run s</w>
on going</w>
the tic</w>
det ail</w>
the at
offici ally</w>
ch er</w>
sett le</w>
ter y</w>
I sl
all er
Un cle</w>
nec k</w>
k i
uni que</w>
Mar k</w>
oursel ves</w>
nat ure,</w>
tr y
jo int
T om</w>
per ,</w>
for ni
B us
chur ch</w>
... ?</w>
reco vered</w>
langu ages</w>
on )</w>
l ar</w>
Gre en</w>
y cl
Pay ments</w>
ha ir.</w>
ing 's</w>
certi fication</w>
Sci enti
go ?</w>
dream s</w>
H aw
ep ,</w>
v a</w>
meet ing.</w>
ent h</w>
ex tre
equi pped</w>
argu ed</w>
tw el
Exec utive</w>
ent 's</w>
to ?</w>
car b
air e</w>
tonn es</w>
test .</w>
bo ss</w>
increas ingly</w>
quar ter</w>
g n</w>
justi ce</w>
a .
C ri
thre shold</w>
sec tions</w>
are as.</w>
Min ist
canc er</w>
200 1,</w>
even ing.</w>
sp ring</w>
manag er</w>
cry st
guy s,</w>
z ,</w>
er o
m ale</w>
des ire</w>
Compe tent</w>
accord ingly.</w>
righ ts.</w>
S to
C _
T em
every thing,</w>
Pati ents</w>
ar s.</w>
E ither</w>
fre e
appe al,</w>
regul ation.</w>
ell a</w>
un known</w>
effec t.</w>
clim bed</w>
R ap
condi tion
tic s.</w>
comb at</w>
R and
r is</w>
S ay</w>
measure ment</w>
F il
consider ations</w>
5 2</w>
express ly</w>
cour t,</w>
mo ve.</w>
list en
allow ances</w>
O ri
parame ters</w>
regard less</w>
ye t?</w>
ly mp
z e
al ist</w>
out put</w>
rail way</w>
inv ent
fe eding</w>
renew able</w>
Se veral</w>
install ed</w>
B en</w>
U N</w>
intellig ence</w>
9 4</w>
replac ement</w>
ad ult</w>
Decisi on,</w>
de vo
Indi an</w>
per s</w>
an ne
inst inc
alle l</w>
We b</w>
O h
mag ne
on ing</w>
enabl ing</w>
mur der.</w>
no thing,</w>
bo x.</w>
bl ind</w>
B a
s h</w>
ed )</w>
row s</w>
ur ban</w>
eas y.</w>
stre et
fol ks</w>
fl ag
good -
manufac ture</w>
co incid
fair ly</w>
Cha ir
tiv en
proc ess,</w>
st s.</w>
go t.</w>
it 'd</w>
pack aging</w>
I d
conven i
S T
happen ed,</w>
b ound
transi tion</w>
valu ation</w>
room s</w>
effec t,</w>
itt ed.</w>
Out turn</w>
del ic
prin t</w>
rec k
destro y
custom er</w>
Fun c
indic ations</w>
mo v
consequ ence</w>
- based</w>
lun ch</w>
I D</w>
up set</w>
d ele
p ed
par tly</w>
pro mp
A ff
1 ).</w>
mat ter,</w>
collec t</w>
calcul ating</w>
rap id</w>
f uck
fir m
apar t</w>
Chi ef</w>
pe ace
ly ...</w>
Ne w
So ci
sist er.</w>
es ,"</w>
objec ts</w>
valu e.</w>
L O
jum ped</w>
... is</w>
decl are</w>
re ality</w>
G ent
whis p
produc tion,</w>
ord ers.</w>
th ick</w>
fe e</w>
direc ted</w>
vill age</w>
Swit zer
o ts</w>
continu ing</w>
partner ship</w>
tee th</w>
stor m</w>
P C
Greec e</w>
de al.</w>
targe ted</w>
under take</w>
proble m,</w>
D et
stru ggl
M .</w>
pri vileg
inhi bit
( or</w>
M om
safe guard</w>
prec ed
nut ri
o be
Go t</w>
Pro posal</w>
F ind</w>
D ut
id al</w>
fix ing</w>
d ad.</w>
A ri
par t.</w>
sc ap
an ...</w>
res cu
i a.</w>
lo b
gr at
al ...</w>
electr ical</w>
require ments.</w>
const ant</w>
oper ated</w>
recommend ation</w>
sug ge
ce il
bl es</w>
radi o
p y
ch op
Str uc
indic ating</w>
Po si
e ,
att le</w>
blood y</w>
z e.</w>
bl an
retur ning</w>
ref und</w>
list ened</w>
i ze</w>
cas es.</w>
re serve</w>
aw ful</w>
conc e
Japan ese</w>
9 6/
Sing le</w>
el 's</w>
bu ying</w>
p lo
Y P
secon ds.</w>
on y</w>
th 's</w>
war d,</w>
can '
aw a
marri ed.</w>
deal t</w>
load ing</w>
Hen ry</w>
S ant
ig no
camer a</w>
N a
( 5
Po int</w>
s ound
C la
fic ation.</w>
L itt
ge t,</w>
repor t,</w>
Bet ter</w>
ha d.</w>
ing ;</w>
st ages</w>
quot as</w>
cop s</w>
famili es</w>
fal se</w>
con fig
wan ting</w>
you th</w>
el ed</w>
Y u
00 0
bri ef</w>
func tion
P S
see ks</w>
meth od
S cho
) )</w>
par lia
harmon isation</w>
tab lets</w>
tw enty-
stu di
ca using</w>
S w
purpo se.</w>
too ?</w>
Ear th.</w>
tr uck</w>
question n
mo on</w>
par allel</w>
dis co
gr as
ti ous</w>
U K</w>
way s,</w>
defend ant</w>
' You</w>
d a</w>
/ EC</w>
need ed.</w>
P ,</w>
quar ters</w>
Ob jec
Se a</w>
K el
p ast.</w>
acc umul
reli ef</w>
new s.</w>
kin ds</w>
- sized</w>
pursu ed</w>
li ps</w>
impair ment</w>
pul ling</w>
f ar.</w>
Commit ments</w>
junc tion</w>
Tom or
201 4,</w>
" Do</w>
termin ation</w>
8 1</w>
1 (1)</w>
it ec
COUN CI
so c
o 's</w>
shoul der</w>
par ties.</w>
discre tion</w>
Belgi an</w>
ac y.</w>
ce iling</w>
m assive</w>
pl ed</w>
fac ility</w>
tan e
horri ble</w>
SME s</w>
9 8/
in tra-
no se</w>
Europ e,</w>
Fur ther</w>
publ ish</w>
Cro ati
l as
oun ce</w>
aw ay
th u
4 ).</w>
pow er,</w>
Partner ship</w>
alleg ing</w>
R &
some one's</w>
any thing?</w>
marke ts.</w>
dir ty</w>
( g)</w>
shado w</w>
con servation</w>
polic y,</w>
pl ay.</w>
i e
lab el</w>
4 3
di am
territ orial</w>
descri be</w>
resul ted</w>
methodo logy</w>
Em per
cont ents</w>
awaren ess</w>
199 9/
ge l</w>
com posed</w>
por t.</w>
Speci fic</w>
appell ant</w>
add y</w>
evid ence.</w>
depart ment</w>
agree ment,</w>
ic op
avail able,</w>
dist ant</w>
W om
resul t,</w>
ir rit
concentr ations</w>
de teri
t le</w>
sched uled</w>
kil ome
fra ud</w>
land ing</w>
milli ons</w>
candi date</w>
form ing</w>
In stitu
tun n
chil d,</w>
stres s</w>
y iel
who ever</w>
stri ke</w>
E EC,</w>
dep end</w>
r ,</w>
law s,</w>
her self.</w>
adm itted</w>
hur t.</w>
ref usal</w>
fro zen</w>
detec ted</w>
pref eren
remin ded</w>
EF TA</w>
15 0</w>
T ION</w>
inspec tions</w>
s ory</w>
bul let</w>
atten tion.</w>
referen ces</w>
dis pat
stre et.</w>
s "</w>
boy friend</w>
program me,</w>
b its</w>
laun ch</w>
lic k</w>
cere mon
S eri
ph il
par ties,</w>
invest ors</w>
event ually</w>
suspic i
reason s,</w>
co des</w>
mar k,</w>
Selec t</w>
extra ordinary</w>
Pol and</w>
s is</w>
in duc
prec au
know n.</w>
Cer ti
B ack</w>
pursu e</w>
it self,</w>
dedic ated</w>
N at
M om,</w>
im position</w>
Portu gu
H ad</w>
co tt
ip ul
ali en</w>
j am
fore seen</w>
ed s</w>
car tel</w>
201 4.</w>
to i
h em
forc e,</w>
we al
J ustic
colum n</w>
ill ing</w>
responsi bil
je op
work s,</w>
g or
who ,</w>
z .</w>
E gy
k ers</w>
enjo yed</w>
inno c
C A
E qu
Ch ur
h is
ist s</w>
fre e.</w>
chem ic
turno ver</w>
thing !</w>
So ...</w>
COUNCI L</w>
200 6)</w>
penal ties</w>
p assi
u n</w>
H ell
In spec
/200 6</w>
As sist
w ave</w>
N ations</w>
v ast</w>
Int ere
Administr ative</w>
s er</w>
carri er</w>
M is
Res ol
Ale x
al ys
request ing</w>
elec tric</w>
transf ers</w>
oc e
author ity.</w>
consul t</w>
can didates</w>
mee ts</w>
ric h
T ex
perform ing</w>
per sist
D ate</w>
Stat es'</w>
8 9/
pro long
or ?</w>
An d
O h</w>
ran k</w>
but ton</w>
purpo se,</w>
iter ran
fund ed</w>
develop ment.</w>
k es</w>
Net work</w>
W ar</w>
opini ons</w>
f ar,</w>
en vel
Russi a</w>
re mark
a id
paragrap h,</w>
are as,</w>
teleph one</w>
sit e.</w>
behavi our</w>
terror ist</w>
pr ud
bet ter,</w>
S ir</w>
What ?</w>
Lond on</w>
en a</w>
H AS</w>
enorm ous</w>
low ,</w>
Jes us</w>
appropri ate.</w>
Do esn't</w>
ish ment</w>
St ev
An ti
ro man
guil ty</w>
Offic er</w>
4 00</w>
gener ated</w>
tri als</w>
Pol ice</w>
ang le</w>
trac e</w>
ous ness</w>
Tot al</w>
ate ?</w>
gun .</w>
hel ps</w>
bor row
Wester n</w>
M org
we b</w>
Le g
shoul d,</w>
S E
great ,</w>
we ather</w>
c ep
L and
in o</w>
Eur at
remo te</w>
difficul ty</w>
ca uses</w>
U r
b um
adap t</w>
ph y
de fec
comp lied</w>
mo tion</w>
solv ency</w>
reve aled</w>
199 8</w>
' c
Opini on</w>
infra struc
C ast
F l
Pro ject</w>
Ag ain
p up
P en
Invest ment</w>
) 0
r ating</w>
per mission</w>
in y</w>
cle ar.</w>
es cor
substanti ally</w>
con sump
clu b</w>
" This</w>
inv al
domin ant</w>
hous es</w>
Rom ani
10 ,</w>
err ors</w>
(2 ).</w>
remo val</w>
M other</w>
9 5/
M ill
inter oper
bo w</w>
windo ws</w>
lik eli
deb ate</w>
adop ting</w>
secon d.</w>
laugh ed</w>
forwar d.</w>
apologi ze</w>
om s</w>
F O
G ab
industr y,</w>
ro ll</w>
stat ut
min e,</w>
on tal</w>
objec tions</w>
subsidi ary</w>
issu e,</w>
Re ference</w>
S till</w>
King dom
rul ed</w>
mess ages</w>
t all</w>
te aching</w>
conf erence</w>
plan et.</w>
addres sing</w>
adap ted</w>
man ipul
200 9)</w>
possib ilities</w>
lo st.</w>
w ound
environ ment,</w>
ali ve,</w>
fo od,</w>
correc tion</w>
authoris ations</w>
V is
per su
war ,</w>
o t,</w>
applic ant,</w>
Ch ic
consist ency</w>
L ind
sen ior</w>
deri v
anne x</w>
T an
vulner able</w>
own ,</w>
fra ud
softw are</w>
k n
circ le</w>
se ...</w>
decisi on-
differen ti
suff er</w>
Mon it
with standing</w>
in ner</w>
success fully</w>
sugge sts</w>
on :</w>
d ur
alcoho l</w>
low .</w>
fing er</w>
gol den</w>
th rowing</w>
Produc ts</w>
5 3</w>
5 4</w>
Med iterran
" the</w>
res ource</w>
arrang ed</w>
A B
moun tain</w>
DN A</w>
a e</w>
co c
ch r
" He</w>
9 6</w>
liqu id</w>
co operating</w>
ar ly,</w>
AN D</w>
ter ly</w>
aband oned</w>
D or
time ...</w>
mom ents</w>
fut ure,</w>
e ties</w>
a !</w>
establish es</w>
car ds</w>
V en
K ev
pris on.</w>
so oner</w>
9 2</w>
enter prise</w>
sp er
govern ments</w>
an ch
, but</w>
record ing</w>
adv ent
tox icity</w>
t ative</w>
hun ting</w>
0 1</w>
that !</w>
Y oun
evalu ate</w>
CH AP
S el
house ?</w>
as ser
now !</w>
cont ribut
G O
7 1</w>
th a</w>
pen etr
Cali forni
" A</w>
int ends</w>
doc tor
accoun t
sc rat
smoo th</w>
grat ul
girl friend</w>
wa it.</w>
relev ance</w>
Z o
accid ent.</w>
t ack
activ ity.</w>
( B
f lic
se g
now ...</w>
const antly</w>
medi um</w>
prin c
girl s.</w>
conver sion</w>
squ are</w>
dis rup
ati n</w>
tran sit</w>
y n
adequ ately</w>
person s,</w>
cul ar</w>
valu able</w>
prin ts</w>
de fici
S ig
tor y.</w>
Geor gi
cl ause</w>
Pur su
dre am.</w>
wan ted.</w>
se a.</w>
clo se.</w>
Rom ania</w>
reimbur sement</w>
manufac tured</w>
histor y.</w>
Captain ,</w>
te en
g ence</w>
consult ations</w>
es ."</w>
Depart ment</w>
fre sh
F le
S till
3 ).</w>
acc o</w>
work er</w>
D ad</w>
litt le.</w>
je al
chan ge
request ,</w>
an no
t ons</w>
[ 3
Addi tional</w>
Ad mir
1 -
employe e</w>
Th ings</w>
po ol</w>
con sent</w>
C at
re forms</w>
C P
provid er</w>
must ,</w>
entre preneur
II .</w>
experi enc
fer til
bod y
elimin ate</w>
dra f
aw es
c ited</w>
di versity</w>
Al so,</w>
F R
CHAP TER</w>
pu zz
d ed,</w>
gr ay</w>
bom b</w>
Un fortunately,</w>
Compe ti
w ound</w>
s an
remem ber,</w>
develop ment,</w>
La dies</w>
Ho ld</w>
proper ties</w>
Tech no
com it
St atis
Con sid
B ir
monit ored</w>
s ad
ide as</w>
wh ilst</w>
unlaw ful</w>
hear t
cli ents</w>
Ho w's</w>
A C</w>
war r
tion ...</w>
f ake</w>
fin est</w>
prohib ited</w>
continu ation</w>
on es,</w>
comb in
la dies</w>
sho w.</w>
200 0,</w>
on !</w>
ex hi
resourc es.</w>
investig ations</w>
5 7
li abilities</w>
miss ing.</w>
revie wed</w>
shi ft</w>
ref und
thro wn</w>
p ist
5 8</w>
es ).</w>
In du
ho od.</w>
I B
pho sp
3 -
sw im
kid s,</w>
A v
tr y.</w>
secur ity.</w>
exc ess</w>
pan el</w>
strate gies</w>
ff .</w>
comm issi
evalu ated</w>
f ond</w>
E T
programm es.</w>
hel icop
re tri
edi atric</w>
surr ounded</w>
im mun
infec tion</w>
gen i
f ed</w>
( N
produc t,</w>
thre sh
You 'il</w>
procedure s.</w>
k i</w>
ari ties</w>
Beli eve</w>
s ?"</w>
R is
por te
discus sion</w>
ac tions,</w>
flow s</w>
Gu ar
I ?</w>
con s
j ustic
company ing</w>
Litt le</w>
st s,</w>
t g
S an
ten tion</w>
ben ch
K al
G ir
intellec tual</w>
impor ters</w>
enh anced</w>
adjust ments</w>
O l
ast ro
fro m.</w>
C op
dest ination</w>
it ly</w>
s ons</w>
ment ally</w>
forwar d,</w>
ish ed,</w>
uni verse</w>
t es
14 /
fl ash
un usual</w>
egg s</w>
a em
memor ies</w>
fin es</w>
parti ally</w>
b uc
hear t,</w>
er s?</w>
ster n</w>
R ay
le af
H op
health care</w>
wh y.</w>
( OJ</w>
it able</w>
rec all</w>
coul d.</w>
S mi
barri ers</w>
brea thing</w>
Mil es</w>
swit ch</w>
grad ually</w>
asyl um</w>
d ust
sy mbo
mb ly</w>
lif t</w>
colleg e</w>
rev ision</w>
afterno on</w>
Par is</w>
se t,</w>
er !</w>
C ul
author ity,</w>
attac k.</w>
read .</w>
missi on.</w>
10 00
abl ed</w>
fiel d,</w>
L ist</w>
p ages</w>
4 0/
think ing,</w>
ep .</w>
um in
tomorrow ,</w>
v ine</w>
to ol
mon etary</w>
acqu ain
h ell
long er.</w>
exclud e</w>
pow der</w>
likeli hood</w>
k o</w>
Mar c
per cent</w>
ap olog
Wa it</w>
do es.</w>
pot entially</w>
ful filled</w>
Slo ven
... with</w>
evol ution</w>
satell ite</w>
sustain ability</w>
r ation
end -
drin k.</w>
ble w</w>
8 5</w>
week s,</w>
impres sion</w>
asse m
Committe e,</w>
A )</w>
war m
ric k</w>
troop s</w>
suppli ers</w>
1 st</w>
sk y.</w>
achiev ement</w>
consci ous</w>
Pursu ant</w>
mean ing
pr int
S A</w>
S .
docu ment
Bulgari a</w>
con sign
Centr e</w>
pic king</w>
exp and
invol ved.</w>
pre am
div ision</w>
F our
pati ents.</w>
C D
doc tors</w>
tox ic
st un
reason s.</w>
retur n.</w>
w s,</w>
accept ance</w>
Recommend ation</w>
ob taining</w>
G ari
co ast
att ain
war n</w>
inter view</w>
V I</w>
an t's</w>
understand ,</w>
of ...</w>
institu tions,</w>
mer ch
DECIS ION</w>
C O</w>
bo dies,</w>
c up
_ TA
I mp
an ni
clean ing</w>
Sim il
gun s</w>
Con di
who 'd</w>
sc r
Ho w
thir ty</w>
G ran
hor ses</w>
projec t.</w>
wn ,</w>
territ ories</w>
mat ely</w>
de red.</w>
contrac t.</w>
circ u
6/ EC</w>
Prof essor</w>
scri p
e- mail</w>
hom e?</w>
pap ers</w>
ro de</w>
com position</w>
ar ise</w>
mou th.</w>
drun k</w>
Thom as</w>
S hel
urg ent</w>
s a</w>
p it
Ini ti
bur n
le g</w>
Tribun al</w>
it arian</w>
initi ate</w>
initi ation</w>
N ice</w>
shir t</w>
larg ely</w>
acc used</w>
S har
resear ch
Doc tor</w>
ain e</w>
re med
part y,</w>
ro ad,</w>
p is
genu ine</w>
cr ac
adverti sing</w>
I L
ste ad
su rely</w>
name 's</w>
Bas ic</w>
I C</w>
gu y's</w>
p oul
Righ t,</w>
y n</w>
manufacture rs</w>
In d
( and</w>
think ?</w>
R od
re vol
anim als.</w>
ur y</w>
part n
n ings</w>
fo li
cle ar,</w>
Sup port</w>
pa .
R .</w>
viol ence</w>
S un
cop ies</w>
c at</w>
like ...</w>
p ure</w>
k ...</w>
Ry an</w>
answ ers</w>
N either</w>
en th
Tr ust</w>
Pr ince</w>
C ent
di a</w>
stru gg
enn y</w>
ac companying</w>
0 2</w>
ten sion</w>
wan t
bl ac
gain ed</w>
were ,</w>
gl uc
bir d</w>
a str
posi t</w>
Chec k</w>
91/ 4
sig nature</w>
wor ry,</w>
friend ?</w>
ask ed,</w>
an other,</w>
arrest ed</w>
Char lie</w>
grou p,</w>
estim ate</w>
Secret ari
infring ements</w>
frequ ently</w>
en ni
cour age</w>
elec tro
read y,</w>
grou p
exten sive</w>
appro ached</w>
ne y,</w>
ne uro
d ust</w>
sho c
public .</w>
euro pa.
[ 4
plac e?</w>
Fran k</w>
stud ent</w>
we ?</w>
re medi
Six th</w>
PR C</w>
Fr ance,</w>
Meas ures</w>
G ri
programm ing</w>
grav ity</w>
drag ged</w>
c ity,</w>
produc tive</w>
recogn ise</w>
public ly</w>
Li thu
as k,</w>
s --</w>
cha ir.</w>
on ).</w>
distinc tion</w>
Belgi um</w>
bo dies.</w>
st am
meas uring</w>
hum ili
8 2</w>
if ,</w>
cul ture</w>
circul ation</w>
Monit oring</w>
po l</w>
mur der
fel low</w>
ris k.</w>
imp acts</w>
fo ol</w>
inv it
S M
5 7</w>
ent ?</w>
establish ed.</w>
carri ers</w>
sur ger
N or</w>
ti ble</w>
food stuffs</w>
coul d,</w>
sp ite</w>
equ ality</w>
af for
al 's</w>
C E
gr ab</w>
Wh it
In stru
st ation.</w>
ch oc
exist .</w>
(3 )
fi re,</w>
in s,</w>
sav ings</w>
sum mar
protec tion,</w>
ey e.</w>
ci ties</w>
kis sed</w>
ch es.</w>
A m</w>
di gn
clos ed.</w>
vo te
ag e?</w>
servic e,</w>
ok ine
v ital</w>
Con nec
volum es</w>
Secon dly,</w>
ac tors</w>
cre atures</w>
numer ous</w>
super vis
neare st</w>
Fi f
a :</w>
pay able</w>
c up</w>
Dri zz
P res
explan ation</w>
model s</w>
end ed.</w>
car go</w>
t ;</w>
mon o
reve al</w>
( as</w>
w all,</w>
resist ance</w>
sanc tions</w>
own ership</w>
the ory</w>
entr usted</w>
avoid ing</w>
TE D</w>
p urely</w>
in her
flo or,</w>
p ending</w>
r and
us e...</w>
k icked</w>
9 3</w>
identi fying</w>
the ...</w>
pic ture
descri p
succ eed
e ver
s ,
gene tic</w>
investig ation,</w>
Char ter</w>
accoun t,</w>
e ast</w>
p ushing</w>
spec tr
Ch ri
te am
am ong
stand s</w>
any way?</w>
bran ch</w>
No te</w>
require d.</w>
ap par
c au
[ 5
st um
her ...</w>
" That</w>
authen tic
manag ement,</w>
mo tor
sti pul
l ing.</w>
[ 2
H one
treat ment,</w>
mol ec
ass ad
control ,</w>
te acher</w>
g ar</w>
susp ended</w>
apart ment.</w>
tre ating</w>
ha em
aw ak
t :</w>
5 -
P lan
ab or
s now</w>
ru in</w>
U m,</w>
ay ing</w>
s sive</w>
assur ance</w>
ac y,</w>
Sud den
design ation</w>
minut e,</w>
Ok ay.</w>
te gr
regre t</w>
Tod ay</w>
S G
v ered.</w>
daugh ter,</w>
T aking</w>
T ro
reali z
paren ts.</w>
P u
sex .</w>
ear th
fem al
ho w.</w>
fe et,</w>
ace u
9 9
argu e</w>
ut y</w>
terr ori
eng age</w>
leav e,</w>
defen se</w>
tr ick
bur den
arch itec
where ver</w>
We 'd</w>
think ing.</w>
ed y</w>
subsid y</w>
... or</w>
st age.</w>
stret ched</w>
intere st,</w>
Con t
it ."</w>
ment ;</w>
ou ter</w>
invest or</w>
danger ous.</w>
coordin ated</w>
were .</w>
b ell
vi al</w>
choc ol
circumstanc es.</w>
stom ach</w>
h ire</w>
colle agu
L im
he y,</w>
arrange ment</w>
ad e.</w>
P AR
in ev
Afric an</w>
consist ing</w>
conside red.</w>
penal ty</w>
p um
leg ality</w>
strong ly</w>
decisi ve</w>
le ast,</w>
direc tive.</w>
contribu ting</w>
virtu e</w>
inc en
im ages</w>
diseas es</w>
wor d
Br ing</w>
S pr
p ale</w>
od d</w>
so -
Can ad
stre ets</w>
dec ent</w>
patter n</w>
i on
ep ing</w>
birth day</w>
s ar
l ast.</w>
cre di
Lieuten ant</w>
Le on
wom en,</w>
c umul
among st</w>
reco ver</w>
con sen
Cy pr
threat ened</w>
territ ory.</w>
experti se</w>
m r.</w>
veri fied</w>
... because</w>
ei ved</w>
stric tly</w>
mar king</w>
num ber,</w>
Eli z
re store</w>
L .
is m.</w>
eligi bility</w>
u l</w>
st al
Spar haw
marke ts,</w>
compu ter.</w>
Portugu ese</w>
blo od,</w>
pre tt
ac adem
al er
request .</w>
m ess</w>
with draw</w>
Lo ve</w>
it em
p he
s ed,</w>
medium -sized</w>
ff ,</w>
ak .</w>
reason ed</w>
incenti ves</w>
G ro
5 9</w>
ist .</w>
collec ting</w>
gro ss</w>
E specially</w>
quick ly.</w>
D ra
sha ke</w>
Stand ard</w>
re ally,</w>
op en,</w>
ir respective</w>
wood en</w>
it y's</w>
compul sory</w>
assess ments</w>
E X
n' t,</w>
th an
on ym
wel fare</w>
inf usion</w>
tion :</w>
W r
B ru
nec k.</w>
lead ers</w>
Republic ,</w>
de vi
D eleg
Con clusi
Bud get</w>
over come</w>
ant e</w>
Austri a</w>
heal th,</w>
discrimin atory</w>
reason ably</w>
J ess
Brussel s</w>
con strain
S at
est ate</w>
Gr and
tr ail
har der</w>
stop ping</w>
Fish eries</w>
gu ide</w>
M ir
joint ly</w>
wr apped</w>
sque e
pr ice.</w>
initi ally</w>
cri ed</w>
you ."</w>
pos es</w>
A sh
Cl ass</w>
Command er</w>
statut ory</w>
lat e,</w>
win ter</w>
u str
land ed</w>
... for</w>
bur st</w>
all ing</w>
affec ts</w>
cl ass.</w>
s ession</w>
propos es</w>
boy s.</w>
b es</w>
exclusi on</w>
third- country</w>
6 6
re n</w>
in side,</w>
bal anced</w>
re sem
attemp ted</w>
g er.</w>
sy mb
M od
exc ited</w>
bad ly</w>
kin d.</w>
C E</w>
dis missed</w>
Scienti fic</w>
wor d,</w>
inser ted</w>
ch anc
loc ate</w>
complic ated</w>
Tran sport</w>
W est
trans position</w>
improv ements</w>
D ou
wid er</w>
O li
Con tin
A ut
O lymp
l en
in ...</w>
ap pre
Ne ed</w>
mi tig
Whe ther</w>
stand ardis
avi ation</w>
bro thers</w>
ro of</w>
c le.</w>
ha d,</w>
ant ?</w>
Here ,</w>
E -
t ough
si on
fast ,</w>
ain .</w>
polic e.</w>
ec o
inv isi
popul ar</w>
Gent le
pe tro
b ad,</w>
er able</w>
Mi ke</w>
St ate
re ar</w>
at ?</w>
ti ght</w>
mar k.</w>
compani es,</w>
every one.</w>
beaut y</w>
your sel
purch as
me tre
il ity.</w>
sho ot
No t
Vi et
vo ting</w>
vis it
secur ity,</w>
comm ission</w>
o 'c
b ic
- and-
verthel ess</w>
Bu il
escap ed</w>
manif est
c ali
al ty</w>
pe t</w>
in es.</w>
condi tional</w>
M as
Where as:</w>
spor ts</w>
ide a,</w>
brilli ant</w>
el der
D ur
rep air</w>
gam es</w>
Af gh
ho w,</w>
judg ment,</w>
acti vely</w>
procedure s,</w>
ha ir,</w>
prov en</w>
weigh ted</w>
suppor t.</w>
rein forc
fif ty</w>
ash .</w>
eng ag
proportion ality</w>
ac ul
separ ated</w>
Bra z
F ree</w>
bud d
trac king</w>
sit y.</w>
ly -
else ?</w>
rec ycl
cam p</w>
at s.</w>
mean ?</w>
behin d.</w>
B rit
retire ment</w>
che es
enth usi
As k</w>
contr ary,</w>
ori ent
agre es</w>
ff s</w>
exam ining</w>
b all.</w>
level s.</w>
lau gh</w>
l o</w>
P il
resourc es,</w>
Ph il
le ap
fr ame</w>
do g.</w>
Nether land
purpos es.</w>
ness es</w>
n in
P ho
kne w.</w>
es hi
say ing.</w>
practic e.</w>
go ds</w>
arm s.</w>
9 8</w>
dr am
mom .</w>
( h
Go od
den y</w>
Applic ation</w>
prof its</w>
con junction</w>
20 .</w>
um s</w>
cost -
programm es,</w>
encour aged</w>
attrac tive</w>
J un
ph r
/200 1</w>
mo tiv
war ned</w>
religi ous</w>
f ounded</w>
ch est</w>
OH IM</w>
Well ...</w>
200 5)</w>
T .</w>
f itted</w>
Me th
K ir
B ill
f ail</w>
accur ate</w>
ant ly,</w>
st ay.</w>
n aked</w>
V inc
stit ut
ru ined</w>
ec ho
Ad visory</w>
trust ed</w>
consoli d
correspon d</w>
tr un
b ent</w>
FB I</w>
mand ate</w>
to b
liqu id
t an</w>
re m
for th</w>
it ,"</w>
bab y,</w>
nar row
non- member</w>
g ang
6 4</w>
refu ge
f ate</w>
expen sive</w>
bor n.</w>
phen omen
exp an
decid es</w>
de posit</w>
ab use</w>
ens ity</w>
ab duc
( M
ti er</w>
pe ace.</w>
horiz ontal</w>
fai th
4 8
prepar ations</w>
coheren t</w>
c ed</w>
wed ding.</w>
hour ,</w>
pream ble</w>
(7 )</w>
infec ted</w>
stud ying</w>
Li fe</w>
B ure
tr ic
suppli er</w>
op position</w>
belong ing</w>
ing )</w>
Ni k
Europe 's</w>
le ather</w>
wel comes</w>
constitu ted</w>
R og
t ail
un likely</w>
k er.</w>
re conc
d en,</w>
b orders</w>
te ars</w>
E D</w>
happen ing.</w>
appro ve</w>
thre e.</w>
vis ited</w>
al d</w>
p ast,</w>
any where.</w>
wor ri
assess ment,</w>
Struc tural</w>
em powered</w>
vo ic
sir ?</w>
cul tiv
m ail
run .</w>
gram s</w>
sul ph
... so</w>
IP .</w>
direc tion.</w>
3 (1)</w>
ques tions,</w>
fed eral</w>
u .</w>
disput es</w>
then ...</w>
surve y</w>
proto col
fun er
declar ations</w>
sh it.</w>
ensu res</w>
C lo
3 ,
di es
poss ession</w>
etc .</w>
ab rup
contr ast,</w>
inter rog
ar s,</w>
20 ,</w>
In tegr
C F
c ry</w>
Re present
distur b
[ 1
pho to</w>
win .</w>
co ck
cont acts</w>
enh ancing</w>
Pri v
An dre
follow -up</w>
b righ
campai gn
sh ru
j ail.</w>
s and</w>
dep th</w>
radi ation</w>
ga ze</w>
dis cover</w>
Are a</w>
t ables</w>
sp eed
F er
calcul ate</w>
survi v
pric es.</w>
comm it</w>
tob acco</w>
trad ic
life ?</w>
M u
and a</w>
o s.</w>
dist ribut
allow ance</w>
equip ment,</w>
S t.</w>
int ensity</w>
incen tive</w>
ir able</w>
bac ked</w>
elec om
belong ed</w>
ic ally,</w>
% s</w>
tend ers</w>
Gre en
C ouldn't</w>
... a</w>
sm all,</w>
de pri
So vi
oc curren
C YP
- related</w>
Uni on's</w>
P )</w>
Me an
k er
we t</w>
co p</w>
ali gn
ren ce</w>
inter val
kid ,</w>
in a,</w>
i e,</w>
afterno on.</w>
AT ION
me t,</w>
compani es.</w>
Z e
w .
mil e</w>
ad s</w>
S ain
t s?</w>
fish ery</w>
d en.</w>
practic e,</w>
EN.0 1000
Au str
k ick</w>
he ight</w>
can 't.</w>
Comp any</w>
por tion</w>
tit ude</w>
7 2</w>
kno cked</w>
des k.</w>
be er</w>
deep ly</w>
10 .</w>
fo cus
this !</w>
T ob
tim ely</w>
con tradic
deli gh
Car ol
preci ous</w>
m ate</w>
transpor t,</w>
dis ast
s on?</w>
poc ket</w>
Rob er
fe asi
centur y</w>
2/ EC</w>
move ments</w>
Su pp
M an</w>
all y?</w>
Den mark</w>
ast on
afra id.</w>
si ve.</w>
un employment</w>
me al</w>
u ,</w>
restaur ant</w>
should er.</w>
magne tic</w>
un like</w>
need s.</w>
9 7</w>
G reat
Portu gal</w>
Har mon
pen s
invol ves</w>
par k</w>
Still ,</w>
d read
adul ts</w>
M et
In nov
Ch ang
Captain .</w>
any more,</w>
Anne x.</w>
today ?</w>
go al</w>
in correct</w>
sub ject
Maj or</w>
vot es</w>
assum ing</w>
play ers</w>
gr in
mean s,</w>
projec ts.</w>
day 's</w>
obstac les</w>
destruc tion</w>
a head.</w>
Hel p</w>
quanti tative</w>
fac tual</w>
M A</w>
rec ur
7/ EC</w>
harm ful</w>
cur ious</w>
He av
( such</w>
Tur k
mad e,</w>
che er
in es,</w>
w ould
is ite</w>
tt e</w>
le ments</w>
societ y.</w>
ensu red</w>
Pr inci
pri ori
( 6
hepati c</w>
us !</w>
lo o
kne w,</w>
uni versal</w>
cha pter</w>
There fore</w>
(3 ),</w>
" Well,</w>
tak en.</w>
r on</w>
stat e.</w>
sched ule</w>
stake hol
s now
cre at
Mediterran ean</w>
standard s.</w>
pr ou
mess age.</w>
gener al,</w>
be en.</w>
op hi
crow d</w>
H ur
Ed ward</w>
frigh ten
explain s</w>
bur y</w>
land scap
some what</w>
ru le,</w>
Rob ert</w>
E astern</w>
even ing,</w>
func tional</w>
Ser vic
List en</w>
husb and,</w>
D re
tech nic
educ ational</w>
V an</w>
uni on</w>
offic es</w>
att end</w>
attri but
all s</w>
4 2
pres ent.</w>
produc tion.</w>
row .</w>
ris h</w>
our s.</w>
t ,"</w>
bl ind
Si x</w>
Indi a</w>
fe ar.</w>
recipi ent</w>
Par ticip
estim ates</w>
Ma x</w>
secre t.</w>
author ise</w>
Imple mentation</w>
ad oles
work ?</w>
K now</w>
Loc al</w>
4 (1)</w>
bloc ks</w>
Gu ess</w>
life -
train ing,</w>
ship s.</w>
mem ber,</w>
S ,</w>
correspon ds</w>
ble eding</w>
ap point</w>
Cor por
tr apped</w>
origin ally</w>
Ind ustri
CH MP</w>
flexi bility</w>
Certi fic
v amp
eri al</w>
complain ts</w>
EI B</w>
... who</w>
vo ice,</w>
TF EU,</w>
se ed</w>
missi ons</w>
ww w.
preclud e</w>
anal o
remem ber.</w>
other ap
ath er.</w>
me ."</w>
simp lif
b ub
wom an's</w>
dimen sion</w>
off en
direc tive,</w>
D r</w>
E ,</w>
tox ic</w>
D ,</w>
sche me.</w>
scr ut
enc es,</w>
H om
z i
b uck
main tains</w>
objectiv es.</w>
hol dings</w>
retur ns</w>
reput ation</w>
por t,</w>
Resol ution</w>
M ust</w>
sigh t.</w>
bi a</w>
reco ver
C ath
B ill</w>
dra g</w>
G a
st -
ke y,</w>
Noti ce</w>
simul tane
mean .</w>
loc k.</w>
ali zed</w>
whe el
sa il
bo ard
cle ared</w>
twel ve</w>
sol ved</w>
bo at.</w>
sor s</w>
day ...</w>
" A
modi fication</w>
ad just</w>
person ally</w>
independ ence</w>
require ments,</w>
bor row</w>
6 2</w>
v ar
mean s.</w>
dar k,</w>
ex port
book ,</w>
si e
command er</w>
Swed en</w>
u li
on ly.</w>
Ge org
it a</w>
mat ur
9 9</w>
trav en
emerg ing</w>
ex it</w>
Americ ans</w>
good s,</w>
confir m
d a
appro ach
decision- making</w>
an i</w>
D R
F lor
se ven
must n't</w>
Fore ign</w>
W ed
" and</w>
cy cl
stor y,</w>
war ran
lo dg
good by
co ol.</w>
enjo ying</w>
along .</w>
explic itly</w>
ob serve</w>
viol ent</w>
c ope</w>
appro aches</w>
... if</w>
inter net</w>
3/ EC</w>
Th ur
list en,</w>
certi fied</w>
vacc ine</w>
st on</w>
them ...</w>
resul ts.</w>
type- approval</w>
ad ding</w>
ro t
competi tors</w>
s light</w>
J ord
hous ing</w>
econom y.</w>
fl av
ar t.</w>
199 7</w>
y es</w>
c auti
u ted</w>
r ag
Func tioning</w>
exemp t</w>
m -
6 (2)</w>
exerc ised</w>
so dium</w>
ne vertheless</w>
jo ining</w>
nex t.</w>
bul l
AD OP
ti li
introduc ing</w>
Ho ly</w>
pr ay</w>
se ver
enthusi as
it y-
T O
ari es.</w>
they ?</w>
big ,</w>
be at
money ?</w>
grap hic</w>
before ?</w>
Dr ag
mo de</w>
scen e.</w>
hy dr
elecom munic
fortun ate</w>
avi r</w>
Any one</w>
time- limit</w>
itt ed,</w>
Wo w,</w>
moder n
Detec tive</w>
subm issi
sig ning</w>
reduc tions</w>
4 -
kill s</w>
er ce</w>
gu est</w>
ev ed</w>
direc tor</w>
lo ss
an o</w>
norm al.</w>
all y...</w>
Slov ak
mid -
cl a
an ist
sk in.</w>
appar at
o le
mysteri ous</w>
desper ate</w>
all ?</w>
smo king</w>
facilit ating</w>
ill ustr
" So</w>
ten dere
6 3</w>
sing ing</w>
ati ves.</w>
P ic
fail ing</w>
g an</w>
u k
al ter</w>
V or
was h</w>
10 7
t )</w>
ev a</w>
ai red</w>
M A
ou se</w>
vote )</w>
sha king</w>
t s
E duc
grate ful</w>
do s
aud its</w>
Jim my</w>
M ulti
sk ir
cl er
is m,</w>
tap e</w>
ad dic
cons ist</w>
y ing.</w>
concentr ate</w>
REGUL ATION</w>
9 0/
Ch ange</w>
Hone y,</w>
sum ed</w>
own ers</w>
serv ants</w>
coun ted</w>
qu it</w>
pharmac okine
occup ied</w>
ignor e</w>
wh oles
h all</w>
EN T</w>
L ad
Fund s</w>
lun ch.</w>
ak s</w>
short- term</w>
Elec tr
luc k.</w>
whe el</w>
s me
Con sul
3 1.
ad ic
arr ange</w>
K en
y ards</w>
d ancing</w>
12 ,</w>
cros sing</w>
clim b</w>
n ation</w>
cap ture</w>
secre ts</w>
cent res</w>
month ly</w>
clari fy</w>
bar .</w>
retur n
twi sted</w>
Gr and</w>
girl 's</w>
tel ep
objec tion</w>
Americ a.</w>
emo tional</w>
G ol
ship 's</w>
say s.</w>
main tain
fail s</w>
prin ted</w>
pre me</w>
in a.</w>
princi pl
he l</w>
cir cl
thre e,</w>
soldi er</w>
(i .e.</w>
plat form</w>
satisfac tory</w>
new ly</w>
employ ment,</w>
restric t</w>
out ...</w>
d !</w>
or ph
w age</w>
tit le</w>
mor al</w>
nic e,</w>
G reg
hop e.</w>
bas ically</w>
reason ing</w>
man ...</w>
gr and</w>
In dic
s add
L ong</w>
tissu e</w>
201 3/
ment ...</w>
fo ster</w>
europa. eu
10 4
6 8</w>
histor ical</w>
exceed s</w>
9/ EC</w>
spe ech
oper ation,</w>
me ter</w>
mer ger</w>
Sovi et</w>
Afric a</w>
war ds.</w>
x ed</w>
und es
ep is
ye ah.</w>
premis es</w>
work ing.</w>
seri ous.</w>
in clu
cho ic
assist ed</w>
V .</w>
ADOP TED</w>
1 1,</w>
som ed
" Why</w>
( vote)</w>
cover age</w>
P ack
shado ws</w>
o ?</w>
cloth es.</w>
Lou is</w>
nod ded.</w>
W ay
windo w,</w>
conf eren
capac ities</w>
democr atic</w>
bank rup
Tur key</w>
mach ine.</w>
deleg ation</w>
acc red
dol lar</w>
Res pon
did n't.</w>
room ?</w>
er y.</w>
ar ding</w>
6 (1)</w>
recommen d</w>
cham ber</w>
surpris e.</w>
C ra
perfec t.</w>
Sy n
Condi tions</w>
es /
brain .</w>
rob ber
St ar</w>
F .</w>
du plic
c ents</w>
Sh eri
.. ..
sty le</w>
nur se</w>
E .</w>
Des cri
threat ening</w>
de -
Sur ve
s ake</w>
my self
con qu
Th or
sett ings</w>
in hal
sho ck</w>
arm ,</w>
" You're</w>
se iz
z a</w>
typ ical</w>
fin ed</w>
Char les</w>
o ke</w>
acqu is</w>
se at.</w>
ext ending</w>
ing ."</w>
your s,</w>
ear ned</w>
6 1</w>
system ic</w>
rest ri
14 0
st ones</w>
contrac t,</w>
Hel lo,</w>
al ert</w>
actu ally,</w>
ship ment</w>
le vi
explo itation</w>
ear th.</w>
i ans</w>
r i</w>
competi tion,</w>
5/ EC</w>
o dic</w>
aw k
ho ok
moder ate</w>
D ue</w>
[ 6
Sh all</w>
O h.</w>
modi fy</w>
extre me</w>
assess ment.</w>
pover ty</w>
co hesion</w>
e e</w>
F am
dri f
ast s</w>
st age,</w>
so- called</w>
cl ust
ug gl
hand led</w>
star t.</w>
bu ff
g le
Ad d</w>
safe ty.</w>
real ise</w>
beauti ful,</w>
h ill
. 12.
gener ate</w>
campai gn</w>
go d</w>
S av
t ail</w>
recru it
aff ir
la b</w>
ar ?</w>
e ting</w>
associ ations</w>
appear ance</w>
L am
Argu ment
thro at</w>
infring ed</w>
Hi ,</w>
fre ight</w>
ati ves,</w>
out standing</w>
" My</w>
dang er.</w>
re strain
swit ched</w>
soul .</w>
defini tions</w>
An imal</w>
200 3.</w>
star ted.</w>
col our</w>
Yor k.</w>
frigh tened</w>
Al l
Look ing</w>
sy ner
ge ?</w>
as sump
are ?</w>
purch ased</w>
fles h</w>
In fra
2 50</w>
pr on
pot enti
Who ever</w>
di ox
- of-
M s</w>
ab ol
pu ted</w>
201 2/
transm it</w>
discus sions</w>
poll ution</w>
tex ts</w>
f er</w>
R emo
relation ship.</w>
there ...</w>
anim als,</w>
insul in</w>
govern mental</w>
ed ."</w>
ari es,</w>
pric es,</w>
dis miss
connec tions</w>
ag enda</w>
199 6</w>
gu ess.</w>
gre ss</w>
consoli dated</w>
up !</w>
appro aching</w>
um ...</w>
perm its</w>
comp lies</w>
tic ket</w>
o tic</w>
ter ...</w>
e at.</w>
Egy p
spe ech</w>
L ast
ED PS</w>
where by</w>
h il
Un able</w>
survi ved</w>
fur n
peri al</w>
re tain</w>
C .
(1 ).</w>
laugh ing</w>
practic ally</w>
distinc t</w>
st en
p ly</w>
Cour t.</w>
Committe e.</w>
Bob by</w>
mix ture</w>
ste aling</w>
I mag
sum mon
Pol ish</w>
D U
dep loyment</w>
se -
weap on.</w>
distribu ted</w>
dec om
h ates</w>
Man ufac
tri bun
et ting</w>
sw ung</w>
heal th.</w>
arri val</w>
pap er.</w>
D al
ed e</w>
docu ments,</w>
J im</w>
sec ured</w>
1/ EC</w>
secur i
green house</w>
organi zation</w>
mer g
sur ge
attri bu
ug ly</w>
att ach
V II</w>
Al ways</w>
navig ation</w>
pap er
house hold</w>
life ...</w>
diseas e.</w>
chick en</w>
ain ing</w>
Ex ac
" I'll</w>
f lights</w>
appli ed.</w>
ri f
T ru
stu dies,</w>
proc eed</w>
pref erred</w>
R al
w inter
vel y,</w>
al )</w>
surr ounding</w>
sen se,</w>
resol ve</w>
polic ies.</w>
consul ted</w>
accid ent
Willi am</w>
S he'd</w>
annex ed</w>
hon ey
wh ist
el ing</w>
educ ation,</w>
assa ul
Posi tion</w>
Dec lar
repe at</w>
like ?</w>
im posing</w>
Wat ch</w>
M om</w>
He ad</w>
S om
D ol
wat ch.</w>
ant ly.</w>
perc ep
Th rough</w>
litt le,</w>
liter ally</w>
flow ers</w>
ear n</w>
hi d</w>
/200 8</w>
ne t.</w>
g ay</w>
dec line</w>
t ."</w>
J .</w>
w and
spir it
de grad
che ese</w>
bo ard,</w>
stup id.</w>
it ch</w>
hom ic
by :</w>
Sw iss</w>
Gr ay
any body.</w>
I )</w>
tal ks</w>
memor y.</w>
liqu idity</w>
Nor we
n av
gu e.</w>
al ter
coun t
Secret ary</w>
legislat ure</w>
Ser ver</w>
is tic
inde x</w>
ber t</w>
activ ity,</w>
represent ation</w>
man ner.</w>
red und
TH IS</w>
th ...</w>
ili ties.</w>
00 ,</w>
des i
L a</w>
ing ent</w>
fav or</w>
De ar</w>
sacrific e</w>
But ...</w>
re ...</w>
D G
y '
tren d</w>
se aled</w>
M e</w>
N az
ple as</w>
justi fication</w>
4/ EC</w>
ran dom</w>
arti ficial</w>
F ig
proto col</w>
M ob
dec or
Al most</w>
t ag
... we</w>
, you</w>
In v
place bo</w>
h y</w>
zer o</w>
on ia</w>
produc ers,</w>
fru str
Sub ject</w>
delet e</w>
c y.</w>
ap ,</w>
sol ar</w>
op pon
Tal k</w>
om in
issu es.</w>
S ounds</w>
tempor arily</w>
su me</w>
In st
licen se</w>
repe aled</w>
r ing.</w>
( R
tal k
conclud es</w>
be ach</w>
consequ ently</w>
C ateg
cat ches</w>
A F</w>
recommen ds</w>
no -
Norwe gi
gal ax
Luxembour g</w>
swe et
mid d
Nor thern</w>
Gi b
G il
... of</w>
port foli
import ant,</w>
com ment</w>
M and
6 -
ot e</w>
d ried</w>
typ e.</w>
ra ises</w>
n d</w>
M R
lad y.</w>
evid ence,</w>
oc ean</w>
ind er</w>
I AS</w>
boy friend.</w>
Under taking</w>
opini on.</w>
quali fications</w>
Ph arm
earli er.</w>
Qu estion</w>
controll ing</w>
any way,</w>
provid es:</w>
Direc tive
yester day</w>
dis charge</w>
break fast</w>
O ut</w>
A tt
Re qui
ke ts.</w>
de ter
5 5
un necessary</w>
remed y</w>
dis pos
girl friend.</w>
he igh
g ender</w>
author ising</w>
w ri
effec ts.</w>
Bil ly</w>
di an</w>
prote in</w>
entr ance</w>
G N
T un
rein force</w>
Dec isions</w>
t ele
r d</w>
ac u
: 00.</w>
doub le-
contribu ted</w>
are ...</w>
b ones</w>
(1) (b)</w>
r ats</w>
care ,</w>
identi fi
Austri an</w>
lo ving</w>
ga me,</w>
gre y</w>
Emp loyment</w>
tion ;</w>
good s.</w>
mat ters.</w>
equip ment.</w>
begin s</w>
attemp ting</w>
stopp ed.</w>
doc tor,</w>
anc es.</w>
alco hol
ste ady</w>
bi d</w>
P ot
wife 's</w>
vamp ire</w>
first -
dark ness.</w>
dis played</w>
m a.</w>
hel pl
I U
we stern</w>
confidenti ality</w>
conf usion</w>
pres sing</w>
en ables</w>
beca use,</w>
coun ter</w>
Organis ation</w>
ous ?</w>
D ru
design ate</w>
Wor k</w>
L .</w>
wait ing.</w>
defin ing</w>
bo ss.</w>
A -
install ations</w>
13 0
manif est</w>
Jac k,</w>
elim ination</w>
pre serve</w>
por ting</w>
funn y.</w>
Are n't</w>
out side,</w>
in solvency</w>
Mar tin</w>
ch ro
6 7</w>
ash ing</w>
K at
p en</w>
consolid ation</w>
br ut
on- the-
sli d</w>
low est</w>
accom mod
necess ity</w>
9 7/
th um
Com ple
dar k.</w>
today 's</w>
ph one,</w>
ful ness</w>
lo g</w>
every where.</w>
1 ,000</w>
Con stitu
toge ther
P op
wrong ?</w>
al it
incredi ble</w>
incredi bly</w>
adap tation</w>
(i i
meas ure.</w>
D ay</w>
bro ther's</w>
subsi dies</w>
sit y,</w>
her o</w>
ga p</w>
8 ).</w>
spac e,</w>
F ,</w>
De ath</w>
sov ere
dissemin ation</w>
w ounded</w>
decisi ons.</w>
accur acy</w>
comfor t</w>
C )</w>
r ice</w>
kno ck</w>
neigh b
J ust
un cle</w>
Uni versity</w>
U l
up ...</w>
/200 7</w>
tab let</w>
swi f
every thing's</w>
be ings</w>
attac ks</w>
conven tional</w>
c ared</w>
Ch em
ser ial</w>
bra ve</w>
te a</w>
ar chi
techniqu es</w>
respec t.</w>
min ist
you ,"</w>
sh ,</w>
n 's</w>
arri ve</w>
al ed.</w>
interest ing.</w>
reserv ed</w>
thank s.</w>
moun tains</w>
encoun tered</w>
Ar t.</w>
relation ships</w>
simpli fied</w>
pleas e!</w>
with drawn</w>
n ast
alle y</w>
ty ?</w>
m es
e ?"</w>
ord ers,</w>
mil d</w>
re payment</w>
happen ed?</w>
an onym
E R</w>
polic ies,</w>
separ ately</w>
detec tion</w>
syring e</w>
aggre g
j ail</w>
sugg es
mon ster</w>
et te</w>
cop y
agre ed.</w>
th ri
adop ted.</w>
You ,</w>
12 .</w>
provisi ons,</w>
Ar my</w>
mir ror</w>
interoper ability</w>
arm s,</w>
lo t,</w>
fif teen</w>
ci es</w>
year ly</w>
derog ations</w>
craz y,</w>
abo ard</w>
wh ate
eas i
9 1</w>
Dut ch</w>
proceed ing</w>
plan s.</w>
min ing</w>
ho ly</w>
ver age</w>
er ing.</w>
phil os
ori es.</w>
docu ments.</w>
for th
Hav en
row ,</w>
lo t
inten si
Pub lic
ch asing</w>
husband 's</w>
wor thy</w>
pharm aceu
L E</w>
Re qu
solu tion.</w>
hear d.</w>
Wo od
Tomor row</w>
fur nit
concentr ated</w>
[ 7
R id
sp ell</w>
assist ance.</w>
1 10
Drizz t</w>
preven ted</w>
wis e.</w>
gr ave</w>
fro m,</w>
Hon or</w>
B .
fro m?</w>
alys is</w>
cri me.</w>
Ukrain e</w>
to :</w>
p ha
anc est
er a</w>
our ing</w>
apar t.</w>
H ear
meas ure,</w>
" They</w>
r hy
bo th.</w>
uc t
M ain
bran ches</w>
I f,</w>
ful l-
cont am
vo y
b ure
Com pu
O m
Sy ri
B est</w>
t one</w>
institu tions.</w>
P .
oper ations.</w>
occur s</w>
inv asi
Ro yal</w>
h -
h ec
enem ies</w>
H ong</w>
re bel
engin es</w>
her !</w>
correc tive</w>
weap ons.</w>
test ,</w>
3 %</w>
(h )</w>
un certain
ing ,"</w>
civili an</w>
mo ves</w>
deep er</w>
analys es</w>
Sum mary</w>
7 3</w>
lay er</w>
implic ations</w>
expec ted.</w>
ver tical</w>
ga thering</w>
it e,</w>
hi de
cre ates</w>
Glo bal</w>
ic s.</w>
flexi ble</w>
Lan gu
transl ation</w>
experi ence.</w>
Ira q
shor e</w>
place bo
employ er</w>
col d.</w>
So on</w>
" Oh,</w>
le :</w>
do ...</w>
cas h.</w>
usi on.</w>
situ ated</w>
Sant a</w>
sear ched</w>
kitch en.</w>
consul ting</w>
ak ,</w>
wish ing</w>
say ...</w>
co ok</w>
an eous</w>
' The</w>
al t
ch es,</w>
er adic
c y,</w>
v a
terrib ly</w>
P aci
S her
prov ing</w>
Al b
sc rap
conc essi
F ound
collabor ation</w>
Agricul tural</w>
cl oud</w>
co w
Bl ack
... when</w>
un expected</w>
R ed
K enn
R ick
stay s</w>
exemp tions</w>
CI A</w>
are :</w>
on e!</w>
cap tured</w>
aspec t</w>
mor tg
0 5</w>
pain t
wal k.</w>
ref ri
W ant</w>
particip ated</w>
explo si
class es</w>
indic ative</w>
199 4</w>
TF EU.</w>
off -
dad 's</w>
In cre
inst al
H ap
win ning</w>
exp i
flo ating</w>
direc tives</w>
Ap pro
7 )</w>
i e.</w>
o s,</w>
ga ther</w>
E T</w>
un fair</w>
bud get.</w>
refri ger
econom ies</w>
coun ts</w>
ali z
safe ty,</w>
charg e.</w>
T ,</w>
ligh ted</w>
R adi
A vi
M F
conf used</w>
ac ute</w>
Afgh anist
so on,</w>
visi on.</w>
P ak
ulti mately</w>
that 'll</w>
fulfil ment</w>
P -
8 3</w>
W TO</w>
" but</w>
w are</w>
S ul
br ac
en ic</w>
car d.</w>
y ard</w>
he ating</w>
h ind</w>
fore going</w>
c ure</w>
com part
r ushed</w>
Guar an
cha mb
at s,</w>
along side</w>
ra p</w>
libr ary</w>
ho sti
Euro pol</w>
projec ts,</w>
organis ations,</w>
sh ri
ship s,</w>
enz y
Or der</w>
lu x
establish ments</w>
dis abled</w>
S ophi
I rish</w>
encour aging</w>
notic e.</w>
C ir
way ...</w>
a is
or -
friend 's</w>
cont ends</w>
clos est</w>
assu red</w>
6 6</w>
survi val</w>
OK ?</w>
g all
cous in</w>
just ,</w>
eri a</w>
5 4
7 8</w>
aw fully</w>
Last ly,</w>
To day,</w>
lo ose</w>
igno red</w>
train ing.</w>
you ?"</w>
propos al.</w>
S S
ser ge
re plic
limit ations</w>
construc ted</w>
on ;</w>
mechan ical</w>
es tic
2. 1</w>
ud d
im it
pl ing</w>
people ?</w>
pac ked</w>
l ending</w>
mu ch
la z
entit lement</w>
corrup tion</w>
aim ing</w>
ex changes</w>
c ad
A V
14 ,</w>
tou ching</w>
r at</w>
wor ry.</w>
con comit
respec ted</w>
ob s
hum an.</w>
haz ard
cl ut
h in
citiz en</w>
Ex am
ri ver.</w>
Norwegi an</w>
tra um
bo vine</w>
Artic le,</w>
marri age.</w>
le !</w>
symbo l</w>
provisi ons.</w>
con spir
be ar
Con ference</w>
valu e,</w>
Turk ish</w>
Jo se
Defin i
S he'll</w>
vo ices</w>
min d
subm itting</w>
lin es.</w>
pain ting</w>
mus e
farm ing</w>
sleep ,</w>
M L</w>
Col um
pri est</w>
ma '
go ing?</w>
con fron
comple x
off er.</w>
Not withstanding</w>
Serge ant</w>
read s</w>
199 5</w>
resear ch,</w>
interrup ted</w>
sc ared.</w>
br u
EC H
Po w
there !</w>
cu ts</w>
W ouldn't</w>
energ y,</w>
E ver</w>
wo ods</w>
argu es</w>
bag .</w>
break s</w>
anc es,</w>
objectiv es,</w>
acknowled ged</w>
Bus iness</w>
O ne
Gentle men,</w>
standard s,</w>
te ar</w>
sim pl
imag ined</w>
don' t,</w>
emer ged</w>
sho es</w>
nor thern</w>
happen s,</w>
no where</w>
M oun
Le x</w>
ol d-
dam aged</w>
analy sed</w>
girl ?</w>
clou ds</w>
problem s,</w>
it -
mo du
foc using</w>
addres ses</w>
stud y,</w>
regi on.</w>
k er,</w>
grow th.</w>
human itarian</w>
jo y</w>
Arth ur</w>
dream ed</w>
Nor way</w>
Cer tain
surg ery</w>
L and</w>
L ong
convers ation.</w>
fil ed</w>
any more
uni versity</w>
fi ve-
Eliz abe
E ffec
le m
re r</w>
e able</w>
docu ment.</w>
escap e.</w>
month ,</w>
in fin
defe at</w>
should ers</w>
g ently</w>
gor ge
tic kets</w>
s ick.</w>
Simil arly,</w>
ris k-
stair s,</w>
manag ement.</w>
Regi str
( a</w>
trad e.</w>
T ay
ati v
For ce</w>
pl en
den ied</w>
adm ir
Dec ree</w>
O w
F u
fol der</w>
T yl
om bi
Engl and</w>
pain t</w>
it ?"</w>
er s...</w>
Ital y,</w>
su red</w>
mus cle</w>
pres ent,</w>
plan ted</w>
mat e.</w>
M ast
6 00</w>
ar ound
Youn g</w>
1 %</w>
tax pay
st ?</w>
offic er.</w>
charg ing</w>
Rev ie
ani an</w>
A lic
depart ure</w>
Bl ue</w>
( G
questionn aire</w>
ch ip
photo s</w>
cha p
remember ?</w>
on a</w>
dec k</w>
s ed
re hear
B ren
bath room</w>
config uration</w>
A U
Argu ment</w>
ge ar</w>
exam ples</w>
Mid dle</w>
lin ing</w>
un believ
l oud</w>
Sim on</w>
Aff airs</w>
grou ps.</w>
found ed.</w>
geograp hic</w>
warr ant</w>
Stre et</w>
guar ding</w>
in sec
ch ances</w>
bas e
K im</w>
grant ed.</w>
do ssi
Other wise,</w>
inj ured</w>
cast le</w>
st er.</w>
ro yal</w>
spec ul
D ad,</w>
ten .</w>
sche me,</w>
ounc ed</w>
hi stori
end ed,</w>
agricul ture</w>
tun nel</w>
inst all</w>
oursel ves.</w>
fe ar
govern ment.</w>
sur ance</w>
top .</w>
six th</w>
dut y.</w>
cr ack
vig il
eat en</w>
exist ed</w>
st ub
detec t</w>
carri age</w>
Jas on</w>
( 10
need le</w>
reflec ts</w>
adv ised</w>
rand om
build ing,</w>
fe t
testi mon
7 -0
net work.</w>
L ang
o li
S O
trigg er</w>
ac ts,</w>
Tr ying</w>
h ell.</w>
comp are</w>
Produc t</w>
re d-
pl u
modi fications</w>
avoid ed</w>
lean ing</w>
kill er.</w>
divor ce</w>
vel y.</w>
es -
Alex and
me ,"</w>
appl y,</w>
out !</w>
d ul
distor tion</w>
tos sed</w>
short com
se mi
deser t</w>
rele as
Every thing's</w>
ra rely</w>
degre es</w>
dem ands</w>
Guid elin
enem y.</w>
t at
P rep
in habit
disappe ared.</w>
t ank
s .
bom b
II I,</w>
scienti sts</w>
comb ating</w>
public ,</w>
peri odic</w>
h ill</w>
N R
" All</w>
n y.</w>
H a
sub stitu
hop e
connec tion,</w>
K ur
lo .</w>
wor th
sha me</w>
require d,</w>
n on</w>
Artic le.</w>
ul timate</w>
premi um</w>
or ange</w>
e astern</w>
wa it,</w>
scre am
dom ain</w>
dis appoint
sha ped</w>
EC B
ri gu
elder ly</w>
resol u
hear ing,</w>
dev ast
bel t</w>
7 6
tr ail</w>
thor ough
system atic</w>
m ill
co at</w>
ex pedi
d row
cle aring</w>
P ret
as c
IS O</w>
re moving</w>
oxy gen</w>
des p
jud ge
dam ned</w>
af ter.</w>
" No
requ isite</w>
fore ver</w>
do es
Cha p
side ?</w>
exc ise</w>
plan e.</w>
aller gic</w>
exha ust
dis puted</w>
re y</w>
Be ing</w>
gri m
el et
heav ily</w>
en ters</w>
integr ity</w>
G .</w>
, 5</w>
R ome</w>
marri ed,</w>
gu essing</w>
T en</w>
Stand ing</w>
z ones</w>
indic ator</w>
John ny</w>
carri es</w>
produc tivity</w>
pl un
Indu stry</w>
mil it
d or
c yl
Sar ah</w>
P C</w>
- in-
Bet ween</w>
spo t.</w>
ingredi ents</w>
dy ing.</w>
diff er</w>
min al</w>
p. m.</w>
re tained</w>
sur plus</w>
share holders</w>
psy ch
Wed nes
T ai
u e.</w>
lear n
col d,</w>
happ in
wo od.</w>
more over,</w>
lon ely</w>
sto re.</w>
C lick</w>
T ax</w>
Any body</w>
func tion.</w>
low ered</w>
no ble</w>
im men
all y
reven ues</w>
co al</w>
" ...</w>
sli p</w>
ol ly</w>
Sha do
D on</w>
n y,</w>
Wat er</w>
s ab
inv est</w>
electr ic
investig ate</w>
te :</w>
t ell
t ed
fr ac
ceas ed</w>
comple mentary</w>
Apparen tly,</w>
Du ke</w>
transpor ted</w>
Inste ad,</w>
care s</w>
B at
12 0</w>
pregn ant.</w>
Pri me</w>
vari able</w>
mag ical</w>
S IS</w>
mi x</w>
O pen
condi tion.</w>
wh el
sch ol
Dan ish</w>
tonigh t?</w>
th ick
jun g
Gari on</w>
? .</w>
p ink</w>
j ack
K ey
purpos es,</w>
Inste ad</w>
8 6</w>
hop es</w>
En try</w>
Author isation</w>
I A</w>
Ex ternal</w>
s killed</w>
symp ath
sh eri
exha us
as certain</w>
Sm ith</w>
S pain,</w>
behavi or</w>
ball s</w>
" Don't</w>
pric e,</w>
fi le,</w>
Fi el
Swed ish</w>
Mar sh
rel uct
pregn ancy</w>
incid ence</w>
b it,</w>
en de
sur face.</w>
asle ep</w>
se e?</w>
' And</w>
pat ent</w>
rout es</w>
T a
gr ass</w>
Pap er</w>
provisi on,</w>
decisi ons,</w>
Re member,</w>
tr ick</w>
be gging</w>
Acc ession</w>
" Is</w>
isi on.</w>
Secretari at</w>
Conven tion,</w>
coheren ce</w>
swe pt</w>
shor t,</w>
d aw
Qu ality</w>
K ell
" Yes,</w>
sup port
respon ded</w>
ic king</w>
sk i</w>
projec ted</w>
al arm</w>
Sudden ly</w>
last ing</w>
instru ments,</w>
reserv es</w>
( F
sp reading</w>
sum s</w>
w ire</w>
preferen tial</w>
c le,</w>
prison ers</w>
mus ic.</w>
g a</w>
cha ir,</w>
on-the- spot</w>
H app
Anti -
gho st</w>
asha med</w>
ro l</w>
connec ting</w>
sc are</w>
sa fe,</w>
laugh .</w>
real ised</w>
machin ery</w>
l ast,</w>
Jac k.</w>
them !</w>
T est</w>
sec rec
hotel .</w>
ab et
Gover ning</w>
vis -
drin ks</w>
deduc tion</w>
betr ayed</w>
91/4 14/
0 4</w>
execu tive</w>
enabl ed</w>
dam ages</w>
S qu
Di ff
15 ,</w>
m as
speci alised</w>
Con f
imm une</w>
belo w
st at</w>
ad mission</w>
c augh
sou thern</w>
hun t</w>
belo w,</w>
re ally.</w>
st abil
C ard
ris es</w>
observ ed.</w>
par ad
D O
" Are</w>
St ud
in traven
Switzer land</w>
half .</w>
Jan e</w>
Ex plan
pri or
en s.</w>
consider ably</w>
Requi re
youn g,</w>
energ y.</w>
ear .</w>
must 've</w>
sk y,</w>
high .</w>
anc e
am us
Assist ance</w>
8 9</w>
K im
dream s.</w>
Al so</w>
st one.</w>
lam p</w>
targe t.</w>
member ship</w>
ment :</w>
S chem
Fund amental</w>
y 'd</w>
imp ly</w>
cal m
threat s</w>
M am
purch asing</w>
di min
K now
Hal f</w>
kilome ters</w>
ca me.</w>
an tive</w>
ton 's</w>
sampl ed</w>
How 'd</w>
quiet ly</w>
dead ly</w>
war d
sand w
Ex change</w>
Dann y</w>
pret ending</w>
K an
super v
sil ence.</w>
m ask</w>
st in
demand ed</w>
b is
4. 2.
M un
ev acu
te ams</w>
spectr um</w>
adop ted,</w>
à -
bag s</w>
A li
ser vers</w>
cre am</w>
wi ped</w>
p -
human s.</w>
f all.</w>
disappe ar
Co -
common ly</w>
S U
fin anci
ban k.</w>
d i</w>
max im
every one's</w>
ent ail</w>
b und
slow ly,</w>
Ris k</w>
wash ed</w>
fain t</w>
f ound,</w>
pe t
inst ant</w>
relev ant,</w>
v om
v as
spec tac
V ,</w>
, 000.</w>
y le</w>
ity ;</w>
exceed ed</w>
en large
devic e.</w>
smil ing</w>
E B
proper ty.</w>
happen s.</w>
col l
book s.</w>
myst ery</w>
R on
G H
pig s</w>
arri ved.</w>
Je ff
e tern
trad e,</w>
g lim
aqu acul
experi ence,</w>
t end</w>
bre eding</w>
6 7
win e.</w>
ol ds</w>
St ability</w>
S ust
sun .</w>
se ats</w>
inter -
M an,</w>
sti r
CO N
h at</w>
lim iting</w>
expo sures</w>
i v
ho p</w>
be ating</w>
point s.</w>
ar t,</w>
up stairs</w>
tou ch
club .</w>
Sparhaw k</w>
E .
E EC.</w>
l an</w>
Thur s
ation 's</w>
conver gence</w>
J ere
à- vis</w>
ex changed</w>
broad er</w>
subject -
air y</w>
dele ted</w>
S end</w>
bre ast</w>
J ake</w>
forwar ded</w>
di g</w>
chr onic</w>
Hun gari
sched u
fe wer</w>
renew ed</w>
mon d</w>
road s</w>
repe at
woul d,</w>
gu ests</w>
negoti ated</w>
n ak
sp id
sm uggl
play er</w>
breath .</w>
accoun ted</w>
in cl
Haven 't</w>
not ...</w>
enc e?</w>
form ally</w>
be en,</w>
mat ure</w>
i um</w>
2 %</w>
employ ment.</w>
happen ,</w>
F a
Ber n
kne es</w>
incid ent</w>
har v
pain ted</w>
b ute</w>
Com b
milli on,</w>
reg im
al tered</w>
Chris ti
sig nat
gu y?</w>
( H
profit ability</w>
Sund ay</w>
Pak ist
vis- à-vis</w>
staff .</w>
dar ity</w>
canc el</w>
Con sum
Mo sco
themsel ves,</w>
ni c</w>
M ech
wal ks</w>
subst antive</w>
shop .</w>
li ves,</w>
bedro om</w>
Tu es
through ,</w>
emphas is</w>
cat ching</w>
Br ad
tal k,</w>
path .</w>
no vel
cre ature
character ised</w>
V AT
Regi stry</w>
work ers,</w>
loc ation.</w>
kid ney</w>
fac tory</w>
ter ms,</w>
di m
intermedi ate</w>
im pul
r ate,</w>
establish ed,</w>
re verse</w>
coast al</w>
S hor
Enter pris
drag on</w>
over whel
g ut
R ES
O thers</w>
M en</w>
ton gue</w>
hon our</w>
exerc ising</w>
answ ered.</w>
B ack
acqu ire</w>
Fig ure</w>
2 (1)</w>
b ond</w>
H ann
do se.</w>
tor n</w>
(1) (a)</w>
list ,</w>
sist er,</w>
po sts</w>
con gratul
abl y,</w>
struc ture
exemp ted</w>
t elecommunic
pa used</w>
ass es</w>
for bid
ro m
individ ually</w>
conflic ts</w>
w ...</w>
influ enz
Bo b</w>
1 1.</w>
9 5
thro at.</w>
projec t,</w>
sk in
a head,</w>
Atl antic</w>
E ll
tre e.</w>
song .</w>
pis sed</w>
com ing,</w>
be l</w>
Org ani
pursu it</w>
ag on
favour ite</w>
U sing</w>
cab in</w>
mis sil
hone y.</w>
s in</w>
Conven tion.</w>
week end.</w>
reci proc
int est
ar a</w>
e k
O k,</w>
N ex
il ity,</w>
emp ty.</w>
br and
irregul arities</w>
dis close</w>
un certainty</w>
inde x
ak er</w>
ate )</w>
eu tic</w>
adv oc
transpor t.</w>
inter action</w>
suppor t,</w>
dynam ic</w>
claim ing</w>
ap h
G row
nom inal</w>
v ered,</w>
wh y,</w>
es ),</w>
daugh ter's</w>
in heren
air craf
R& D</w>
am ?</w>
dis h
H ist
T err
own s</w>
tend ering</w>
R ai
wall s.</w>
vis iting</w>
poul try</w>
Ma ur
re ject</w>
gard en</w>
cris is.</w>
investig ating</w>
psy chi
mou th,</w>
essi on.</w>
Leg isl
Sust ain
C are
" No,</w>
warri or</w>
respon ses</w>
head ings</w>
gentle man</w>
inter nation
ind ent</w>
I X</w>
compe te</w>
' What</w>
all -
L en
sev ere
din ner
corrid or</w>
Fin n
scre aming</w>
nam es.</w>
Be hind</w>
wav ed</w>
imp lies</w>
electr on
bridg e.</w>
susp end</w>
Sh ouldn't</w>
ess ence,</w>
30 .</w>
mo od</w>
Ob vi
P it
Id enti
cas u
Co hesion</w>
v ing,</w>
r ay</w>
fe ared</w>
acc ess
Super visory</w>
n ick
in spi
saf ely</w>
nigh t...</w>
micro -
tr y,</w>
Sm all</w>
jur y</w>
ant :</w>
tri um
fil ter</w>
" Then</w>
consequ ently,</w>
te m</w>
Ar ab
6 9</w>
observ ation</w>
read y?</w>
confir ms</w>
sub scri
authori zed</w>
attribu ted</w>
v ary</w>
minim al</w>
l ord</w>
co ated</w>
I N</w>
ver s.</w>
H it
air ports</w>
guid elin
expect ations</w>
ac company</w>
m a,</w>
Wh y,</w>
compe ting</w>
Star t</w>
I l
ure d.</w>
shiel d</w>
Emper or</w>
some one,</w>
La ure
B y
ro t</w>
ce ase</w>
Lat vi
Ca ther
Gu ys,</w>
10 %</w>
streng th.</w>
rep lies</w>
disappe ar</w>
Con ver
gar den
" What's</w>
z e,</w>
per ha
decid ing</w>
whisp ered</w>
n ically</w>
op pose</w>
confirm ation</w>
b )</w>
al um
C ub
thes e.</w>
renew al</w>
g as.</w>
ho b
conver ted</w>
luc k,</w>
stud y.</w>
strong .</w>
H ay
Des ign
IV E</w>
grow th,</w>
They 'd</w>
" I've</w>
ti p</w>
intellig ent</w>
compet ences</w>
chang es.</w>
trust .</w>
poc ket.</w>
world wide</w>
hur ried</w>
Re g
dep loy
A h
p ace</w>
exha ust</w>
evol u
[ 8
therap y.</w>
12 /
ic s,</w>
excep tions</w>
St eph
Ho sp
wav es</w>
origin .</w>
fl ash</w>
Again st</w>
speci fication</w>
pati ents,</w>
import ation</w>
diam on
gl it
dimen si
adv ise</w>
5 ).</w>
pre- filled</w>
know n,</w>
be am</w>
Un it</w>
re volu
im possible.</w>
o live</w>
mu no
K h
200 2.</w>
Lo s</w>
Br and
Bro ok
9 4/
gu est
Innov ation</w>
fol ded</w>
Agre ements</w>
Mo ve</w>
X X
Jap an</w>
FO R</w>
13 ,</w>
per pe
tee th.</w>
t ank</w>
pre sumption</w>
Tre ati
Admir al</w>
b ill
il leg
with ?</w>
p es</w>
on t</w>
faul t,</w>
autonom ous</w>
P ass
po ison</w>
p oured</w>
it y?</w>
8 00</w>
investig ated</w>
Al low</w>
nec k
ili ties,</w>
bod y?</w>
distinc tive</w>
gi e</w>
val .</w>
speci es.</w>
... he</w>
P y
program .</w>
pay s</w>
ran g</w>
provid ed.</w>
as h,</w>
activ ated</w>
E ric
Uni ver
fin ished.</w>
meet ing,</w>
people ...</w>
suic ide</w>
stre am
S ett
pa ediatric</w>
shou ted</w>
Fin land</w>
less ly</w>
co lo
N ick</w>
wid ely</w>
stre et,</w>
foot ball</w>
dollar s.</w>
g er,</w>
el ?</w>
macro -
h is.</w>
se y</w>
H ome</w>
s or</w>
sal ary</w>
re ver
G or
je wel
ic al,</w>
correc t.</w>
co ins</w>
30 .
co ast</w>
St an
d ad,</w>
pass age</w>
ni e,</w>
enter tain
German y.</w>
i ti
elec tion</w>
plan et
multi lateral</w>
monit or
medic ine.</w>
logi c</w>
do es,</w>
observ es</w>
ligh ting</w>
ed ,"</w>
commer ci
work ers.</w>
util isation</w>
Priv ate</w>
A mb
1 :
D add
199 8,</w>
" Y
gu e,</w>
p ile</w>
the ore
bac ter
Al f
wholes ale</w>
comfort able.</w>
M ist
sh out
tal king.</w>
oper ations,</w>
grou ps,</w>
II I.</w>
M ul
expor ter</w>
( L
case- law,</w>
sp in
hol es</w>
cl ar
c ub
3 (2)</w>
ac ts.</w>
U su
F lo
Ear th,</w>
a f</w>
remin ds</w>
ke 's</w>
ger ich
coun sel
G ord
Dem oc
ry p
ori es,</w>
Th re
( see,</w>
technolog y.</w>
op posed</w>
oc k</w>
8 4</w>
tre es.</w>
hor se
H ope</w>
tis ation</w>
t our</w>
respon d
polic em
chan nel</w>
li euten
occasi onally</w>
yourself ?</w>
fa ther?</w>
virtu ally</w>
min us</w>
Environ mental</w>
7 4</w>
instru ments.</w>
ali ze</w>
bo xes</w>
w ings</w>
bro w
bat ter
Cre ate</w>
c a</w>
201 5.</w>
where 's</w>
stuff ,</w>
speak .</w>
Washing ton</w>
se as</w>
ple a,</w>
explo sion</w>
weigh ing</w>
vie wed</w>
cl am
voc ational</w>
roman tic</w>
Ad voc
sub heading</w>
isl and.</w>
fund s.</w>
ne ed,</w>
resid ents</w>
h as,</w>
inter face</w>
Kel ly</w>
level s,</w>
troub le,</w>
or r
Wor l
lin es,</w>
fo ld</w>
whe ther,</w>
farm er</w>
deser ves</w>
number s.</w>
coordin ate</w>
Par is.</w>
Car am
war ds,</w>
macro economic</w>
stup id
For m</w>
at a</w>
30 ,</w>
in tim
hor se.</w>
ain ,</w>
abl y.</w>
13 /
compens ate</w>
Pro jec
ac he</w>
a fore
Ab sol
3 00
S et</w>
ke ?</w>
rap porte
robo t</w>
ma them
dri vers</w>
ate ...</w>
T ext</w>
still ,</w>
prepar atory</w>
gu ess
ep ide
age ous</w>
r in
op ted</w>
coffe e.</w>
bur g</w>
bre ad</w>
don e?</w>
s oph
or ous</w>
ing -up</w>
fr ank
administr ator</w>
st ations</w>
ili ation</w>
for gott
ure s.</w>
e- -</w>
hor ror</w>
quali fy</w>
ain s</w>
us es.</w>
respectivel y.</w>
in spir
du ties.</w>
cr um
wan t?</w>
wel com
staff ,</w>
celebr ate</w>
ad e,</w>
y s.</w>
e y,</w>
Imp act</w>
im per
abili ties.</w>
shop ping</w>
re t</w>
radio active</w>
Sp ace</w>
to wer</w>
cr ack</w>
sh e?</w>
form s.</w>
Wom en</w>
Fin al</w>
school s</w>
don es
experi ences</w>
etc .
Je an-
integr al</w>
Eurat om</w>
recei ves</w>
pain ful</w>
ag enci
l av
X -
Apparen tly</w>
contribut es</w>
sac red</w>
produc t
comm and.</w>
In tel
di abet
sector s.</w>
mo ve,</w>
hydro gen</w>
dis proportionate</w>
17 ,</w>
y ing,</w>
isol ated</w>
about ...</w>
L E
shi pping</w>
o id</w>
m m
hone y,</w>
Rol and</w>
f um
se al</w>
over -
glass es</w>
E FS
undertak ings,</w>
d rank</w>
A ven
cho ice,</w>
Di g
sl am
re st,</w>
pati ent.</w>
him self
U K
independ ently</w>
201 4/
histor y,</w>
rac e.</w>
Ar ch
( notified</w>
in land</w>
re insurance</w>
' ,</w>
le t,</w>
Le e</w>
y e</w>
rog en</w>
bon ds</w>
ask s,</w>
four -
devo ted</w>
recep tion</w>
cr ash</w>
" Not</w>
fir ing</w>
ES ,</w>
4 (2)</w>
univer se.</w>
ter m.</w>
fu els</w>
S ave</w>
AC P</w>
y a.</w>
truc k.</w>
ill a</w>
analys is,</w>
st ...</w>
pi zz
Categ ory</w>
0 3</w>
rout ine</w>
Dun can</w>
organis ms</w>
Wh y?</w>
we alth</w>
destro ying</w>
serv es</w>
de tri
brea the
C lose</w>
loy al</w>
coun cil</w>
tur n.</w>
who le.</w>
n ?</w>
but ter</w>
Par tic
K or
assist ant</w>
s ity</w>
speak s</w>
member s.</w>
ne w,</w>
ini um</w>
id s,</w>
ha un
vacc ination</w>
judg ments</w>
care fully.</w>
cooper ation.</w>
ro ot</w>
Bure au</w>
vol ati
superi or</w>
strugg le</w>
tren ds</w>
te am,</w>
for med.</w>
elec ted</w>
ad visory</w>
shor ter</w>
execu ted</w>
other 's</w>
ann y</w>
L uck
Blo od</w>
satisfac tion</w>
conduc ting</w>
u ally,</w>
occurren ce</w>
no is
bl ade</w>
V an
Rom an</w>
EUR -
A G</w>
subsi dis
dies el</w>
Ke y</w>
Jud ge</w>
apparat us</w>
s ak
s ing.</w>
bo y's</w>
Administr ation</w>
m l
hur ry</w>
dead ?</w>
as n't</w>
L igh
min ds</w>
scre wed</w>
ill ary</w>
s lic
be have</w>
vi br
resol ved</w>
origin ,</w>
re stor
str ing</w>
st ating</w>
econom y,</w>
vis its</w>
leg s.</w>
hear .</w>
K a
% ).</w>
soph istic
prison er</w>
oper ative</w>
7 7/
compu ter
Treat ment</w>
aw ay?</w>
audi ence</w>
ar y-
shif ted</w>
gl ance</w>
al /
5 (1)</w>
re ward</w>
b are</w>
az z
gun ,</w>
P lat
ser ver.</w>
S EC
p el
depos its</w>
T I
characteris tic</w>
Dar k</w>
r ush</w>
roc ks</w>
Po li
/200 9</w>
3 rd</w>
ris on</w>
In dones
A mon
societ y,</w>
cris is,</w>
abl es,</w>
correc tions</w>
Doc tor,</w>
1 (2)</w>
in stanc
se a,</w>
cont em
/200 4</w>
to tal
star s.</w>
atmosp here</w>
fas cin
S on
Im perial</w>
sustain ed</w>
plac es.</w>
go !</w>
termin al</w>
tre mend
tal e</w>
dis advant
ag ed.</w>
ur .</w>
insist ed</w>
form s,</w>
Chris tian</w>
transf er
read ,</w>
1 :</w>
week end</w>
Lond on.</w>
contrac ts,</w>
Qu es
B is
A unt</w>
priv acy</w>
inten sive</w>
immun ity</w>
Fed eration</w>
re l</w>
negoti ate</w>
17 8
19 0
bene ficial</w>
( which</w>
cri mes</w>
de ton
arm y.</w>
W end
resid ue</w>
lawy er.</w>
h a</w>
g ary</w>
call ,</w>
lead ership</w>
d ag
Car lo
correspon d
m ud
v in
record s.</w>
natur ally</w>
ex cre
re ?</w>
I' m...</w>
7 -
r ate.</w>
en si
F ile</w>
ho od
M ess
ter m,</w>
beca use...</w>
end s.</w>
test s.</w>
believ e.</w>
U p</w>
signific ance</w>
fre ely</w>
fish .</w>
sim ple.</w>
F ather,</w>
sy l
ic ks</w>
° C</w>
fore see
suggest ing</w>
Applic ations</w>
ble ed
sector s,</w>
es tiv
For give</w>
econom ically</w>
promis e.</w>
M P
( EUR</w>
selec tive</w>
post al</w>
good- by
sa w.</w>
ref using</w>
produc ers.</w>
happ iness</w>
accord ingly</w>
Hun gar
' '</w>
mg/ kg</w>
V III</w>
frequ ent</w>
ea p</w>
Croati a</w>
ur ,</w>
o w</w>
be ing.</w>
we ar
tri al.</w>
countr y
weak nesses</w>
se ized</w>
do z
s cor
responsibil ity.</w>
Mon ten
eas y,</w>
separ ation</w>
fund s,</w>
Pal est
tun a</w>
movi e.</w>
hon est,</w>
alleg edly</w>
contain er</w>
Po st
ty 's</w>
end s,</w>
travel ing</w>
pos it
e ).</w>
M erc
A dri
relev ant.</w>
chemic als</w>
analy tical</w>
Jes us,</w>
de e
Re pe
si ble</w>
some body.</w>
ic on</w>
Declar ation</w>
embr y
as sumption</w>
3. 2.
C B
nation ality</w>
assist ance,</w>
hor r
compar ative</w>
att end
Lord ,</w>
men t's</w>
scre w</w>
Ale x</w>
ad es</w>
ess enti
grand father</w>
exp ired</w>
cro ps</w>
c able</w>
ali sts</w>
missi on,</w>
ke e
Euro stat</w>
s ends</w>
Satur day</w>
H ey
H ard
car ?</w>
judg ment.</w>
al ism</w>
[2 ]</w>
Su preme</w>
know s.</w>
dam age.</w>
Ton y</w>
sen sed</w>
Li br
begin ning.</w>
break .</w>
end less</w>
cle ver</w>
( D
subject- matter</w>
fulfil led.</w>
effec ts,</w>
strong ,</w>
di versi
vic tory</w>
h an
C N
marke ted</w>
list en.</w>
applic ant.</w>
invol ved,</w>
figh t,</w>
7 5
secon ds,</w>
migh ty</w>
actu ally.</w>
50 %</w>
R un
flo od
h itting</w>
ch est
over view</w>
ch ance,</w>
at ri
led ?</w>
ende av
ve !</w>
b ite</w>
oc idal</w>
Pro per
t edly</w>
Nic ole</w>
Langu age</w>
Docu ment</w>
kno c
Y ep,</w>
ro of
Imag ine</w>
difficul t.</w>
Rai st
inter n
Hon est
said :</w>
lev y</w>
d am</w>
der ing</w>
high ,</w>
europa.eu /
199 2</w>
stat e,</w>
restri al</w>
con dem
S )</w>
ti es;</w>
t en,</w>
on c
man ual</w>
dec eas
D enn
6 4
tru th
repe aling</w>
half way</w>
your s?</w>
organ ise</w>
deteri oration</w>
wan ts.</w>
afore mentioned</w>
S even</w>
el eph
(3 ).</w>
expor ters</w>
B ey
conside red,</w>
F el
IF R
record .</w>
mor tal</w>
diplom atic</w>
M M
infec tions</w>
break fast.</w>
tak en,</w>
ch est.</w>
Seri ously,</w>
sm ells</w>
om et
run ,</w>
re aches</w>
app rais
swe at
qu ality,</w>
sal t</w>
cl ue</w>
vi r</w>
l er.</w>
Im port</w>
7 6</w>
ser um</w>
did n'
agree ments,</w>
under sto
differen ce.</w>
strength ened</w>
off ences</w>
ti e.</w>
happ y,</w>
con serv
administr ation.</w>
Americ a,</w>
und oub
Lev el</w>
Ko sov
/ her</w>
tex tile</w>
OL AF</w>
Hun gary</w>
mat ter
ho le.</w>
arbitr ation</w>
OK .</w>
sho t,</w>
sh ining</w>
el ess.</w>
bes ides</w>
seri ously.</w>
low s</w>
differen t,</w>
K r
wol f</w>
is ed.</w>
en -
simpli fication</w>
12 5
strateg y.</w>
poss ess</w>
Cur ren
- European</w>
O EC
pi g</w>
beli ef</w>
peace ful</w>
er y,</w>
Grow th</w>
min i
cook ing</w>
J enn
wast ing</w>
spo tted</w>
G mb
Commissi on
weigh t.</w>
for given
H oriz
therap eutic</w>
recruit ment</w>
ent ries</w>
9 6
s ob
oper ation
invent ory</w>
win d.</w>
Revie w</w>
Joh n.</w>
ish es</w>
invisi ble</w>
Vic tori
sp ati
some thing...</w>
smoo th
Pl us,</w>
Ex port</w>
swim ming</w>
dum p
semi -
fo ods</w>
cooper ation,</w>
under ne
think ...</w>
less on</w>
dis aster</w>
ho t
Diff eren
witness es</w>
comple ment</w>
destroy ed.</w>
cru el</w>
authori zation</w>
Ex per
gent le</w>
Cre dit</w>
vent ure</w>
am b
D e</w>
O ne,</w>
is ed,</w>
as e,</w>
" There</w>
multi annual</w>
Cer tain</w>
leav ing.</w>
v in</w>
Bro ther</w>
ne t,</w>
pois on
camer as</w>
ani a,</w>
a ;</w>
o visual</w>
di ame
cruc i
prohi bit</w>
M ission</w>
P enn
sk ul
inser t</w>
chang ed,</w>
paren ts,</w>
above -
oblig ations.</w>
k ed.</w>
ell ation</w>
com plying</w>
W ill
vehic les,</w>
mean time,</w>
18 ,</w>
wit ch</w>
S ab
fai led.</w>
bus h
lawy ers</w>
breath ,</w>
ty pic
o ted</w>
ligh t-
que en</w>
Dani el</w>
vehic le.</w>
they 'il</w>
survi ve.</w>
Car ri
C lim
up grad
particul ars</w>
Competi tion</w>
prob ability</w>
over sight</w>
k es
break down</w>
har vest
traffic king</w>
say ing?</w>
T ok
f an</w>
exp and</w>
Where as</w>
sligh test</w>
` `
provisi onally</w>
inev it
f an
accoun ts.</w>
no vel</w>
broadcast ing</w>
ro of.</w>
gain s</w>
wife ?</w>
res or
pri me</w>
An d...</w>
correc ted</w>
acc us
C lin
implement ation.</w>
i gh</w>
direc tory</w>
batt le.</w>
[ 9
rhy th
pharmaceu tical</w>
los s.</w>
cam p.</w>
Vi e
ris ks.</w>
fun eral</w>
cust ody</w>
ch eap</w>
St or
Presid ent,</w>
ter ror</w>
issu es,</w>
inter ference</w>
Val ue</w>
manufacture r
ful filling</w>
swee the
Li ber
re spir
occup ational</w>
Ci tiz
appe al.</w>
it y...</w>
fil es.</w>
" In</w>
real ity.</w>
up dat
new s,</w>
de red,</w>
interest s.</w>
Communi ties,</w>
7 7</w>
fashi on</w>
matur ity</w>
b ill</w>
prin ting</w>
g au
go als</w>
c lock</w>
bo x,</w>
some thing
g ate.</w>
eye bro
accep ting</w>
hand some</w>
clo thing</w>
Hol ly
fac t.</w>
every where</w>
E uro</w>
resear ch.</w>
territ ory,</w>
bas e.</w>
breast -
car tel
In clud
dis closed</w>
consci ous
L atin</w>
w rec
en na</w>
langu age.</w>
distingu ish</w>
pl ates</w>
initi ating</w>
h t
asse mbly</w>
addres s.</w>
ear ly.</w>
200 6
do ors.</w>
We b
partner ships</w>
ne phe
li ve,</w>
inv ented</w>
pri de</w>
analys is.</w>
under mine</w>
po ol
expan sion</w>
dres s.</w>
ch e</w>
199 3</w>
tur n,</w>
sal v
m um
lat er
differen c
5 2
mi grants</w>
dem on</w>
confir med.</w>
Joh n,</w>
flow ing</w>
preven tive</w>
Justic e,</w>
luck y.</w>
licen sing</w>
p av
anni vers
Sou thern</w>
tour ism</w>
govern ment,</w>
girl s,</w>
person s.</w>
tor e</w>
ent ...</w>
Kev in</w>
str ain</w>
refund s</w>
perspec tive</w>
infl ation</w>
thi ev
re al,</w>
hazard ous</w>
Cho ose</w>
G ul
Col lec
let s.</w>
impor ter</w>
democr acy</w>
l ake</w>
Ed die</w>
y nam
prov es</w>
kil o
abl es.</w>
no tion</w>
clean ed</w>
O oh,</w>
tech nically</w>
jeop ardis
aquacul ture</w>
warri ors</w>
G az
sus pen
sk elet
secon d-
S :</w>
inten se</w>
org an</w>
moun ted</w>
in e's</w>
D V
Bl u
tic o
technolog y,</w>
ri pped</w>
negoti ating</w>
teach ers</w>
he 'il</w>
199 9.</w>
organis ational</w>
Institu tions</w>
ment s:</w>
dro pping</w>
di strict</w>
s enti
lam ps</w>
fl uc
f ever</w>
C amp
B ody</w>
guid ed</w>
ed ly,</w>
15 .</w>
down ?</w>
In surance</w>
COMM UN
earli er,</w>
applic able.</w>
funn y,</w>
veget ables</w>
tiv es.</w>
resid ual</w>
fa x</w>
champ ag
Wh enever</w>
consum ers.</w>
ey e,</w>
prosec ut
patter ns</w>
adver sely</w>
lin .</w>
attrac ted</w>
Go og
sy m
IC T</w>
Bud d
ris k,</w>
W all
dg e.</w>
O .</w>
Kore a</w>
pharmac ist</w>
children 's</w>
gl ec
fil tr
acc ustom
forc ing</w>
Un like</w>
Ph ili
L ic
far ther</w>
non- compliance</w>
no se.</w>
li ving.</w>
h e,</w>
profession als</w>
p age.</w>
off set</w>
er ing,</w>
enc lo
appro ach.</w>
less ons</w>
charac ters</w>
Guaran tee</w>
1. 1</w>
[1 ]</w>
del ays</w>
j i
2001/ 8
sig n.</w>
noti fications</w>
o th
brea the</w>
pic ture.</w>
diseas e,</w>
d ys
Mar ke
sh ud
shor tly</w>
scenari o</w>
Mat the
Flor id
ing er</w>
compu ters</w>
frame work.</w>
ei ve</w>
train .</w>
ti e,</w>
Mar t
tiven ess.</w>
public -
par ked</w>
de als</w>
L et
' s
w ?</w>
ti tu
pass word</w>
fing ers.</w>
pack ages</w>
pap er,</w>
ca p</w>
Max imum</w>
sc attered</w>
de preci
Chin a,</w>
viol ation</w>
v ice</w>
nation al,</w>
anticip ated</w>
g ang</w>
pre domin
dic t
s man</w>
ou ts</w>
Bro ad
In stitute</w>
afterno on,</w>
Mo di
organis ations.</w>
gu it
wh olly</w>
engine ering</w>
w rest
supp lement</w>
aw s</w>
administr ations</w>
For tun
par ano
mag nific
... it</w>
pl a
St eve</w>
ambi tious</w>
dis h</w>
chur ch.</w>
Aut om
ing ?"</w>
en s,</w>
Mol do
spati al</w>
b ang
ac tion
honest ly</w>
shortcom ings</w>
din ner,</w>
sho ts</w>
part -
paren t
hor rib
who le,</w>
ver sions</w>
v y</w>
ber g</w>
valid ation</w>
instruc ted</w>
S aid</w>
ip her
ES MA</w>
A mand
se en,</w>
safe guards</w>
pe ak</w>
sw allowed</w>
re ha
answ er,</w>
ag end
Le ad
seas on</w>
m ic</w>
br ake</w>
t ext
stop s</w>
(EU R
t am
every body.</w>
y a,</w>
el le</w>
attrac t</w>
agree ments.</w>
( 8)</w>
li ance</w>
cri m
produc es</w>
bo ats</w>
confid ent</w>
af ter,</w>
kin d,</w>
... as</w>
col lateral</w>
back !</w>
an om
ess es</w>
ear s.</w>
Di vision</w>
op tion.</w>
simultane ously</w>
(ii i)</w>
Pre par
pers ensi
est ing</w>
any one,</w>
M ain</w>
D ub
5 6
dis orders</w>
Vir g
He al
anc y.</w>
woul d.</w>
pres ents</w>
int rigu
in directly</w>
envel op
J ul
hospit al,</w>
cr ying</w>
mat e,</w>
answ ering</w>
understand ?</w>
M ut
Viet nam
ut terly</w>
gluc ose</w>
Y ear</w>
IT I
sk in,</w>
ir regular</w>
J i
al ise</w>
occas ion</w>
birth day.</w>
tim ing</w>
men tion
all y-
regi ons.</w>
su ited</w>
n ai
labor at
b s.</w>
ambi gu
16 ,</w>
fort une</w>
asse ts,</w>
ter ms.</w>
V ar
impres sed</w>
wiz ard</w>
so on
aggre gate</w>
cor ner.</w>
tor ture</w>
fut ure
ad ds</w>
R ab
or a</w>
D ere
pres sion</w>
m it
k in</w>
fi bre
applic ability</w>
of u
Chur ch</w>
interf ere</w>
bit ter</w>
' It</w>
tack le</w>
succ ess.</w>
ha ve?</w>
su it.</w>
com bus
c attle</w>
Ac tive</w>
Aud itors</w>
br on
pr ince</w>
Jour n
En ter</w>
subjec ted</w>
off ?</w>
for ...</w>
metre s</w>
am bul
TV .</w>
Mean while,</w>
loc ks</w>
ho c</w>
al so,</w>
co .</w>
av ir
6 _TA
ridicul ous</w>
prolong ed</w>
D ex
00 0,</w>
S ist
2 nd</w>
om e.</w>
cre ative</w>
Rec ital</w>
H T
clo se,</w>
Exc ell
terror ism</w>
star .</w>
pric ing</w>
ment )</w>
Protocol .</w>
fe ature</w>
assa ult</w>
Irel and,</w>
200 9
scre en.</w>
kil led,</w>
c ave</w>
blo wn</w>
manifest ly</w>
ly ing.</w>
criteri a,</w>
Sus an</w>
Chair man</w>
ni tion</w>
entit lements</w>
d un
Ri ver</w>
It 'd</w>
im muno
delic ate</w>
vac u
ho od,</w>
hes i
strang er</w>
r ust
defin es</w>
adv ice.</w>
stoc k
appro ach,</w>
anci es</w>
C lear
replac ing</w>
Program me.</w>
ne glec
d add
Descri ption</w>
Govern ment,</w>
sor ti
inc in
cloth es,</w>
oper ates</w>
ag e...</w>
reserv ation</w>
cal ci
an a.</w>
Techno logy</w>
Sub -
mo on
7 9
knowled ge,</w>
r y's</w>
oper ators,</w>
miss ile</w>
au x
Stat ement</w>
10 1</w>
st atic</w>
wor n</w>
dra ws</w>
ch er
IP ,</w>
report s,</w>
13 .</w>
o b</w>
kni fe.</w>
school ?</w>
reflec ting</w>
frame work,</w>
ver ...</w>
br and</w>
shop s</w>
repli ed,</w>
program s</w>
progre ss.</w>
Stat ute</w>
St op
pip e</w>
C M
B ay
cle an.</w>
dead lines</w>
sev enth</w>
mov able</w>
r ou
phys ically</w>
4. 4).</w>
eg g</w>
fluc tu
provisi on.</w>
propos al,</w>
in appropriate</w>
13 .
5 8
tradi tion</w>
toge ther?</w>
ough t.</w>
s ,'</w>
delet ed.</w>
4. 2</w>
expl ore</w>
C_ 201
said ...</w>
pic k
Coun tries</w>
retur n,</w>
mo st.</w>
approxim ation</w>
Li ke
end ing.</w>
be st,</w>
r ational</w>
Sh ut</w>
termin ate</w>
struc tured</w>
ob tain
some body's</w>
K ate</w>
h all.</w>
analy se</w>
Environ ment</w>
(a ),</w>
bath room.</w>
mat ches</w>
Med ical</w>
paragrap h.</w>
respectivel y,</w>
cred it
Fri day</w>
non- discriminatory</w>
Col leg
mus cles</w>
nast y</w>
ator y.</w>
Mem ber
gaz ed</w>
drug s.</w>
sign als</w>
fin d
f -
un it.</w>
Cont act</w>
dut y,</w>
contrac ts.</w>
consider ations,</w>
chocol ate</w>
N ick
all ...</w>
job s.</w>
el abor
dis pens
bas eline</w>
boy s,</w>
as ?</w>
aff air
thor ough</w>
challeng ed</w>
other wise.</w>
member s,</w>
G un
B ank
Ac adem
gener ic</w>
distor tions</w>
citizen s.</w>
criteri a.</w>
co- ordin
Re f
ste in</w>
out lined</w>
ok .</w>
influ enced</w>
discus sing</w>
cigarett e</w>
a w</w>
stimul ate</w>
datab ase.</w>
Under tak
200 8
assign ment</w>
amoun ting</w>
s core</w>
jo ke</w>
aff air</w>
ti vi
neighbour ing</w>
detec tive</w>
P el
six -
f y,</w>
v ap
tu be</w>
step .</w>
calcul ations</w>
ath .</w>
whit e,</w>
are d
visi on,</w>
undertak ing,</w>
recycl ing</w>
B s</w>
rough ly</w>
drin k,</w>
rub ber</w>
industri es</w>
ch ase</w>
fi res</w>
Mon sie
suspic ious</w>
pleas ure.</w>
conf er</w>
sc ram
at ure.</w>
Gab ri
rein forced</w>
b lowing</w>
aut um
speci al.</w>
direc tly,</w>
au to
A x
what .</w>
record ,</w>
perman ently</w>
administr ation,</w>
men s</w>
Paci fic</w>
N ah,</w>
E th
... I'm</w>
F OL
EC T
ver sus</w>
t as
po t</w>
Netherland s,</w>
quick ly,</w>
oni a,</w>
fo ot.</w>
an e
ak e
es pre
dis gr
und ue</w>
L EG
10 ,000</w>
100 %</w>
world ...</w>
sit e,</w>
el ess
eag er</w>
counter fe
Fr ance.</w>
( with</w>
ut ter</w>
regi on,</w>
coun cil
D um
dest ined</w>
accid ents</w>
' %1
implement ed.</w>
i ed.</w>
company 's</w>
ti de</w>
pot ato
man ner,</w>
ali zation</w>
[3 ]</w>
wash ing</w>
cab in
pro sper
tr uck
ag ger
A part</w>
y ?"</w>
No tes</w>
undertak ings.</w>
proper ty,</w>
cal led.</w>
anti bio
Mi am
materi al.</w>
m our
G ,</w>
re act</w>
tw ice.</w>
m m.</w>
where ?</w>
under ground</w>
g as,</w>
consum ed</w>
ap pointing</w>
A ar
con fined</w>
ain ed</w>
li vest
id o
d addy</w>
adv anc
Scho ol</w>
T ed
p us
A P</w>
fre ez
dri ve.</w>
flu id</w>
mat ri
counter v
asse ts.</w>
Intel lig
cali br
[ 10
nerv ous.</w>
g s.</w>
distor t</w>
d ou
is tics</w>
Agre e
re ach
hy gi
Belgi um,</w>
slaugh ter</w>
opportun ity.</w>
she ets</w>
embarrass ed</w>
pl ay,</w>
dream ,</w>
N ar
intra- Community</w>
explo it</w>
ep i
th ave</w>
organi zed</w>
har ass
amoun ted</w>
min ent</w>
at titude</w>
intraven ous</w>
scrut iny</w>
cr ou
L or
coordin ating</w>
co ,</w>
ash es</w>
R an
na use
feel ing.</w>
usi ve</w>
b ell</w>
victim .</w>
co de.</w>
c ess
us ers.</w>
marke t
de :</w>
Hell enic</w>
demonstr ation</w>
N ath
deli ver
belo ved</w>
believ ing</w>
tro p
na p</w>
docu ment,</w>
can not,</w>
le ast.</w>
evalu ating</w>
Prep are</w>
Res er
ris k
a un
7 9</w>
min eral</w>
centur ies</w>
m ac
free zing</w>
be ef</w>
subsidi arity</w>
fish er
/200 3</w>
c enti
T old</w>
Chin a.</w>
m ai
iss a</w>
explain ing</w>
Certific ate</w>
ho st
gl ass.</w>
fl ed</w>
. europa.eu/
cust od
Fi re
des ired</w>
A k
materi als,</w>
be ars</w>
del ayed</w>
Russi ans</w>
tur n
r age</w>
ne w.</w>
e ver,</w>
An na</w>
that ,"</w>
fl y.</w>
P D
For get</w>
Po ssi
Cypr us</w>
shir t.</w>
ven ge
sub stance,</w>
di zz
L ,</w>
regi on
let ter.</w>
ord ering</w>
brain s</w>
trad ed</w>
terrib le.</w>
Qu in
undoub tedly</w>
thresh olds</w>
t ful</w>
surger y.</w>
complex ity</w>
Tr aining</w>
S urely</w>
Lar ry</w>
r ound
ha ve
exist s.</w>
ed ed</w>
popul ation.</w>
usu al.</w>
pay .</w>
par ts.</w>
mom ,</w>
Sustain able</w>
G ard
ner ve</w>
EUR- Lex</w>
hear ing.</w>
avi an</w>
su ch,</w>
h ,
ev il.</w>
fore going,</w>
wid espre
r atic</w>
infring ement.</w>
fe ature
ad or
o wed</w>
bal ances</w>
Strate gic</w>
Enter prise</w>
struggl ed</w>
Lin col
D ad
yester day,</w>
cl arity</w>
institu tion
co m</w>
S pi
clin ically</w>
ul ation</w>
trad ers</w>
serv ant</w>
Par k</w>
ste ering</w>
ist ,</w>
lar ge,</w>
influenz a</w>
div ide</w>
1 15
real ity,</w>
lat ely.</w>
smar t,</w>
re lies</w>
nod ded,</w>
cor ro
ar rog
sm elled</w>
om ed</w>
custom ers.</w>
stopp ed,</w>
research ers</w>
ar di
effec tive,</w>
be ast</w>
ul ts</w>
objec t.</w>
dis clo
ch uck
Ch lo
st y</w>
il es</w>
adoles cents</w>
R ,</w>
( 1</w>
wid th</w>
termin ated</w>
some how.</w>
her it
accept ed.</w>
orr ha
Str ateg
bankrup t
trans formation</w>
T ER
EN D
hungr y</w>
re iter
haz ard</w>
fulfil s</w>
drag ging</w>
Medic inal</w>
8 4
Dig ital</w>
v able</w>
pack ag
comp ound</w>
Jess ica</w>
cau tion</w>
chann els</w>
simplif y</w>
stres ses</w>
feel ings.</w>
D est
Conclusi ons</w>
E s
deteri or
Yor k,</w>
Up on</w>
C (200
u no
st are</w>
promis ing</w>
machin es.</w>
le y's</w>
glim p
Gener al,</w>
Au dit</w>
trac ks</w>
sho w,</w>
invest ment.</w>
f oun
In tro
tor 's</w>
gar b
aff airs</w>
un anim
un limited</w>
cl ai
equ ili
econom ic,</w>
multi p
conc ession</w>
Amon g</w>
3. 2</w>
partn ers.</w>
Advoc ate</w>
objec tive,</w>
last ed</w>
kil omet
To ge
Per s
s nat
poll ut
fi ve.</w>
demonstr ating</w>
trigg ered</w>
Cham ber</w>
trav elling</w>
T el
pow ers.</w>
infring ement,</w>
eng er</w>
ap it
ag ent.</w>
dis k</w>
Rac hel</w>
A ma
his /her</w>
approv al.</w>
am ic</w>
v )</w>
firm ly</w>
II I
hy bri
deb tor</w>
resul ts,</w>
ey ed</w>
c .</w>
envel ope</w>
gar ding</w>
dist ance.</w>
broad cast</w>
Program me,</w>
fa ir.</w>
e- m
attemp ts</w>
supple mented</w>
fat al</w>
bar ,</w>
tal ent</w>
re de
strang e,</w>
consider ation.</w>
Prof ess
state ment.</w>
concern .</w>
as sho
Re ad</w>
cont acted</w>
Sh an
N ap
Mech anis
F red
perform ance.</w>
consum ers,</w>
co d
Re garding</w>
R ay</w>
bar s</w>
mo on.</w>
her self,</w>
proper ly.</w>
old est</w>
charac ter.</w>
accustom ed</w>
ION S</w>
Educ ation</w>
199 7,</w>
v ag
brok en.</w>
CO 2</w>
win ,</w>
Pay ment</w>
** *
desper ately</w>
cre ep
effec tive.</w>
5 3
exha usted</w>
subjec t.</w>
gene tically</w>
yiel d</w>
di e?</w>
An ton
appli ed,</w>
righ tly</w>
az ole</w>
pati ent
Pol and,</w>
e "</w>
back ...</w>
Car l
she ep</w>
forec ast</w>
SM E</w>
l um
S anc
subsidi aries</w>
D E</w>
syn dro
V ari
Har ve
Avi ation</w>
ini b</w>
c m</w>
at ure,</w>
surren der</w>
104 9/200
obstac le</w>
cr ush</w>
sp here</w>
manag ers</w>
van ished</w>
bl az
C L
sa me,</w>
L on
though ts.</w>
cur se</w>
consump tion.</w>
youn g.</w>
rev oc
cour se
noti fying</w>
deliber ately</w>
Oper ation</w>
Cur rent</w>
satis fied.</w>
is :</w>
add ed.</w>
ver s,</w>
su its</w>
book s,</w>
person n
understand ing.</w>
l ur
run ning.</w>
O ffici
sti m
sex ,</w>
centur y.</w>
C ases</w>
tre es,</w>
continu ously</w>
Th ail
inv alid</w>
ill ness</w>
challeng ing</w>
exec ute</w>
escor t</w>
4 9
there 'll</w>
Proced ure,</w>
y er</w>
weap ons,</w>
sus cep
(4 ),</w>
un related</w>
st ers</w>
revie w.</w>
qu alit
fur ther.</w>
Infra structure</w>
no l
ation ).</w>
Yu go
recipi ents</w>
inheren t</w>
angr y.</w>
Nav y</w>
sing le-
permissi ble</w>
high lighted</w>
w ounds</w>
saf er</w>
e ternal</w>
Al ice</w>
sub ordin
some times.</w>
re fin
soci o-
preven ts</w>
fre e,</w>
ar is
Anne x,</w>
jac ket</w>
fail ure.</w>
li ps.</w>
COM (200
es e,</w>
asle ep.</w>
formul a</w>
v ec
song s</w>
mean ...</w>
an a,</w>
L il
sex u
ser ,</w>
s ake,</w>
revie w,</w>
again ...</w>
US A</w>
un founded.</w>
fl at
sh ed</w>
said ?</w>
practic es.</w>
glo b
pass es</w>
S we
Bo sni
5 9
sc ar</w>
ph a</w>
e /
dos age</w>
fuc ked</w>
divid ends</w>
bor n,</w>
part ner.</w>
consequ ence,</w>
slow ly.</w>
threat en</w>
swor d.</w>
rap e</w>
sil ly</w>
d airy</w>
year s...</w>
tiv es,</w>
st ation
le an</w>
bal lo
Peop le's</w>
Har ry,</w>
mag ic.</w>
experi mental</w>
o il
D S
8 (2)</w>
low ed</w>
Cor rec
S am,</w>
20 %</w>
pa id.</w>
gol d.</w>
fac ts.</w>
de ?</w>
U ser</w>
we igh</w>
ver ?</w>
vari eties</w>
loc k,</w>
Surve illance</w>
death s</w>
compar ing</w>
c ell.</w>
EC O
qui et.</w>
des k,</w>
b list
Soci ety</w>
Cham ber
tiven ess,</w>
p in</w>
effec ted</w>
Regi on</w>
holi day</w>
engag ement</w>
% 2</w>
reli eved</w>
medium -term</w>
c ord
anti- competitive</w>
opport uni
aband on</w>
portfoli o</w>
bit ch</w>
stop ,</w>
le th
S ir
ul p
open s</w>
justic e.</w>
... which</w>
un pleasant</w>
om y</w>
Tom my</w>
Char lie,</w>
An der
Hungari an</w>
t ang
pol it
Schem e</w>
B -
me te
bus y.</w>
ridicul ous.</w>
aff i
Protocol ,</w>
er ous</w>
enc e...</w>
Instru ment</w>
uni versi
grad ual</w>
Al tern
wo od,</w>
t e,</w>
lu gg
ard s.</w>
bor ing</w>
bo thering</w>
T C</w>
15 .
gun s.</w>
sor ry
om er
con sec
del ay.</w>
Wi z
m ad.</w>
vis it.</w>
sinc e,</w>
ori ous</w>
Bar bar
writ ing.</w>
N atur
other ?</w>
capac ity.</w>
anc e?</w>
Prov id
L t
dis appointed</w>
summ er.</w>
paren tal</w>
p s
conf ers</w>
b i</w>
no te
typic ally</w>
t ations</w>
choo sing</w>
again !</w>
ION ,</w>
bl ur
found ation</w>
accoun ts,</w>
Princ ess</w>
st er,</w>
report s.</w>
ere c
don' t
Hop e
report ed.</w>
in ely</w>
c ough
addi tives</w>
absor bed</w>
Dep uty</w>
sp ic
l n
ati call
key s.</w>
che ap
2. 2.
y ).</w>
ago ...</w>
sup po
sel y,</w>
n ative</w>
chi ef
speci es,</w>
sk ill</w>
200 1.</w>
tri p.</w>
Yugo sla
Some thing's</w>
men u</w>
f lower</w>
assass in
mag ic
for ty</w>
pec uli
ogen ic</w>
mom 's</w>
du ties,</w>
Pat ric
ro pe</w>
l ingu
Ch ris</w>
si ve,</w>
G w
Cl assi
sla ve</w>
ligh ts.</w>
vi c</w>
plan s,</w>
feel .</w>
10 -
nut s.</w>
k m</w>
[4 ]</w>
- scale</w>
ev ents,</w>
col our
Per son
H C
f t.</w>
above- mentioned</w>
t e.</w>
stres sed</w>
chem istr
r ay
Rac hel
Emil y</w>
pri est
Pe ter,</w>
reli ability</w>
vol t
siz e.</w>
passi on
acquain t
... was</w>
d est</w>
undertak ing.</w>
imp aired</w>
lif ting</w>
din ing</w>
bic y
F al
typ e,</w>
pot assi
com pos
nam es,</w>
inter val</w>
Inv estig
equili bri
b re</w>
Ex p
sudden ly,</w>
struc tion</w>
man u
im migration</w>
Te am</w>
Dat ab
sho es.</w>
logi es</w>
happen ?</w>
sear ch
pres sure.</w>
i est</w>
Mar ine</w>
cott on</w>
ori ented</w>
child hood</w>
tion )</w>
colleg e.</w>
a '
No !</w>
tion ally,</w>
pro ph
loy alty</w>
pursu ing</w>
distingu ished</w>
R ural</w>
Fre ed
the ir
it u
friend ship</w>
gener ous</w>
lad y,</w>
hon or
chang es,</w>
guar d.</w>
em .</w>
modu le</w>
gr ati
scre am</w>
si c</w>
re 's</w>
cho ices</w>
Honest ly,</w>
A my</w>
objec tive.</w>
L_ 201
Bec a
usi on,</w>
bi ocidal</w>
E ri
we st.</w>
transpor tation</w>
t ing
sp y</w>
ir relevant</w>
fac es.</w>
em per
dimen sions</w>
famil y's</w>
deli vering</w>
ar om
photograp h
hur ting</w>
ar ises</w>
adv ances</w>
a ,"</w>
terri fied</w>
s ound.</w>
remain der</w>
open ed.</w>
alo gue</w>
B ell
need ed,</w>
equival ence</w>
Coun t</w>
inv en
cro p</w>
" No</w>
limit ed.</w>
dri ver's</w>
attor ney</w>
her o.</w>
bo thered</w>
st ain</w>
life 's</w>
countr y's</w>
Ad am</w>
se ated</w>
er ly</w>
re tention</w>
progre ssi
fac tors,</w>
obe y</w>
vill age.</w>
polic e,</w>
TS I</w>
off ence</w>
ev ents.</w>
near by</w>
mar sh
Hap lo</w>
some where,</w>
consist ently</w>
1. 2</w>
faith ful</w>
cri p
accord ingly,</w>
absor ption</w>
Re bec
some thing's</w>
Statis tical</w>
2 (2)</w>
st a</w>
implement ation,</w>
argu ing</w>
air port.</w>
E valuation</w>
s ank</w>
vir al</w>
fe ar,</w>
tan eous</w>
newspap er</w>
big .</w>
telep hon
gu es</w>
ke ts,</w>
in ity</w>
cat s</w>
Tay l
propos ing</w>
p estic
committe es</w>
connec tion.</w>
Can adi
repe aled.</w>
ren der</w>
acc ru
Or ders</w>
( 9
ca em
mat ters,</w>
captain .</w>
solv ent</w>
boo ts</w>
( IN
g ers</w>
ev asi
cre w.</w>
Y ester
vit ro</w>
hear ts</w>
care er.</w>
Govern ments</w>
As se
T ol
trac es</w>
, I'm</w>
veget able</w>
tribun al</w>
crow ded</w>
cell s.</w>
secret ary</w>
Monsie ur</w>
bott les</w>
Ch an
in sured</w>
what so
un dere
mou se</w>
Cha mp
B un
targe ting</w>
help ful</w>
G B
res ist</w>
ome tric</w>
care ful.</w>
bi ofu
us eless</w>
trans national</w>
la p</w>
jok e.</w>
vel oc
ni a</w>
err al</w>
wall s,</w>
A /
dri ves</w>
capac ity,</w>
Bal tic</w>
uni or</w>
m y's</w>
hol d
ha ve...</w>
ad mi
techni que</w>
system atically</w>
kis sing</w>
Y es</w>
mus ic
are r</w>
Clar k</w>
otherap y</w>
inv ested</w>
6 8
prof ession</w>
post ed</w>
N el
st ly,</w>
199 0</w>
" When</w>
re vi
in o
cryst al</w>
a ."</w>
strang e.</w>
materi al,</w>
fun ,</w>
M en
surpris ed.</w>
W ast
Pret ty</w>
wish .</w>
en force</w>
phys ici
mo ving.</w>
prett y.</w>
inadmissi ble</w>
plen ary</w>
volun tar
impor ting</w>
bo wed</w>
Jac ob
u ff
g lowing</w>
win e,</w>
should er,</w>
capit al.</w>
idi ot</w>
German s</w>
King 's</w>
wi pe</w>
F )</w>
sn apped</w>
r y?</w>
ilit ary</w>
demand ing</w>
me ?"</w>
Det ailed</w>
margin s</w>
Four th</w>
C ity.</w>
lin ,</w>
Th us</w>
mirac le</w>
le ase</w>
thes is</w>
well ...</w>
cumul ative</w>
cr ashed</w>
14 .</w>
mil k.</w>
h att
Ple as</w>
exc iting</w>
back up</w>
ab road</w>
wh ir
p ity</w>
me tr
Represent ative</w>
C all
pat rol</w>
fore stry</w>
dro ps</w>
Pro ble
ess ence</w>
16 .
(C ase</w>
weigh t,</w>
M all
it 's...</w>
id s.</w>
let ter,</w>
P as
tr am
brief ly</w>
REGUL ATION
G old
prosec ution</w>
Bri m</w>
wal k
fl ame</w>
buc ks</w>
Ac tivi
z ed.</w>
Wal ter</w>
Integr ated</w>
ili ary</w>
evid ent</w>
addi tive</w>
Christm as.</w>
sequ ence</w>
rec ti
canc er.</w>
S earch</w>
Marke ting</w>
K in
( 2</w>
O x
barri er</w>
Commissi oner</w>
201 5,</w>
year s?</w>
e y.</w>
chec k.</w>
Chic ago</w>
Austri a,</w>
concomit ant</w>
be ach.</w>
b oun
person ality</w>
g ases</w>
sc and
rub bed</w>
I ran</w>
Bal k
us s</w>
il 's</w>
2 :</w>
ul ous</w>
step s.</w>
res s.</w>
tra p</w>
su ffic
Gr ant</w>
Cap ital</w>
rap ed</w>
d ge
Co op
expen se</w>
promo ted</w>
ch at
l er,</w>
colo red</w>
Jud g
suspic ion</w>
fl at-
ev ent.</w>
stum bled</w>
invo ice</w>
ret ail
ch im
Vic e-
di gging</w>
H ell,</w>
minim ise</w>
bloc ked</w>
anc illary</w>
Industri al</w>
smi le,</w>
sa .</w>
do g,</w>
RE S</w>
( not</w>
fin d.</w>
differen tly</w>
Bo ok</w>
respon se.</w>
Rom a</w>
2 1.
wood s.</w>
under go</w>
Lo g
D '
C li
wed d
foresee able</w>
ed ).</w>
us es,</w>
etc .)</w>
Doc tor.</w>
D )</w>
st ation,</w>
exist ,</w>
borrow ed</w>
al :</w>
z es</w>
well ?</w>
Alf red</w>
recogn ises</w>
par c
k ins</w>
att ended</w>
B ea
rep ay</w>
ex agger
complet e.</w>
T am
bloc king</w>
H and
D ro
Con cer
speci fies</w>
ok ay
mathem atic
Asi an</w>
sup er</w>
remark able</w>
milli on
de vil</w>
19 4
with ...</w>
http:// www.
T IC
Fin ance</w>
op ath
cl ass,</w>
ca me,</w>
p ants</w>
elec tions</w>
Elizabe th</w>
la di
offic er,</w>
f ati
vis itors</w>
se am
rac ing</w>
val ley</w>
Se ems</w>
Pleas e.</w>
record s,</w>
mistak e,</w>
ast ed</w>
ad o</w>
stu dies.</w>
em a</w>
attac king</w>
test s,</w>
pre sumed</w>
evalu ations</w>
complet ed.</w>
Ly n
J .
rescu ed</w>
friend s?</w>
R T
C Z
head s.</w>
sil ently</w>
accident ally</w>
Est abl
sourc e.</w>
Bo w
see ...</w>
regi ons,</w>
dres sing</w>
Virg ini
whit e.</w>
No body's</w>
% ),</w>
gentle men.</w>
quar ters.</w>
rang ing</w>
prop ag
inform al</w>
Stand ards</w>
An dy</w>
wh y?</w>
g li
ess er
d ance.</w>
Ag ency.</w>
y an</w>
[ 11
z one.</w>
tor al</w>
t all,</w>
depart ments</w>
bo at,</w>
weir d.</w>
Re port
conf isc
140 8/
strate gi
believ e,</w>
ter -
F ailed</w>
wi de.</w>
oblig ations,</w>
ere d
contain ers</w>
cour ses</w>
appropri ately</w>
accid ent,</w>
ye ah
wi de,</w>
M ach
victim 's</w>
19 ,</w>
t anks</w>
insan e.</w>
co sme
o ils</w>
psycho logical</w>
10 2</w>
sub paragraph,</w>
pref er
no body's</w>
lo st,</w>
fron t.</w>
N igh
provid ed,</w>
nec k,</w>
de ar.</w>
N eed
LO W
Can not</w>
exten t,</w>
er s
m L</w>
Dom in
s ail</w>
prohi bit
me al.</w>
b a</w>
Air lines</w>
wh en,</w>
gain ing</w>
fur i
th under
ext ingu
Program mes</w>
that ?"</w>
fav or.</w>
ster o
sigh t,</w>
p ine</w>
g ates</w>
3 A
struc ture,</w>
siz e,</w>
alleg es</w>
roc k.</w>
applic ations.</w>
plan et,</w>
cred itors</w>
Mari time</w>
Ex plo
wh al
Some one's</w>
Parlia ment.</w>
u e,</w>
fi ve,</w>
comm unities</w>
clim bing</w>
ati ve
V eri
C e
you ,
F -
dum b</w>
C I</w>
ren tal</w>
contr ast</w>
assump tions</w>
T ali
we l</w>
ri de.</w>
citizen s,</w>
tax .</w>
eni ency</w>
stag g
restaur ant.</w>
plac ement</w>
wor se,</w>
helicop ter</w>
vit am
post pon
exac t
A y
De b
compar is
Clim ate</w>
subjec t,</w>
spir its</w>
grant ed,</w>
7 %</w>
sor cere
pre serv
hear d,</w>
con stru
tal i
poss essed</w>
ann ually</w>
ago ?</w>
Chil dren</w>
wor rying</w>
Le w
underne ath</w>
org ans</w>
cal m.</w>
app ed.</w>
amm uni
need s,</w>
claim s,</w>
adm it,</w>
Bri an</w>
negoti ation</w>
Pl ay
Ex ist
bor e</w>
bl y,</w>
analo gue</w>
aud it
spirit ual</w>
ni e.</w>
less er</w>
batt le
Ro ad</w>
help ?</w>
and um</w>
atten tion,</w>
continu ity</w>
D er
charg e,</w>
audi ovisual</w>
el a</w>
K .</w>
g no
s ad.</w>
occasi onal</w>
hur ry.</w>
- and</w>
m on</w>
atic .</w>
F ull</w>
Bi o
whe els</w>
Oper ational</w>
Je wish</w>
Jac ob</w>
tremend ous</w>
regi stry</w>
fl aw
19 5
vehic les.</w>
ro aming</w>
exp ens
clos ed,</w>
wi ves</w>
g low</w>
Mic hel
C anc
ri p</w>
neighbor hood</w>
17 .
mistak es</w>
hum an,</w>
Ve hic
ad o
200 0.</w>
respon ding</w>
r us
men ...</w>
is er</w>
v enti
r ated</w>
weap on
pre served</w>
g ent</w>
de tention</w>
ard 's</w>
I tem</w>
soul s</w>
leaf let</w>
carb ons</w>
Har v
retur ned.</w>
i 's</w>
tim ber</w>
EG F</w>
ab sur
up stairs.</w>
bas es</w>
sho wer</w>
murdere r</w>
Coun try</w>
ra ,</w>
cont amin
Produc tion</w>
pres enting</w>
four .</w>
bedro om.</w>
t a,</w>
S ure</w>
descri bes</w>
bl y.</w>
emo tions</w>
Amend ments</w>
fl ashed</w>
Re ally,</w>
z er</w>
mak ers</w>
boo st</w>
System s</w>
plan es</w>
h its</w>
Al an</w>
st one,</w>
publ ishing</w>
our se</w>
great ly</w>
por ary</w>
o wing</w>
L ake</w>
... before</w>
in ine</w>
assad or</w>
as ...</w>
wom an
mortal ity</w>
de ar,</w>
Sen ator</w>
righ t-
gam bling</w>
b in
Den mark,</w>
substanc es,</w>
ough t,</w>
enlarge ment</w>
Po wer</w>
Ho tel</w>
stat es,</w>
reflec tion</w>
pan ic</w>
ic it</w>
S am.</w>
child 's</w>
an z
ab dom
What 'd</w>
Isra el</w>
EC R</w>
14 .
t ered.</w>
partn ers,</w>
op tions.</w>
fai th.</w>
co- financing</w>
bud get,</w>
ation s)</w>
smi led.</w>
re productive</w>
inspi red</w>
dark ness,</w>
ban k,</w>
aw ake</w>
king dom
dis till
Goog le</w>
E l</w>
( O
sinc e.</w>
ques tioned</w>
Portu g
Mar gare
W asn't</w>
F ind
mut ually</w>
le ak
Pers onal</w>
y ,
ho w's</w>
h ills</w>
fi able</w>
eas ily.</w>
" She</w>
tr a</w>
abili ties,</w>
L I
sist er's</w>
pal ace</w>
co ol,</w>
al og
Intro duc
pun ish
fi er</w>
decisi on).</w>
cl um
rest ing</w>
p ne
determin es</w>
defici encies</w>
compre h
anxi ous</w>
lo v
Palest ini
teach er.</w>
week ly</w>
con ve
St ur
Man hatt
in qui
anim al.</w>
Medic ines</w>
El li
mi ti
interpre t</w>
beauti ful
lo op
hur ts</w>
broad band</w>
R on</w>
par k.</w>
bl on
of ?</w>
Sain t</w>
widespre ad</w>
u tili
jeal ous</w>
He ad
sh ine</w>
Bo o
e ),</w>
stup id,</w>
famil y?</w>
disco very</w>
com promise</w>
car d
4 %</w>
ne ys</w>
cap sul
inv iting</w>
down stairs</w>
above ).</w>
B S
struggl ing</w>
ei ther,</w>
J ar
' We</w>
year 's</w>
swif tly</w>
Mexic o</w>
Go ing</w>
un consci
educ ation.</w>
answ ers.</w>
ann ounce</w>
an y,</w>
suic ide.</w>
spar k
employ ers</w>
altern ate</w>
In divid
wom an?</w>
hall uc
consequ ences.</w>
b all,</w>
uc k.</w>
str aw
h ence</w>
" Your</w>
aqu atic</w>
Sloven ia</w>
weal thy</w>
syner gies</w>
victim s.</w>
ar mi
partic les</w>
aut op
Regul atory</w>
P s</w>
sid es.</w>
car s.</w>
spe ed.</w>
fron tier</w>
earli est</w>
Bo y
car ds.</w>
Ph ys
( 9)</w>
se at,</w>
progre ssive</w>
o v</w>
En gin
" Did</w>
S imp
A men
(1 0</w>
reven ge</w>
pun ishment</w>
Sk y
cri me,</w>
Super vis
Par ties.</w>
ti red.</w>
w e,</w>
pi erc
constitu tional</w>
Re as
travel ed</w>
la und
Con fed
budd y.</w>
A l</w>
.. and</w>
gol f</w>
Ar gent
r ounded</w>
lif el
reimbur sed</w>
B O
1 10</w>
us age</w>
rang e.</w>
hel d,</w>
remun er
man !</w>
ec o-
oper ators.</w>
grap h</w>
fl am
depri ved</w>
ang er.</w>
Rec o
depart ment.</w>
4 ,
1 ),</w>
like wise</w>
cy cles</w>
cas e?</w>
Greec e,</w>
stret ch</w>
Lu ke</w>
Require ments</w>
t all
soci eties</w>
justi fied.</w>
head quarters</w>
elim inated</w>
shoul ders.</w>
mus ical</w>
2. 5</w>
" There's</w>
bed ded</w>
0/ EC</w>
sun ,</w>
age ing</w>
W it
fish ,</w>
Mar ks</w>
uni form
tor y,</w>
p ass.</w>
thir ty-
No te:</w>
K are
un comfortable</w>
her s.</w>
deb ts</w>
constitu ting</w>
P ear
my ...</w>
bl ess
Li ke,</w>
vil le</w>
[5 ]</w>
K ay
predomin antly</w>
me tric</w>
man n</w>
liber ty</w>
corp se</w>
Micha el,</w>
progre s
ator y,</w>
Finn ish</w>
auc tion</w>
them atic</w>
es e.</w>
Explan atory</w>
v o</w>
N eigh
k el
ed ly.</w>
Pat rick</w>
H IV</w>
Communi ties.</w>
C en
sle ev
fe ars</w>
S eren
four ,</w>
bur gl
surr ound
straigh t
sourc es.</w>
out comes</w>
co ach</w>
Regi ons</w>
there to.</w>
bab ies</w>
mur der,</w>
func tion,</w>
ac et
50 .</w>
v or
up dating</w>
isl and
ris t</w>
in ts</w>
8 5/
rejec tion</w>
flic k
bl a
b s,</w>
urg ency</w>
B ol
life time</w>
Du de,</w>
5 10
gri p</w>
Char lo
fu r</w>
dog s.</w>
dis posed</w>
pre dat
Fin ally</w>
pas sport</w>
N ed
M ister</w>
z ar
stri p</w>
c o</w>
da wn</w>
car cin
B ay</w>
Au gu
know s,</w>
des irable</w>
Kingdom ,</w>
wast ed</w>
ware house</w>
long er,</w>
def ending</w>
cardi ac</w>
bo s
me -
ant ...</w>
per ipher
understand s</w>
pat ch</w>
es "</w>
benef iting</w>
Ad v
wast e.</w>
regar d.</w>
pre servation</w>
Canad a</w>
0 6</w>
was ?</w>
mus ic,</w>
beat en</w>
un it
p ump</w>
nit rogen</w>
lead er.</w>
1999/ 46
10 7</w>
landscap e</w>
charg es.</w>
advant age.</w>
secre ts.</w>
resid ues</w>
com rad
car ved</w>
COMMUN ITI
6 ).</w>
n a,</w>
m ess.</w>
17 .</w>
fin ally,</w>
afra id,</w>
' %
K ong</w>
( j
veri fying</w>
guil ty.</w>
go t,</w>
trav ell
cut aneous</w>
accommod ation</w>
1. 5</w>
ru le.</w>
every body's</w>
B ad</w>
y ard.</w>
perc eived</w>
seri ous,</w>
Spe aking</w>
L em
bl ank</w>
S low
Ac tions</w>
18 .</w>
tu m</w>
e ted</w>
Rev eren
er ic
vi ability</w>
Gr ace</w>
dis bur
guil t</w>
dread ful</w>
comp rise</w>
Re al</w>
G am
For um</w>
inste ad.</w>
cur ve</w>
D own
pro ject
ide al</w>
ure s,</w>
ev il
bat ch</w>
ph ones</w>
Be auti
earth qu
Emp i
rit u
anim al
men 's</w>
essi on,</w>
summon ed</w>
cred itor</w>
conc ei
Bey ond</w>
un il
occur ring</w>
jud ged</w>
clos er.</w>
ship ?</w>
pe l</w>
ax is</w>
an dic</w>
problem ?</w>
interval s</w>
ignor ing</w>
extrac t</w>
ed it
Intere st</w>
H .</w>
min d?</w>
telecommunic ations</w>
sti ff
ern ity</w>
consen sus</w>
ma x</w>
ex pose</w>
corpor ation</w>
plan ts,</w>
g 's</w>
dil ig
L ex
7 6/
bac ks</w>
approv ing</w>
M iss
in dispens
T reas
L. A.</w>
H all</w>
r s.</w>
avi er</w>
fund a
de al,</w>
as y</w>
an ic</w>
Auth ori
you '
gro wn
C V
y "</w>
god damn</w>
experienc ing</w>
h int</w>
fli r
ard s,</w>
conf ess</w>
stic king</w>
ch ron
D addy</w>
speci fying</w>
Min imum</w>
substanti ated</w>
notic e,</w>
m it</w>
gif t.</w>
so far</w>
isi on,</w>
as certain
di stric
con form</w>
strateg y,</w>
199 6,</w>
M ilitary</w>
leg .</w>
T ed</w>
fore st.</w>
dil ution</w>
commun ity.</w>
down load</w>
worl ds</w>
fac ts,</w>
cust om</w>
S ad
R ain
M .
dir t</w>
pe ti
elev ator</w>
stuff ed</w>
poll u
e th</w>
Rec og
DU CT
b ass
sup plying</w>
ly n
li tig
ar row</w>
6 8/
t ting</w>
Ap prov
20 th</w>
levi ed</w>
d ared</w>
br ush</w>
P reg
87 (1)</w>
responsi ble.</w>
energ y-
( I
a ment</w>
sty le.</w>
sick ness</w>
res ili
pro x
pac king</w>
leg s,</w>
co st.</w>
ant ine</w>
number s,</w>
fr action</w>
differenti ated</w>
Ser bia</w>
measure ments</w>
me at.</w>
discipl inary</w>
o'c lock</w>
inst antly</w>
fool ish</w>
sup ply,</w>
colum ns</w>
2 2.
ob li
attac k,</w>
explic it</w>
c ement</w>
W y
Pack age</w>
P re-
knowled ge.</w>
dis count</w>
Lab our</w>
hy p
ax ,</w>
ra .</w>
pris on,</w>
W on
w an</w>
den sity</w>
To w
t- up</w>
ok ,</w>
inadmissi ble.</w>
cop per</w>
con vention</w>
desig n,</w>
You th</w>
n ap
cl en
E ric</w>
sh ell</w>
one thel
mod es</w>
funer al.</w>
air port
air lines</w>
Icel andic</w>
as p
re sign
blac k,</w>
ac knowledge</w>
slam med</w>
dum p</w>
agu e.</w>
Exac tly</w>
p tic</w>
inform ing</w>
al k
activ ate</w>
Engl ish,</w>
tra it
first ?</w>
en se</w>
FOL LOW
vir gin
pro lif
us ers,</w>
respec ting</w>
end ?</w>
at om
toi let</w>
share hol
ear th,</w>
deduc ted</w>
[ 12
nu ts</w>
invest ment,</w>
ho t.</w>
dispat ch</w>
up dates</w>
squ ir
el and</w>
e t's</w>
swi m</w>
kill .</w>
k ar
interest ed.</w>
Gre e
F ut
need n't</w>
ati s</w>
ref re
f its</w>
ac tic</w>
som e.</w>
e ability</w>
du g</w>
bast ard</w>
intest inal</w>
fin ances</w>
chlor ide</w>
bi om
neutr al</w>
Mexic an</w>
vi able</w>
farm s</w>
expand ed</w>
amoun t.</w>
Prov isions</w>
vol can
r ine</w>
od es</w>
n ers.</w>
an y.</w>
p ag
op tional</w>
intim id
hypo the
he al</w>
Po i
Lond on,</w>
Ex emp
N uclear</w>
Me eting</w>
col or
s ick,</w>
distur bed</w>
conclusi on,</w>
Wh ose</w>
ing s?</w>
substanc e.</w>
b ust
P erc
Nex t,</w>
C el
Bar on</w>
municip al</w>
g -
S wee
D C</w>
ris ks,</w>
prof ess
parlia mentary</w>
7 _TA
st ab
lia ison</w>
jo h
collap sed</w>
sa uc
quali fication</w>
g es
del ay
Li ght</w>
Go od,</w>
G -
3. 1</w>
autom ob
dec entr
7 7
welcom ed</w>
thro mbo
min ority</w>
un t
remember ing</w>
pe ered</w>
marke t-
Wh y'd</w>
Scot t</w>
H il
Consum er</w>
Caram on</w>
re b
pen sions</w>
bo y?</w>
valu es.</w>
pay ments.</w>
Poli tical</w>
er ."</w>
alum inium</w>
po ol.</w>
rec ourse</w>
inclu de,</w>
T emp
Ho wever</w>
B ran
extr ater
eli a</w>
S yl
ish op
experi ment</w>
Stre et.</w>
standardis ation</w>
chamb er.</w>
Mon day</w>
Legisl ative</w>
movi es</w>
condi tion,</w>
bab y's</w>
Re ady</w>
1 (3)</w>
tivel y.</w>
m am
Meth od</w>
pro of.</w>
human s,</w>
treas ure</w>
ok ing</w>
fac t
enem ies.</w>
transf erring</w>
resist ant</w>
Me dia</w>
sho ved</w>
bor rowing</w>
S car
Ex peri
differen tly.</w>
worl d?</w>
step ,</w>
religi on</w>
l end</w>
inde ed,</w>
hur t,</w>
... then</w>
Ev ent
Direc t</w>
... it's</w>
discipl ine</w>
civili z
struc ture.</w>
m m,</w>
L es
mast er.</w>
ins ist</w>
immedi ately,</w>
B ond</w>
slav es</w>
pas sion</w>
do sing</w>
every one,</w>
add ed:</w>
livest ock</w>
ity :</w>
tak e.</w>
loc ations</w>
bro ther?</w>
some place</w>
net work,</w>
an e.</w>
Y el
Pr ague</w>
N .
Californi a</w>
... they</w>
practic es,</w>
al one?</w>
fu gi
amaz ing.</w>
Ar m
(a )
sl u
righ t...</w>
S c
speak ,</w>
reduc es</w>
academ ic</w>
R it
50 ,</w>
sh .</w>
M om.</w>
Hy dro
16 0
rob bed</w>
s ket
forbid den</w>
Asse mbly</w>
som e,</w>
sec tion.</w>
la under
f ancy</w>
Consid ering</w>
Commun ity's</w>
syn thetic</w>
Tur n</w>
soli darity</w>
K no
ra v
model .</w>
induc ed</w>
exec ut
co ver.</w>
R est
20 .
teen ag
ot on
gerich t</w>
execu ting</w>
attribut able</w>
K az
7/200 6</w>
200 5
Ira q</w>
F ire</w>
sp illed</w>
sor ts</w>
sophistic ated</w>
stat ed,</w>
memor ies.</w>
hand ic
f itting</w>
accessi bility</w>
treat y</w>
sensi tivity</w>
will ing
le um</w>
anal og
I g
gu essed</w>
aem ia</w>
else 's</w>
Fac ility</w>
Cl ai
mitig ation</w>
fl ames</w>
constru ed</w>
add ed,</w>
Re porting</w>
' But</w>
bul lets</w>
att ain</w>
kidn apped</w>
S ame</w>
Lo ts</w>
Def end
ong .</w>
piec es.</w>
cli ent.</w>
bil ity,</w>
betr ay</w>
Pri or</w>
Pi er
10 8</w>
wr itt
cur sed</w>
Co ven
rest ed</w>
miti gate</w>
fab ric
That 'll</w>
C enter</w>
qu ality.</w>
judg es</w>
flu or
contex t.</w>
complain ant</w>
win d,</w>
t ude</w>
obs essed</w>
T eva</w>
res ur
Pl ace</w>
Jo e,</w>
2/ EEC</w>
alcoho lic</w>
Find ings</w>
vehic le,</w>
up -to-
ti s,</w>
kitch en,</w>
drug s,</w>
CA P</w>
St ep</w>
Isra el
Fam ily</w>
room s.</w>
r ing,</w>
bloc k
along ,</w>
En ough</w>
Emp ire</w>
un fortunate</w>
direc tion,</w>
P A</w>
Ar chi
n b
cour t
sc ary</w>
reg ener
real istic</w>
popul ations</w>
minim is</w>
betr ay
trans actions.</w>
too th
encoun ter</w>
ation s;</w>
ER D
" that</w>
lab .</w>
int ent</w>
divor c
Where ,</w>
respec ts</w>
neg li
expendit ure.</w>
v end
z v
im pos
S et
co- ordination</w>
6 %</w>
rain .</w>
mortg age</w>
err or.</w>
Some where</w>
Pro gress</w>
P A
0 7</w>
( represented</w>
work ing,</w>
s ink</w>
in sure
Ear th
pay ment.</w>
p ound
cont ent,</w>
mi grant</w>
h ell,</w>
stom ach.</w>
p anc
O N</w>
regul ate</w>
infrastruc ture,</w>
ch ed.</w>
stor m.</w>
p e.</w>
arri ving</w>
Ter rit
2 3.
freed oms</w>
di arr
R ail
7 (1)</w>
scre amed</w>
anonym ous</w>
t ell.</w>
correc t,</w>
authoris ation.</w>
vac ation</w>
pri mi
vo ted</w>
h ed
bat tery</w>
bab y?</w>
capit al,</w>
OEC D</w>
rit on
as m
IV ,</w>
man eu
Like wise,</w>
F ul
20 /
jour ney.</w>
ear ,</w>
agre e.</w>
sc ulp
camer a.</w>
Tan is</w>
S le
IV .</w>
E P</w>
vari ations</w>
rel ying</w>
re versi
mur dered.</w>
objec tively</w>
S event
centur y,</w>
Gmb H</w>
straigh t.</w>
St abil
" He's</w>
pl ate.</w>
[6 ]</w>
Su n</w>
explain ed.</w>
accred itation</w>
a. m.</w>
Austr ali
t ask.</w>
specific ally,</w>
pist ol</w>
bo arding</w>
P N
Max ,</w>
Happ y</w>
v ent</w>
inter ior</w>
o ting</w>
me at,</w>
histori c</w>
hec t
SA ,</w>
interven e</w>
adv ice,</w>
ty ...</w>
be er.</w>
sl um
pret ended</w>
pill ar</w>
m ap
lo x
r ings</w>
p per
tec h</w>
docu mented</w>
10 4</w>
frag ile</w>
calci um</w>
Ral ph</w>
A z
V ul
g ation</w>
ev ing</w>
dec lined</w>
Raist lin</w>
usu al,</w>
infra structures</w>
guar ded</w>
disgu st
copy right</w>
T ax
Mar tin
D -
8 %</w>
os is</w>
dialo g</w>
compens atory</w>
symb ols</w>
od ds</w>
lat est.</w>
en do
ch ill</w>
Usu ally</w>
respir atory</w>
poli tics</w>
organis m</w>
innov ation,</w>
di m</w>
constrain ts</w>
pun ish</w>
sk ull</w>
mou th
mo ther?</w>
fo g</w>
fa iry</w>
endor sed</w>
gest ure</w>
cook ed</w>
c ake</w>
Pit t</w>
prof essor</w>
hon or.</w>
piec e.</w>
ic h,</w>
Public ation</w>
. I</w>
um -
shar ply</w>
F T
reserv ations</w>
morn ing?</w>
Georgi a</w>
classi c</w>
Buil ding</w>
con sorti
surve ys</w>
distor ted</w>
cour ty
col ors</w>
Comm er
ins ane</w>
fas c
( if</w>
est er</w>
cont est</w>
... what</w>
appe aring</w>
thes e,</w>
t ation.</w>
scri pt</w>
mur ders</w>
Author ity,</w>
0 8</w>
op a
viol ence.</w>
revie wing</w>
nigh t's</w>
Pl us</w>
Icel and</w>
G etting</w>
Char ac
precau tionary</w>
convic ted</w>
ab str
P eri
conver t</w>
w aking</w>
in- depth</w>
includ ing,</w>
im mer
N AT
trad er</w>
physic ian</w>
crac ked</w>
bil ity.</w>
an ed</w>
continu ed.</w>
Char lie.</w>
- 1</w>
m )</w>
dist ance,</w>
cre ated.</w>
flo od</w>
qualit ative</w>
dossi er</w>
don' t...</w>
detail s.</w>
Hungar y,</w>
simil arity</w>
questionn ai
hom es</w>
explain .</w>
hat red</w>
De an</w>
Director ate-
right ,"</w>
S uc
st abbed</w>
COMMUNITI ES,</w>
pap ers.</w>
halluc in
explo sive</w>
squee zed</w>
n es</w>
war ming</w>
surve ill
ill icit</w>
C ad
/ 100</w>
' It's</w>
gener ations</w>
Mad ame</w>
se eds</w>
fil m.</w>
li tion</w>
institu tion,</w>
disappe ar.</w>
wor m
repeat edly</w>
lifel ong</w>
Ag ency,</w>
thank s,</w>
decad es</w>
EA G
Argu ments</w>
sw ine</w>
ot s,</w>
it ;</w>
contrac tor</w>
ido gre
Hu gh
An alysis</w>
(2 0</w>
sa w,</w>
cont ent.</w>
swor n</w>
So li
Ph illi
f estiv
ch rist
but ton.</w>
hy persensi
cop s.</w>
Le to</w>
work ed.</w>
rec re
po e
Monten egr
sup pos
smo ke.</w>
mix tures</w>
in di
gri d</w>
focus es</w>
H S</w>
Rec ord
Li ech
Ho ward</w>
Kore an</w>
Angel a</w>
succ e
shou ting</w>
magaz ine</w>
explan ations</w>
bas ket
6_TA (200
observ ed,</w>
in ch</w>
ext inc
Ac counting</w>
on ,"</w>
fin ished,</w>
bor n
concer ted</w>
Remo ve</w>
tas ks.</w>
figh ters</w>
f light.</w>
n am</w>
langu age,</w>
severe ly</w>
retri eve</w>
Harmon isation</w>
C D</w>
testi fy</w>
promp tly</w>
alloc ate</w>
Afric a.</w>
uc k,</w>
me ter
en ed.</w>
arti st</w>
wor thin
tou ch.</w>
sub stitute</w>
me :</w>
mat ching</w>
deb t.</w>
Ar ab</w>
sett le
Secret ary-
st ol
on ly,</w>
Ev id
(b ),</w>
laugh ed.</w>
is !</w>
b iting</w>
16 .</w>
step s,</w>
hand ful</w>
propri et
m /
lab or</w>
em bass
apprais al</w>
Americ a's</w>
st ay,</w>
bo ss,</w>
R ad
wan ted,</w>
go v
o se
mat ch.</w>
har d-
certific ate.</w>
ban an
quali fying</w>
depend ence</w>
cooper ative</w>
mer its</w>
conclud ing</w>
profit able</w>
ke p
guarante eing</w>
gentle men</w>
deriv atives</w>
brain ,</w>
Par ty,</w>
sourc es,</w>
municip ality</w>
p idogre
li es.</w>
cl ature</w>
8 (1)</w>
bure auc
IB M</w>
5 ,
ous es</w>
enterpris es,</w>
cor d</w>
em ph
H ab
seri ous
ho lo
up s</w>
o lic</w>
down stream</w>
but ton
K ing.</w>
Mari a</w>
vir tual</w>
ong ,</w>
mono po
DEC ID
. ht
z y</w>
in suffici
gr ass
fore sts</w>
vacc in
organis ing</w>
Liech ten
succeed ed</w>
p ounds</w>
broad ly</w>
consump tion,</w>
categ or
D IR
Cal cul
wom en's</w>
Grou p,</w>
Fin e,</w>
mo tion
ho ok</w>
be ing,</w>
struc tur
pu pp
im en</w>
affir m
Ag enc
cr ude</w>
al ties</w>
trou bled</w>
point s,</w>
canc el
yl ene</w>
am or
EN T
D aw
king dom</w>
2006/ 1
dri ver.</w>
St one</w>
tax ,</w>
goodby e</w>
as sign</w>
Mac ed
E /
" F
weigh ed</w>
assem bled</w>
s ill
o to</w>
bus .</w>
D an</w>
( recital</w>
li on</w>
enti c</w>
Ok ay
pun ch</w>
contrac ep
cont emp
concep ts</w>
bo red</w>
scar c
an gi
cor relation</w>
an na</w>
M uch</w>
( 4</w>
lo ve
cen ter.</w>
ali g
weak ness</w>
sho cked</w>
invo ic
at er</w>
as tic</w>
Engl ish
integr ate</w>
char ming</w>
sim ple,</w>
quiet ly.</w>
old- fashi
hor ses.</w>
co efficient</w>
EFS A</w>
lim it.</w>
ten ing</w>
C ord
cr ushed</w>
In ser
Kosov o</w>
Equ ip
trans posed</w>
end ang
ch ill
ca use.</w>
affor ded</w>
O .
gre n
d ly.</w>
Majest y</w>
... from</w>
up set.</w>
G and
mast er
v ou
in adequate</w>
L un
r ushing</w>
at omic</w>
laborat ories</w>
shel ter</w>
par all
happ ily</w>
bl ess</w>
apart ment,</w>
class ical</w>
J H
addres s,</w>
Cam er
pas spor
Co ordination</w>
tem plate</w>
swe at</w>
s y.</w>
Vic tor</w>
trem bling</w>
str ingent</w>
qui et,</w>
intr ud
un used</w>
um ab</w>
smar t.</w>
cor ner,</w>
a gh
un .</w>
extra ordin
Ad opted</w>
surpris ing</w>
tempor al</w>
sha re.</w>
Thir d,</w>
Slovak ia</w>
D ay
V IS
ur s</w>
grand mother</w>
f all,</w>
en comp
adv ance.</w>
Where 'd</w>
T ab
fl ec
colleagu es</w>
Jer ry</w>
har b
Agricul ture</w>
cas h,</w>
superv ised</w>
head ?</w>
ec h,</w>
K ill</w>
' em</w>
is ha
im prison
Ar ound</w>
(1 5</w>
slaugh ter
swor e</w>
pregn ant,</w>
imp act.</w>
cred its</w>
consign ment</w>
al pha
Prof essi
B ai
exam ple.</w>
there to</w>
bud dy</w>
stit utes</w>
perha ps,</w>
import ance.</w>
fiel ds.</w>
au .</w>
appre n
altern atives</w>
ac ked</w>
8 -
stand .</w>
mer cy</w>
hon ored</w>
door s,</w>
plan t.</w>
e a</w>
bre aches</w>
applic ants,</w>
Stabil isation</w>
Res ources</w>
Re turn</w>
trac ked</w>
contam ination</w>
cere als</w>
[ 13
I F</w>
yoursel ves</w>
trac t</w>
com es,</w>
ceil ings</w>
Slov ak</w>
H ec
wr ink
u b</w>
streng th,</w>
... on</w>
neg lig
non- EU</w>
look ing.</w>
happin ess.</w>
d enti
know -
interrup t</w>
ha d
feed ing
circum stance</w>
house ...</w>
ob sc
n est</w>
Georg e,</w>
technologi es,</w>
seg ment</w>
mid night</w>
design ations</w>
[7 ]</w>
thorough ly</w>
swit ching</w>
mar ch</w>
in complete</w>
care fully,</w>
Over all,</w>
ar i</w>
achiev ed.</w>
transl ated</w>
deligh ted</w>
spec imen</w>
revie ws</w>
os ity</w>
mak e.</w>
Wh ilst</w>
remo ved.</w>
proceed s</w>
en !</w>
deb ate)</w>
ari a</w>
V im
C A</w>
threat .</w>
thr one</w>
pun c
b and.</w>
E V
prep ared.</w>
fore ig
ar c
Sci ence</w>
sa ,</w>
down !</w>
Engl and.</w>
sign al.</w>
t s...</w>
Certain ly</w>
scre ening</w>
es cal
can n
inhibit ors</w>
adap ting</w>
Olymp ic</w>
7 (2)</w>
t z
5 00
sex y</w>
bound ary</w>
rif le</w>
r y...</w>
bal ance.</w>
with dra
p it</w>
f en
applic ations,</w>
ra m</w>
atic ,</w>
D ea
my ster
i an,</w>
burden s</w>
an e,</w>
time table</w>
aggre ssive</w>
Engl ish.</w>
uc ked</w>
comp rises</w>
Pro pos
sup ply.</w>
com mod
7 00</w>
in ches</w>
T ak
Gu il
12 34
suspec ts</w>
align ment</w>
29 .
valu ed</w>
ous y</w>
do se,</w>
co stu
( CO
sol ic
d '
win ner</w>
of :</w>
gener ating</w>
bal con
DECID ED</w>
combus tion</w>
benef its.</w>
Princi p
pres sure,</w>
awes ome</w>
Par ty.</w>
te a.</w>
ad a</w>
g astro
ap ol
that ."</w>
ge -
diagno stic</w>
des k
ca b</w>
( 3</w>
p hi
control s.</w>
Regi ster</w>
C ab
stori es.</w>
sof tly.</w>
consci ousness</w>
case- by-
announc ement</w>
199 1</w>
sp read
respec tively</w>
man -
human ity</w>
un happy</w>
soldi ers.</w>
car pe
an gel</w>
Jo e.</w>
D ick
seri ously,</w>
nor th.</w>
k a,</w>
complain ed</w>
acqu iring</w>
F M
D a
temp le</w>
rec apit
Mi ke,</w>
Inter im</w>
Im port
G ali
Bel ar
9 %</w>
small est</w>
p end
gu s</w>
g aps</w>
et s.</w>
deser ved</w>
ED F</w>
environ ment
S W
201 2)</w>
defe ated</w>
Ro s
4. 4</w>
missil es</w>
em ail</w>
H ea
31. 12.
par aly
ar ter
situ ations.</w>
mon ary</w>
led ge</w>
any thing
m ates</w>
infec tion.</w>
co in</w>
b order.</w>
appell ants</w>
199 4,</w>
concessi ons</w>
Car ter</w>
sen sors</w>
air line</w>
ec ological</w>
d ull</w>
sm ashed</w>
sil ence,</w>
dis par
bom b.</w>
St ef
house holds</w>
6 -0
succ eed</w>
la x
circul ar</w>
att ach</w>
Val ent
S S</w>
6 7/
in capable</w>
im poses</w>
St reng
vari ation</w>
some times,</w>
on au
trans formed</w>
pur i
Republic .</w>
back ground,</w>
path s</w>
grav e.</w>
descri bing</w>
anc y,</w>
a ).</w>
ri ver,</w>
nex t,</w>
Objec tive</w>
imag ine.</w>
Re ally</w>
trac k.</w>
sec uring</w>
meaning ful</w>
furnit ure</w>
fo ol.</w>
hepati tis</w>
com es.</w>
bo di
a unt</w>
Ber lin</w>
secre t,</w>
photograp h</w>
boy friend,</w>
sovere ign</w>
move ment.</w>
mirr or.</w>
admissi bility</w>
Hon or,</w>
se !</w>
exp ire</w>
Ch er
ur ge</w>
si ons.</w>
hi de.</w>
ha ired</w>
conce aled</w>
base ball</w>
ES A</w>
consec utive</w>
buy er</w>
Brussel s,</w>
Al ready</w>
amen t's</w>
( d
v .</w>
serge ant</w>
scarc ely</w>
l ori
Horiz on</w>
un aware</w>
ph on
ou tw
head ach
foot age</w>
Char li
AC E</w>
persist ent</w>
n ations</w>
fi anc
Ve ter
shap e.</w>
Well ,
8 8/
hydro x
build ings,</w>
blac k.</w>
ture s,</w>
mach ine,</w>
justi fying</w>
(j )</w>
pro found</w>
pne um
langu ages,</w>
ro y
aud ited</w>
Fran k.</w>
witness ed</w>
optim al</w>
acceler ate</w>
Par is,</w>
Car l</w>
follow ed.</w>
app le</w>
injec ted</w>
ar -
Re ally?</w>
... where</w>
speci fied.</w>
ent ails</w>
EU S
E )</w>
it 'il</w>
bac teri
int ol
N .</w>
en shr
am i
f it.</w>
declar ing</w>
mut and
lawy er,</w>
b ath</w>
Por t
Ori gin
tomorrow ?</w>
stat us.</w>
mer ged</w>
en rich
min es</w>
inclusi ve</w>
ful l.</w>
that 'd</w>
in sofar</w>
bul k</w>
lo se.</w>
bir th.</w>
Morg an</w>
Ca es
perpe tr
bo ards</w>
Re ports</w>
Mal ay
sw itch
repe al</w>
Nor th
God !</w>
Activi ties</w>
submissi ons</w>
pill s</w>
inval idity</w>
12 -
top ,</w>
sto res</w>
s ain
lodg ing</w>
F A
collap se</w>
but ter
7 3
m ap.</w>
x ic
men ?</w>
dol ph
Ge ograp
2 30</w>
famili es.</w>
el t</w>
coffe e,</w>
Stat e's</w>
sur face,</w>
ha bit</w>
EN TS</w>
with drew</w>
im movable</w>
f it
comp rising</w>
Sec ret</w>
Ar t</w>
Cri minal</w>
pal m</w>
mur m
s ound,</w>
pe as
injur ies</w>
finger prints</w>
Pe ter
weak .</w>
le ad.</w>
accep ts</w>
Inspec tor</w>
spac es</w>
destin y</w>
compu ter,</w>
E merg
Bro wn</w>
Asi a</w>
par ted</w>
cas e:</w>
18 .
princ ess</w>
f ell
bal anc
Mem or
u i
medi an</w>
H ag
F OR
A N</w>
identi fied.</w>
clari fied</w>
N avi
street s.</w>
stakehol ders,</w>
S mo
95/ 4
freed om.</w>
ag grav
schol ar
gly caem
decreas ing</w>
Nic hol
Indi a,</w>
Found ation</w>
(2) (a)</w>
ste pping</w>
examin ation,</w>
em bedded</w>
R educ
0. 5</w>
me 's</w>
mat ory</w>
foot note</w>
rob ust</w>
d on,</w>
clari fication</w>
aggre ssi
Rom e.</w>
B lock</w>
ref rain</w>
pow ers,</w>
philos oph
l ity</w>
drin k?</w>
T .
Ar range
plac es,</w>
li ament's</w>
re war
Presid ent.</w>
speci alist</w>
pr o</w>
inher it
ch at</w>
O d
injur ious</w>
freed om,</w>
uni qu
trium ph
destin ation.</w>
Fif th</w>
gar age</w>
D og
2003/ 8
f usion</w>
ch ed,</w>
M um
py ram
windo w
mo st,</w>
inter fer
end ers</w>
N GO
Brit ain</w>
z ombi
testimon y</w>
reha bil
j ail
euro .</w>
craw led</w>
K ather
e ,'</w>
Regul ations,</w>
sw ir
sli de</w>
job s,</w>
canc ellation</w>
extrac tion</w>
auth entic</w>
Approv al</w>
Fund ,</w>
/200 5</w>
fil thy</w>
acceler ated</w>
Engin e
E ight</w>
shap es</w>
activ ation</w>
R ose</w>
fir m.</w>
case-by- case</w>
W .</w>
e ze</w>
Author ity.</w>
lif f</w>
fac e?</w>
Manag er</w>
h ul
exc essi
audi o</w>
so m</w>
co di
bar rel
tre e,</w>
mut atis</w>
arrange ments.</w>
ques tioning</w>
lin king</w>
id ?</w>
hor mon
fi red.</w>
P ul
need ing</w>
ac ed</w>
L ess</w>
1/200 3</w>
sci ence.</w>
Stud y</w>
surg ical</w>
Defini tion</w>
let s,</w>
hi er
con gre
acc ess,</w>
Bo x</w>
harv est</w>
fa ir,</w>
19 .
ment s;</w>
ide as.</w>
claim ,</w>
cal led,</w>
Jack son</w>
Ag enda</w>
thr ust</w>
tex t.</w>
( debate)</w>
" We're</w>
judic i
P ress</w>
A M</w>
Se an</w>
intermedi ary</w>
in i</w>
immen se</w>
heav en</w>
as cular</w>
ro les</w>
pul se</w>
speech .</w>
ha st
v agu
sh one</w>
pay ments,</w>
fertil ity</w>
e at,</w>
cour tes
Directorate- General</w>
of ten.</w>
ec .europa.eu/
bank s,</w>
3. 1.
mo ist
interest s,</w>
M illi
ca us
bridg e,</w>
associ ate</w>
M ,</w>
societ al</w>
prescri p
bod y...</w>
Every one's</w>
phr ase</w>
clo ak</w>
Jord an</w>
programm ed</w>
fol ks.</w>
U .</w>
Hosp it
gard en.</w>
fil ms</w>
er ,"</w>
prob able</w>
ab ilit
er :</w>
challeng e.</w>
M itch
wal k,</w>
ra zo
grow s</w>
P age</w>
Ma '
Bel gar
ang .</w>
transm it
sol ving</w>
s now.</w>
er b
deduc t</w>
ur ine</w>
Stu dies</w>
t ended</w>
ste am</w>
secre tly</w>
pl um
idi ot.</w>
fortun ately</w>
Lat via</w>
B ig
weap on,</w>
impres s</w>
ed i</w>
Re acher</w>
Chri st,</w>
wor sen
safe guarding</w>
n -
infl amm
f aded</w>
br aking</w>
re production</w>
common .</w>
mis erable</w>
in consistent</w>
resid ing</w>
figh ter</w>
cigarett es</w>
T ari
ol a</w>
g ate
diox ide</w>
candi dat
kid s?</w>
chair s</w>
second ly,</w>
ligh ts,</w>
al e.</w>
DIR ECT
Chang es</w>
An th
eth nic</w>
Re structuring</w>
ure ment</w>
si an</w>
n s.</w>
distur b</w>
read ily</w>
prospec ts</w>
jum ping</w>
g s,</w>
bet ting</w>
Di e
worri ed.</w>
Opini on,</w>
I ran
purch ases</w>
materi als.</w>
ta g</w>
refre sh
ke l</w>
innoc ent.</w>
in king</w>
ear ning</w>
40/ 94</w>
gen e</w>
tr ap
suspec t.</w>
selec ting</w>
[ 14
Pa ediatric</w>
O ,</w>
2 4.
that :</w>
sal e,</w>
cu t.</w>
Me di
pharmacokine tic</w>
light ning</w>
Exist ing</w>
theore tical</w>
mag nit
lun g</w>
Dav id,</w>
ur b
plan ned.</w>
lo dge</w>
G R
ren ted</w>
A ID
En d</w>
12 5</w>
pharmacokine tics</w>
nightm are.</w>
metal lic</w>
meet ings.</w>
low ering</w>
c er</w>
Euro stat
(1 9</w>
sinc ere
ad jac
Er ror</w>
k g)</w>
insur ance,</w>
et ax
Mal col
Tr uth</w>
Cap e</w>
C av
[...]
