the 29676092
of 16026790
to 14926011
and 10601431
a 9405145
in 8787413
I 7237278
that 5391419
you 5257508
for 4751319
is 4450378
be 4099600
on 3554442
with 3418902
was 3224483
The 3154855
it 2832549
not 2662894
have 2527087
as 2520962
by 2298091
this 2286902
are 2088719
or 2048541
at 2017583
from 1932044
he 1837584
an 1700789
my 1647726
his 1574982
your 1545502
had 1425082
You 1394728
we 1337176
all 1297878
which 1292020
me 1288836
I'm 1271201
been 1268088
but 1255854
can 1139208
what 1137572
will 1127668
if 1124142
they 1100557
out 1094602
were 1088970
do 1083091
And 1062548
shall 1042152
know 1040817
about 1031143
one 1030996
like 1024125
her 1016348
just 1009161
has 1005939
Article 998647
would 949821
their 895737
It 890641
He 878674
should 868823
don't 868376
so 850222
In 843989
into 833598
she 808870
could 806944
when 802776
Commission 784886
no 775526
its 754782
up 754440
get 745972
This 735475
him 728604
But 726865
other 726012
more 712679
think 710899
any 699152
Member 696095
who 695043
only 683507
than 643443
want 620956
must 615185
may 610629
If 598050
It's 596204
it's 592721
there 591054
We 588605
got 583466
European 582944
going 576846
. 576059
it. 575573
where 561606
our 549443
them 544857
some 539453
time 523191
you're 522425
No 522079
see 519933
those 517718
take 516763
under 510691
need 509123
A 502322
(@@ 501696
how 498095
me. 494656
) 488837
such 487695
you. 485762
did 485587
also 481933
"@@ 474322
- 468040
go 460600
these 456246
back 445203
us 442633
make 440658
two 440481
Regulation 437711
I've 435696
down 432597
said 432462
What 428936
didn't 414791
over 411176
They 410610
first 409157
then 405736
States 401923
... 401439
She 399582
even 395272
after 393267
very 389106
before 387420
never 387360
Well, 387076
between 386653
tell 386012
1 384114
new 381558
made 381409
way 374006
here 373521
-@@ 373155
because 370912
right 370395
, 363286
? 359248
come 355306
use 352978
can't 351108
I'll 350096
information 348319
something 346710
him. 344231
So 343028
still 335876
That 330824
people 328810
within 325008
through 324897
used 323341
say 316282
good 314273
( 313822
you, 304885
little 304598
same 303157
really 300924
un@@ 298683
that's 297294
's 291633
State 291557
man 291459
EU 288863
find 288201
That's 287269
set 286356
told 284933
does 284618
s, 282999
me, 280779
2 280174
last 278417
s. 276825
Directive 275768
order 271877
now 271839
measures 271658
Council 270333
Community 268360
! 267216
When 266295
national 266261
As 265369
without 263148
here. 262650
each 261763
thought 261227
look 258716
he's 256977
much 256619
Union 254668
For 254221
being 251096
give 250555
All 249676
it, 249187
might 248078
why 246998
There 243729
No, 243157
own 238009
My 237617
that, 235631
S@@ 234377
: 234208
years 234009
3 233630
found 231113
that. 230688
You're 230527
another 229137
most 229112
How 226939
accordance 226857
able 225743
Do 224751
part 222804
let 222020
put 221980
know, 221019
market 220865
re@@ 219889
against 218609
provided 218448
case 217990
in@@ 217884
am 217477
long 216259
s 216185
came 214082
three 213980
them. 213895
well 213547
too 212493
referred 212252
I'd 211627
always 211159
place 211157
we're 210737
every 209474
work 208911
data 208569
number 207962
financial 207856
off 207155
sure 206078
already 203975
thing 203547
taken 203468
following 202974
wanted 202734
both 200838
'@@ 198336
ed, 198230
cannot 197144
Oh, 197002
ever 195440
public 194144
around 193062
her. 191896
application 191725
ed. 191603
paragraph 190257
(EC) 189325
help 188971
saw 188179
...@@ 187973
; 186872
knew 185922
until 185913
ing, 185245
." 184253
es, 183598
during 183360
Annex 183355
aid 182767
Mr. 182604
since 182036
anything 181738
many 181563
er 181461
better 181103
ing. 180560
provisions 179391
He's 178874
Why 178517
took 178332
T@@ 178237
es. 177570
necessary 177395
believe 177280
products 177004
B@@ 176877
certain 175392
es 175283
ensure 174958
point 174695
doesn't 173967
Court 173809
gonna 173772
went 173334
day 172628
us. 171890
period 171538
whether 171439
To 171383
," 170736
different 169670
D@@ 169044
rules 168598
ing 168468
Then 168208
love 168127
there's 167684
keep 166387
authorities 165589
least 165490
including 165153
decision 164622
trying 164323
call 164152
4 164015
doing 163911
A@@ 163452
looked 163404
Your 162299
things 162281
5 162116
while 162093
talk 161768
P@@ 161426
now. 161364
left 161106
M@@ 160614
% 160128
few 159451
K@@ 159406
conditions 159183
C@@ 158981
Just 158570
particular 158121
nothing 158005
Is 157720
given 157629
s@@ 157483
someone 157260
life 156791
e, 156693
this. 155474
legal 155413
old 155389
end 155116
kind 155101
feel 155021
system 154909
relevant 154651
won't 154316
). 153849
time. 153557
a. 153465
L@@ 153053
F@@ 152998
G@@ 152418
means 152303
seen 151356
basis 151163
t@@ 150693
However, 150447
wasn't 149954
Yeah, 149414
him, 149115
looking 148889
specific 148781
therefore 148733
a, 148507
name 147892
you've 147873
o 147699
having 147514
There's 147122
k@@ 147068
e. 147043
o@@ 146966
ed 146827
y. 146467
best 146300
law 146292
level 145069
lot 144911
next 144607
on, 144276
account 143797
ers 143446
isn't 143260
less 143108
services 142949
away 142908
y, 142894
support 142887
provide 142876
taking 142590
10 141940
second 141397
R@@ 140679
great 140675
Decision 140327
y@@ 140242
far 139845
on. 139509
s? 139426
based 139190
whole 137864
you? 137238
third 136264
economic 135793
i 135751
E@@ 135623
At 135590
e@@ 135007
amount 134684
y 134413
they're 133215
there. 133078
she's 132718
respect 132546
kill 132294
called 132194
leave 131220
These 131051
On 130914
requirements 130753
possible 130446
control 130273
6 130129
er. 129386
present 129354
again. 129289
H@@ 129206
and, 128862
out. 128820
N@@ 128718
here, 128408
appropriate 128328
t 127940
further 127794
risk 127570
right, 127309
Where 127278
everything 127276
fact 126952
Now 126390
-- 126366
product 126299
year 126171
apply 126119
laid 126113
concerned 125981
concerning 125867
important 125140
heard 125128
is, 125050
1. 124998
done 124877
/@@ 124783
view 124755
person 124593
Maybe 124161
working 124040
e 123886
men 123714
ate 123056
d@@ 122492
L 122293
Don't 122141
enough 122040
question 121622
al@@ 120292
t, 120265
b@@ 120152
er, 120120
We're 120073
it? 119503
protection 119321
His 119143
p@@ 119061
" 118792
human 118679
once 117686
subject 117638
wouldn't 117415
said. 117242
procedure 117094
considered 116946
ask 116725
dis@@ 116406
mean, 115979
hear 115769
light 115761
Yes, 115700
up. 115695
implementation 115675
care 115039
Because 114832
world 114800
g@@ 114659
Not 114541
available 114267
n@@ 114143
countries 113867
7 113586
costs 113579
turned 113562
V@@ 113510
established 113396
mean 113334
asked 113244
l@@ 113109
access 113030
stay 112708
t. 112256
regard 111946
stop 111557
you'll 111537
body 111135
W@@ 111126
change 111096
main 110726
ation 110584
big 110359
show 110110
carried 110099
force 110069
general 109816
5@@ 109258
days 109061
date 108982
me? 108912
real 108843
common 108746
i@@ 108640
action 108427
O@@ 108396
small 108209
time, 107907
couldn't 107888
head 107657
using 107593
competent 107334
coming 107175
8 107164
?" 107015
eyes 106870
report 106777
supposed 106569
), 106491
One 106419
gave 106417
on@@ 106400
what's 106387
almost 106308
f@@ 106067
development 106052
s... 105867
try 105827
adopted 105377
non-@@ 105127
value 105113
Committee 105062
m@@ 105041
making 105007
meet 104541
Did 104316
er@@ 104259
required 103990
getting 103723
With 103643
high 103605
3@@ 103460
an@@ 103387
Okay, 103082
said, 102906
open 102552
back. 102442
full 102383
,@@ 102354
ation. 102167
brought 101904
20 101847
relating 101827
security 101492
4@@ 101329
needs 101162
talking 101149
face 101124
p. 101057
probably 100998
c@@ 100276
five 99936
now, 99773
service 99678
upon 99597
Parliament 99537
activities 99478
management 99160
production 99156
bring 99148
patients 98999
behind 98757
en@@ 98596
according 98587
right? 98587
...and 98578
form 98509
By 98339
I@@ 98182
ar@@ 98133
"I 98116
start 98057
a@@ 98038
it@@ 97624
home 96995
assessment 96981
maybe 96980
el@@ 96712
live 96641
So, 96626
al 95877
treatment 95772
social 95621
2@@ 95426
guy 95404
applicant 95339
power 95185
pursuant 95153
know. 95113
rights 94997
ation, 94935
December 94816
become 94779
30 94385
across 94195
trade 93986
tax 93801
.@@ 93358
them, 93326
in. 93212
free 93089
9 93048
(b) 92847
area 92818
Look, 92674
do. 92490
above 92248
policy 92209
business 92163
15 91918
She's 91916
understand 91793
else 91756
pay 91725
killed 91722
Can 91612
ated 91476
four 91386
international 91375
wants 91226
J@@ 91147
side 91104
interest 91093
Are 91086
actually 91069
months 91021
line 90903
night 90676
r@@ 90516
After 90337
authority 90094
woman 89695
hard 89610
12 89566
country 89376
ts 89093
sent 89001
father 88849
effect 88806
room 88764
is. 88754
longer 88701
we'll 88691
regards 88673
6@@ 88664
held 88570
v@@ 88551
at@@ 88388
life. 88347
Articles 88262
list 88202
related 88092
young 88055
z@@ 87996
felt 87954
bad 87439
total 87328
ch@@ 87201
per 87190
matter 87140
e? 87066
several 86958
hand 86825
tried 86525
ti@@ 86429
They're 86163
single 85991
es@@ 85819
request 85746
way. 85697
applicable 85644
remember 85561
this, 85524
C 85508
haven't 85507
too. 85228
water 85224
money 85218
started 84956
knows 84867
together 84659
co@@ 84584
her, 84560
us, 84462
price 84309
ro@@ 84182
is@@ 84180
granted 84173
idea 84146
air 84129
company 84037
evidence 84028
de@@ 83872
covered 83783
happened 83701
all. 83676
additional 83672
known 83560
reference 83543
energy 83531
intended 83504
needed 83444
either 83429
or@@ 83390
clear 83290
cases 83283
st@@ 83276
led 83115
technical 83026
though 82970
General 82949
increase 82871
7@@ 82849
man. 82579
current 82510
situation 82277
anyone 82230
you'd 81981
son 81828
due 81774
ly 81528
reason 81520
close 81469
that? 81358
EUR 81288
le@@ 81287
house 81250
be@@ 81249
lost 81069
one. 80708
type 80659
family 80620
May 80557
am@@ 80387
framework 80304
special 80280
blood 80107
se@@ 80066
thinking 79978
al. 79678
issue 79536
Subject: 79505
says 79504
soon 79428
New 79413
pretty 79322
makes 79035
Now, 78490
million 78439
submitted 78438
we've 78153
h@@ 78039
parties 77794
over@@ 77668
position 77650
include 77648
up, 77619
group 77604
himself 77558
years. 77555
j@@ 77455
What's 77402
state 77300
8@@ 77147
safety 76976
li@@ 76968
ac@@ 76783
girl 76737
he'd 76578
Answer 76532
ating 76429
seemed 76255
guys 76128
An 76078
front 76043
court 75831
result 75803
outside 75741
en 75598
u@@ 75570
age 75459
applied 75435
purpose 75378
goods 75296
procedures 75254
field 75202
local 75061
agreement 74961
decided 74958
hope 74703
saying 74629
cooperation 74577
ted 74543
exactly 74418
case, 74333
individual 74288
paid 74268
June 74143
Who 73641
di@@ 73544
You've 73460
half 73460
large 73406
final 73266
measure 73230
OJ 73211
ting 73165
EC 73056
Agreement 72982
legislation 72772
lo@@ 72740
Hey, 72704
guess 72544
test 72408
health 72298
provision 72125
Let's 72096
right. 72079
rest 72032
allow 71976
proceedings 71969
effects 71936
significant 71934
yet 71732
persons 71603
January 71546
private 71502
rate 71387
read 71254
run 71159
play 71085
out, 71084
Re@@ 71080
there, 71012
looks 70983
impact 70932
administrative 70773
principle 70726
Tell 70713
Even 70705
and/or 70690
ri@@ 70433
food 70399
al, 70356
cover 70217
,' 70196
results 70097
times 70077
w@@ 69767
ic@@ 69658
door 69580
Z@@ 69488
in, 69471
existing 69449
an, 69419
July 69384
quality 69342
im@@ 69255
mind 69212
among 69126
9@@ 69106
six 68938
Or 68909
th@@ 68906
telling 68713
an. 68621
U@@ 68546
plan 68351
day. 68257
whose 68248
In@@ 68244
dead 68229
turn 68167
payment 68054
friend 67951
rather 67939
again 67797
Official 67789
key 67755
terms 67754
as@@ 67689
ad@@ 67666
wish 67642
course 67609
11 67596
sorry 67581
areas 67422
Republic 67380
(see 67319
y? 67314
contested 67307
proposal 67267
United 67228
mother 67193
to@@ 66904
programme 66704
hours 66689
First 66588
met 66554
transport 66499
move 66298
entire 66225
Please 66133
moment 66133
away. 66045
well, 66034
fully 65900
basic 65871
ag@@ 65839
Y@@ 65827
k 65807
We'll 65673
night. 65544
ago. 65502
31 65447
here? 65314
lead 65092
ing@@ 65024
systems 65010
thus 64945
provides 64930
me@@ 64834
ers, 64755
effective 64710
(c) 64709
Of 64519
ers. 64409
hands 64322
personal 64284
e... 64265
received 64218
car 64208
members 64151
ship 64125
act 64103
couple 64090
responsible 64063
home. 63889
speak 63864
internal 63652
return 63634
process 63595
l 63586
points 63544
m 63493
living 63394
white 63201
active 63192
prices 63101
go. 63093
competition 63024
inside 62928
March 62675
Some 62640
Treaty 62533
something. 62409
ed@@ 62381
quite 62340
towards 62293
red 62236
companies 62165
We've 62070
future 62028
however, 62024
waiting 62020
place. 61962
Dr. 61958
directly 61889
investment 61888
seems 61848
continue 61793
hold 61586
Mar@@ 61563
send 61563
EN 61508
save 61468
e's 61419
documents 61219
higher 61181
answer 61000
Al@@ 60880
bit 60840
began 60831
a's 60739
children 60707
14 60665
cost 60653
increased 60573
e-@@ 60425
or, 60417
potential 60384
g 60380
objective 60255
tion. 60254
party 60246
proposed 60232
afraid 60230
ine 60168
mo@@ 60145
wrong 60041
black 60013
maximum 59925
ations 59870
purposes 59858
to. 59856
13 59838
1@@ 59828
scope 59821
Only 59619
takes 59579
ab@@ 59568
past 59564
nice 59554
10@@ 59552
everyone 59509
down. 59461
18 59435
kept 59424
thing. 59384
comes 59274
25 59228
implementing 59219
po@@ 59101
ant 59081
0@@ 58937
(a) 58873
actions 58784
meeting 58754
man, 58702
limited 58667
direct 58619
land 58461
October 58382
n 58354
Have 58351
sound 58332
dose 58309
defined 58230
section 58194
meaning 58163
review 58097
way, 58095
unless 58000
heart 57977
50 57871
sector 57805
share 57690
wife 57654
context 57588
imports 57568
minutes 57484
criteria 57470
y's 57431
sh@@ 57291
Commission, 57256
let's 57247
research 57190
St@@ 57021
changes 56933
work. 56927
government 56867
similar 56829
Those 56820
no, 56808
word 56776
x 56774
job 56707
entry 56616
reasons 56591
again, 56573
gets 56540
tion, 56526
nature 56458
ready 56333
wait 56286
God 56252
moved 56165
sp@@ 56160
16 56145
objectives 56133
k. 55938
Journal 55923
gone 55922
us@@ 55885
out@@ 55876
id@@ 55707
expected 55676
world. 55662
all, 55643
fishing 55637
trust 55627
credit 55599
this? 55593
various 55588
1, 55558
States. 55470
check 55461
regional 55460
le 55439
ates 55435
specified 55428
cut 55366
women 55359
Come 55346
s) 55339
low 55326
chance 55080
forward 55055
normal 55020
somebody 54975
say, 54965
Mrs. 54960
ing? 54914
April 54860
Since 54824
carry 54801
later 54784
please 54731
supply 54645
training 54642
II 54624
undertakings 54605
From 54572
house. 54518
Our 54514
ol@@ 54509
included 54500
compliance 54488
amended 54486
establish 54483
[@@ 54439
okay? 54364
According 54361
Regulation. 54266
24 54147
along 54143
protect 54142
prior 54140
pro@@ 54131
s: 54067
fight 54056
listed 53908
deal 53866
resources 53813
September 53789
Her 53775
running 53759
es? 53748
natural 53678
opinion 53666
19@@ 53562
people. 53544
stood 53471
obligations 53360
interested 53322
relation 53230
feeling 53223
decisions 53104
serious 53061
friends 53046
monitoring 52977
le. 52965
November 52840
minimum 52758
sufficient 52674
allowed 52609
well. 52593
capital 52579
er's 52515
particularly 52489
s! 52489
States, 52465
20@@ 52459
p 52459
day, 52447
thank 52375
seem 52365
bodies 52353
tion 52340
Ar@@ 52307
except 52256
capacity 52193
ous 52168
ter 52128
room. 52109
contract 52091
ul@@ 52048
environmental 52027
$@@ 51957
who's 51924
wanna 51905
years, 51819
fall 51761
file 51739
major 51716
annual 51682
assistance 51640
police 51586
issued 51558
k, 51482
17 51427
obligation 51414
export 51395
il@@ 51317
reached 51274
ha@@ 51263
Let 51243
consider 51212
him? 51208
problem 51165
ur@@ 51090
ground 51071
customs 51067
12@@ 51005
om@@ 50959
ap@@ 50932
con@@ 50878
bo@@ 50864
institutions 50799
levels 50773
projects 50759
Such 50748
benefit 50690
opened 50685
address 50510
ten 50443
exchange 50319
whatever 50295
holding 50267
sub@@ 50212
likely 50187
ar 50060
ne@@ 50038
go@@ 50016
ons 49994
addition, 49808
anything. 49799
walk 49663
hand, 49638
determined 49635
s; 49552
An@@ 49533
agreed 49484
animal 49483
overall 49452
giving 49438
comply 49434
You'll 49422
em@@ 49388
op@@ 49373
shot 49335
b 49287
political 49276
stand 49258
contact 49248
activity 49231
course, 49219
particular, 49163
died 49152
you... 49093
finally 49061
walked 49013
back, 48957
principles 48942
lower 48934
ings 48931
Any 48896
often 48829
event 48790
(EU) 48779
Mr 48774
investigation 48763
budget 48747
questions 48669
letter 48636
duty 48626
d, 48564
operation 48504
death 48496
y... 48472
school 48447
Thank 48436
myself 48324
office 48281
' 48235
project 48205
authorisation 48197
ir@@ 48197
mentioned 48172
Which 48077
nor 48001
require 47958
role 47922
Other 47901
figure 47893
scheme 47848
completely 47845
B 47820
regulation 47816
together. 47811
hit 47780
enter 47758
Car@@ 47745
remain 47725
2006 47660
are. 47651
he@@ 47651
table 47611
ran 47604
o. 47584
13@@ 47561
2, 47538
clearly 47506
good. 47500
Like 47479
no@@ 47423
then, 47417
regarding 47405
doctor 47398
industry 47354
ability 47352
year. 47309
document 47297
yourself 47296
study 47028
sat 47026
stopped 47004
sorry, 46971
beyond 46954
animals 46903
possibility 46903
added 46896
true 46894
programmes 46888
voice 46865
expenditure 46842
beautiful 46841
Con@@ 46831
analysis 46807
d. 46793
pe@@ 46783
Europe 46772
create 46732
prevent 46709
fire 46700
raised 46684
E 46672
Moreover, 46669
Furthermore, 46642
ent 46541
goes 46486
.' 46458
below 46324
so@@ 46294
S 46259
si@@ 46259
entered 46244
21 46222
18@@ 46215
] 46199
concluded 46184
judgment 46165
ts, 46136
D 46116
essential 46111
dark 46076
aren't 46025
pre@@ 45995
involved 45976
standards 45951
especially 45943
more. 45861
Therefore, 45851
ic 45829
up@@ 45762
watch 45743
establishing 45635
staff 45580
bi@@ 45525
Joint 45506
limit 45489
toward 45471
ent@@ 45470
boy 45463
others 45458
ter@@ 45452
ed? 45446
written 45445
paragraphs 45326
standing 45324
child 45317
asking 45292
producers 45290
es... 45266
1.@@ 45261
official 45243
please. 45243
mark 45215
o, 45188
building 45073
do, 45073
do@@ 44975
submit 44933
material 44920
en, 44916
mg 44891
undertaking 44889
100 44881
or. 44870
t? 44858
treated 44840
market. 44838
sign 44837
phone 44812
transfer 44809
experience 44754
anymore. 44704
tions 44685
le, 44663
approved 44637
previous 44603
000 44584
requested 44548
Look 44528
sitting 44510
before. 44481
dead. 44455
lay 44454
sales 44446
ts. 44428
19 44378
one, 44374
associated 44368
P 44296
sense 44282
happy 44268
caused 44190
Co@@ 44153
adopt 44150
determine 44115
approach 44062
be. 44047
waste 44043
2010 44042
ho@@ 44042
ing... 44031
happen 43965
par@@ 43934
grant 43892
operating 43875
average 43844
seeing 43828
Two 43806
February 43800
God, 43796
near 43787
ly. 43753
followed 43733
itself 43707
reduction 43668
T 43659
contains 43627
x@@ 43619
greater 43557
worked 43526
became 43494
compared 43486
!" 43407
22 43406
authorised 43406
equipment 43372
ans 43360
complete 43344
weeks 43336
ain't 43323
risks 43244
2005 43234
hate 43157
man@@ 43154
Miss 43149
sort 43104
case. 43083
strong 43075
15@@ 43055
hurt 42984
agreements 42946
el 42932
reported 42924
inter@@ 42906
avoid 42887
marketing 42883
equal 42858
early 42834
performance 42746
fell 42703
lose 42698
infringement 42690
caught 42686
De@@ 42683
improve 42649
buy 42646
sir. 42645
2007 42591
16@@ 42530
head. 42517
Mo@@ 42493
com@@ 42449
although 42424
offer 42415
city 42408
containing 42401
employment 42377
sc@@ 42327
er? 42313
off. 42292
growth 42274
simply 42157
considers 42143
ago, 42122
tri@@ 42108
en. 42102
fixed 42098
'cause 42029
alone 42017
28 41983
top 41964
sit 41944
s' 41942
reach 41924
ec@@ 41870
decide 41864
member 41864
Would 41821
notified 41789
leaving 41783
showed 41740
standard 41715
night, 41708
17@@ 41676
circumstances 41658
qu@@ 41633
starting 41620
Board 41598
reports 41586
fine 41574
shown 41568
Regulation, 41554
ment 41515
fl@@ 41470
designed 41405
u 41296
"You 41280
territory 41269
(d) 41258
23 41256
EEA 41231
als 41218
cause 41213
14@@ 41149
on? 41133
ations. 41088
gas 41073
contribution 41056
2008 41051
son. 41021
Each 41010
te@@ 40970
rule 40968
guarantee 40948
funds 40910
X@@ 40908
types 40905
commercial 40893
amounts 40891
die 40886
domestic 40883
evaluation 40881
content 40869
today. 40847
me... 40843
meant 40805
mis@@ 40795
law, 40771
war 40750
insurance 40748
th 40720
parts 40711
agricultural 40678
so, 40650
2004 40632
see, 40623
de 40564
instruments 40547
difficult 40506
tr@@ 40487
road 40485
import 40473
days. 40458
aware 40434
short 40404
2011 40381
break 40370
car@@ 40331
changed 40330
?' 40305
bl@@ 40296
EESC 40262
money. 40254
Get 40242
kids 40227
able. 40225
Every 40164
financing 40151
acts 40136
shouldn't 40055
(2) 40029
ve@@ 40011
original 39944
inform 39926
attention 39912
Ch@@ 39904
Could 39896
step 39895
ex@@ 39886
spent 39880
regulatory 39870
ones 39834
d 39809
not, 39786
ks 39752
National 39731
claim 39725
else. 39720
requires 39672
adoption 39669
3, 39636
hundred 39605
Ro@@ 39594
2009 39541
French 39539
aim 39537
Financial 39424
applications 39380
but... 39378
Parties 39376
Before 39370
medical 39359
hi@@ 39333
follow 39326
words 39326
fact, 39293
lives 39283
providing 39156
claims 39067
problems 39067
2013 38994
eat 38937
too, 38907
brother 38897
Kingdom 38887
Bar@@ 38849
moving 38826
hell 38813
playing 38805
I, 38784
t's 38783
Di@@ 38752
down, 38752
ensuring 38698
vehicle 38698
processing 38688
um 38684
establishment 38672
law. 38648
2.@@ 38643
setting 38637
payments 38634
themselves 38631
4.@@ 38515
ance 38515
detailed 38488
connection 38430
knowledge 38416
studies 38414
global 38405
benefits 38384
civil 38345
ak@@ 38320
ge@@ 38294
reduce 38257
operations 38246
40 38242
placed 38208
27 38191
extent 38160
notice 38136
life, 38119
fi@@ 38106
space 38082
ated. 38024
ant@@ 38009
2012 37995
affect 37988
safe 37984
watching 37979
3.@@ 37965
drive 37956
weren't 37913
passed 37812
suddenly 37808
replaced 37802
range 37779
progress 37778
THE 37738
hadn't 37732
President 37707
See 37697
medicinal 37692
town 37642
end@@ 37637
Le@@ 37607
external 37572
not. 37571
face. 37533
to, 37506
2. 37486
statement 37466
c 37463
currently 37457
gr@@ 37452
forget 37448
published 37415
ni@@ 37403
for@@ 37401
are, 37384
ate. 37381
R 37346
created 37342
identified 37335
ate, 37309
interests 37308
concerned. 37307
informed 37281
br@@ 37272
bed 37236
produced 37217
king 37171
over. 37109
hour 37097
workers 37091
29 37081
assets 37081
and... 37028
age. 36997
described 36971
actual 36926
um@@ 36907
Th@@ 36899
Under 36897
mon@@ 36885
catch 36879
Be@@ 36828
charge 36817
ra@@ 36809
learn 36795
sometimes 36766
25@@ 36761
Authority 36735
achieve 36721
things. 36712
explain 36690
book 36678
network 36640
4, 36638
thinks 36635
3. 36630
prepared 36615
door. 36581
name. 36570
eyes. 36566
other. 36563
Bo@@ 36557
capable 36533
husband 36521
works 36475
method 36467
ally 36456
administration 36442
z 36441
substance 36417
like, 36415
ment, 36414
Take 36390
ver@@ 36372
policies 36356
worth 36304
e! 36261
initial 36200
cl@@ 36182
board 36143
accept 36108
weight 36091
size 36057
he'll 36054
Lo@@ 36049
touch 36030
whom 36028
Something 36013
immediately 35980
ed... 35963
professional 35950
issues 35863
write 35844
prove 35842
deep 35801
enable 35784
y-@@ 35773
late 35760
story 35759
about. 35749
markets 35748
electronic 35739
approval 35731
contracts 35717
re-@@ 35678
pick 35573
bank 35571
lack 35540
od@@ 35537
a? 35518
American 35511
system. 35496
Li@@ 35493
ling 35489
groups 35458
pl@@ 35435
min@@ 35417
year, 35417
continued 35379
stated 35369
reduced 35357
et@@ 35329
week 35327
separate 35306
grounds 35260
per@@ 35260
yet. 35250
alone. 35228
existence 35226
Commission. 35199
ch 35197
text 35174
bar@@ 35166
scientific 35159
usually 35103
Government 35097
indicated 35093
uh, 35084
"The 35076
relationship 35066
sleep 35065
Ex@@ 35043
se 35017
Un@@ 35016
operators 34980
parents 34975
selected 34952
ut@@ 34945
acting 34944
substances 34939
6.@@ 34905
arrangements 34858
Once 34856
examination 34855
Please, 34825
German 34758
ations, 34713
pulled 34706
finding 34705
place, 34699
values 34698
balance 34676
concerns 34675
example, 34655
contain 34638
glad 34638
carrying 34581
work@@ 34533
closed 34499
Section 34449
opportunity 34431
ment. 34429
movement 34418
While 34403
exercise 34358
ia 34340
beginning 34334
everything. 34331
loved 34323
returned 34320
communication 34313
and@@ 34300
funding 34284
did. 34269
fine. 34266
26 34264
Agency 34264
under@@ 34254
noted 34250
developed 34249
M 34203
30@@ 34192
Go 34167
est 34164
loss 34114
ity. 34063
resulting 34057
sorry. 34034
ment@@ 34025
ly, 34002
which, 33975
war@@ 33970
sing 33955
clinical 33932
difference 33932
myself. 33824
ber@@ 33763
pressure 33753
drawn 33750
month 33734
ought 33686
ou@@ 33685
registered 33684
tic@@ 33681
was, 33665
notification 33608
Will 33604
(1) 33588
property 33571
applicants 33558
concerned, 33523
receive 33504
work, 33476
foreign 33467
realized 33445
response 33367
are@@ 33356
(3) 33342
perhaps 33342
F 33338
solution 33337
mar@@ 33327
self-@@ 33321
man's 33271
presented 33263
condition 33190
importance 33187
feet 33185
5.@@ 33114
recommended 33113
go, 33106
organisations 33101
her? 33065
obtained 33052
Does 33051
reporting 33033
elements 33003
conduct 32993
rel@@ 32985
Good 32984
sounds 32944
rise 32900
linked 32886
plant 32870
duties 32853
Chapter 32839
central 32837
requirement 32833
imposed 32827
dad 32795
ative 32781
corresponding 32776
strange 32774
offered 32768
entity 32762
stuff 32757
team 32719
ill@@ 32701
learned 32679
tic 32672
can@@ 32662
ity, 32661
applies 32660
appropriate, 32627
ity 32607
En@@ 32581
none 32564
4. 32526
neither 32518
th. 32485
forms 32475
People 32439
watched 32422
family. 32403
Economic 32389
daughter 32387
equivalent 32372
easy 32368
calls 32362
5, 32350
conformity 32303
ter, 32288
More 32286
mi@@ 32282
morning 32276
they'll 32275
developing 32271
28@@ 32256
nothing. 32245
piece 32245
talked 32239
military 32226
gi@@ 32224
joint 32210
hand. 32197
develop 32194
Although 32185
managed 32184
Convention 32133
ph@@ 32093
failed 32067
sold 32063
n. 32061
participation 32038
powers 32037
absence 32021
t... 32014
Perhaps 31979
23@@ 31972
filled 31961
Ho@@ 31955
consideration 31930
hair 31921
practice 31900
inter 31896
car. 31890
me! 31861
operational 31844
fin@@ 31842
morning. 31838
origin 31838
I... 31837
implemented 31822
consumer 31794
we@@ 31766
recital 31757
target 31722
listen 31705
friend. 31680
do? 31672
nearly 31672
bear 31656
till 31638
appeal 31637
now? 31637
instead 31632
Party 31631
eye 31602
independent 31592
27@@ 31590
7.@@ 31589
lin@@ 31588
methods 31574
contribute 31537
sha@@ 31531
fe@@ 31524
...but 31515
environment 31506
Ms. 31501
amending 31493
pointed 31490
V 31489
secret 31477
code 31474
vehicles 31461
volume 31452
a... 31447
help. 31427
realize 31417
rec@@ 31416
expect 31404
observed 31393
applying 31382
better. 31379
wide 31376
throughout 31357
plans 31351
spend 31347
0 31341
ated, 31332
International 31298
am. 31293
question. 31293
shows 31282
Commission's 31235
remains 31218
opening 31215
much. 31210
materials 31205
handle 31198
follows 31183
eligible 31180
people, 31169
Directive. 31167
somewhere 31153
ness 31132
responsibility 31130
ors 31085
lived 31059
calling 31035
contained 31018
ted. 31017
she'd 30996
sustainable 30981
limits 30966
heading 30957
anybody 30923
t-@@ 30890
status 30884
ice 30868
Information 30849
ty 30831
there? 30829
vi@@ 30815
criminal 30814
on's 30814
via 30810
Part 30790
ways 30783
positive 30741
happens 30739
rates 30718
picked 30701
EC@@ 30689
focus 30672
computer 30671
efforts 30668
h 30656
friends. 30650
constitute 30643
fear 30598
mine. 30579
Ad@@ 30577
girls 30577
directive 30566
Uh, 30537
son, 30533
the@@ 30525
stage 30517
vessels 30478
ali@@ 30467
married 30440
eight 30422
source 30416
Mon@@ 30402
accounts 30379
certainly 30345
killing 30330
recent 30328
um, 30321
agree 30310
choose 30308
Union. 30307
24@@ 30298
concern 30292
ine, 30284
appear 30282
air@@ 30279
addition 30274
steps 30259
back@@ 30258
fish 30255
Someone 30241
State. 30232
seven 30214
Listen, 30211
ep@@ 30208
budgetary 30204
named 30191
away, 30182
conclusion 30155
Consequently, 30142
No. 30111
baby 30111
hand@@ 30099
60 30088
legislative 30087
fair 30085
gives 30061
sal@@ 30059
accepted 30052
sex 30051
damage 30038
himself. 30037
above, 30016
publication 30012
promote 29979
species 29959
matters 29952
regarded 29935
first, 29927
Nothing 29897
les 29857
str@@ 29856
es: 29851
advantage 29844
freedom 29842
draft 29837
affected 29830
for. 29829
El@@ 29786
join 29722
education 29706
search 29706
know? 29685
tor@@ 29669
girl. 29664
us? 29658
we'd 29650
Par@@ 29649
was. 29626
hearing 29611
it! 29609
proper 29608
signed 29608
broke 29605
falling 29563
implement 29544
arms 29533
interpretation 29523
fundamental 29495
subparagraph 29482
adequate 29480
OF 29439
age, 29434
as, 29428
tive 29427
ob@@ 29422
tonight. 29391
perfect 29363
Without 29341
Having 29328
ent, 29321
side. 29303
head@@ 29272
judicial 29254
sell 29254
assess 29250
failure 29224
August 29204
Everything 29204
an's 29191
Har@@ 29184
compensation 29153
missing 29140
citizens 29081
organisation 29081
_@@ 29056
die. 29053
ons. 29042
men@@ 29013
prejudice 29000
poor 28987
cold 28980
maintain 28948
ally, 28886
leading 28879
everybody 28873
No@@ 28862
ent. 28856
own. 28856
simple 28849
institution 28843
father. 28827
exceed 28802
ren@@ 28765
proposals 28753
ste@@ 28721
minutes. 28682
ish 28678
spoke 28671
enforcement 28661
first. 28655
done. 28641
message 28636
v 28632
Protocol 28622
physical 28621
yourself. 28619
net 28611
r 28593
achieved 28576
exporting 28566
efficient 28549
that... 28541
5. 28540
recognised 28538
lying 28494
able, 28489
au@@ 28473
draw 28471
2003 28466
wrong. 28454
error 28446
includes 28437
wearing 28437
body. 28434
tion@@ 28434
29@@ 28420
keeping 28418
house, 28416
Pro@@ 28396
home, 28379
es; 28373
Framework 28326
huge 28315
euro 28310
born 28272
promise 28265
Jack 28252
mind. 28198
thousand 28191
truth 28186
strategy 28180
base 28171
necessary, 28166
regular 28156
O 28153
Lord 28137
referring 28126
today 28124
III 28115
A. 28109
n, 28106
th, 28101
happened. 28093
built 28087
shoot 28074
labour 28071
terrible 28068
8, 28060
function 28049
6, 28044
ical 28025
latter 28025
increasing 28017
preliminary 28015
Germany 28010
broken 28008
fighting 28006
saved 27975
possible. 27969
her@@ 27961
hot 27953
news 27949
ator 27947
ton 27944
Justice 27935
registration 27917
bought 27916
az@@ 27905
Union, 27895
job. 27877
off@@ 27874
gun 27862
facts 27859
shall, 27840
supported 27777
level. 27752
ships 27749
Social 27727
Common 27710
State, 27709
long-term 27702
fucking 27699
nobody 27696
green 27693
language 27659
star@@ 27647
earlier 27643
ago 27635
ted, 27629
room, 27618
fo@@ 27616
liked 27614
want. 27606
throw 27605
term 27589
merely 27573
choice 27569
states 27527
introduced 27523
tests 27521
duration 27502
recovery 27485
presence 27481
market, 27455
Captain 27453
blue 27445
Three 27439
be, 27418
1/@@ 27411
calculated 27400
certificate 27353
straight 27351
worry 27345
ation@@ 27343
technology 27338
ordered 27335
moment, 27333
appears 27328
gone. 27323
income 27321
mat@@ 27297
say. 27283
significantly 27277
...I 27260
former 27244
death. 27242
debt 27241
Actually, 27240
cre@@ 27237
months. 27233
G 27227
ve. 27226
pain 27223
thing, 27223
ter. 27222
names 27212
growing 27204
drink 27200
combination 27192
consumption 27173
.. 27161
lie 27154
trouble 27136
26@@ 27132
00@@ 27124
protected 27124
cash 27097
end, 27097
quantity 27086
Chinese 27063
helped 27059
provisional 27046
onto 27040
appeared 27035
oil 27030
distribution 27026
Most 27010
uses 26999
decision, 26988
committed 26983
cell 26977
demand 26976
game 26971
producer 26961
middle 26943
oral 26943
quantities 26943
so. 26934
checks 26930
object 26919
factors 26904
structure 26900
world, 26898
se, 26895
hours. 26890
". 26874
men. 26873
quickly 26840
expressed 26826
US 26803
ke@@ 26803
cases, 26796
(C@@ 26782
option 26780
Programme 26775
st, 26741
ari@@ 26722
But, 26714
transactions 26702
link 26697
ud@@ 26689
decision. 26685
temporary 26683
declaration 26678
7, 26666
..@@ 26663
record 26663
VAT 26655
2014 26640
EC, 26631
ang@@ 26622
sl@@ 26620
numbers 26607
destroy 26587
examine 26577
y! 26570
Dis@@ 26569
all@@ 26561
Their 26547
negative 26545
it'll 26544
Mc@@ 26533
fresh 26522
ence 26519
infrastructure 26516
ons, 26502
MS 26496
ati@@ 26487
forced 26478
ell@@ 26477
mor@@ 26476
characteristics 26465
they'd 26458
John 26452
planning 26423
shut 26422
murder 26416
ley 26405
skin 26363
ise 26362
totally 26352
(e) 26347
entities 26324
country. 26317
originating 26270
ously 26270
hoping 26268
proof 26251
feed 26244
period. 26238
ally. 26237
examined 26232
indicate 26214
information. 26194
boys 26185
Office 26184
obtain 26176
el. 26175
connected 26149
representative 26128
oc@@ 26117
wall 26110
what? 26092
efficiency 26078
planned 26067
society 26052
functioning 26039
unit 26028
they've 26023
rid 26021
raise 26002
majority 25998
et 25997
water. 25972
otherwise 25963
Security 25958
sea 25958
glass 25957
ship. 25927
events 25887
imagine 25880
confirmed 25873
ad 25831
consistent 25827
users 25806
dangerous 25792
build 25791
...to 25788
pull 25766
travel 25766
countries. 25764
window 25759
ch, 25739
Law 25718
identify 25717
is... 25716
)@@ 25671
miss 25671
receiving 25670
mom 25668
worried 25632
class 25619
emissions 25610
degree 25606
Appropriations 25605
IN@@ 25588
driving 25582
ci@@ 25572
economy 25568
f 25564
amendments 25537
"What 25525
follows: 25519
Was 25518
left. 25497
--@@ 25494
reasonable 25494
doubt 25492
model 25484
assessed 25482
Jo@@ 25475
tasks 25446
version 25439
stared 25425
writing 25424
adverse 25420
ance. 25407
yes, 25404
ist 25399
ended 25398
ge 25387
cur@@ 25384
se. 25375
ered 25358
um. 25353
problem. 25346
ding 25345
selection 25337
okay. 25329
Tr@@ 25326
instrument 25321
pass 25301
ess@@ 25294
ot@@ 25291
later, 25278
plea 25276
occurred 25273
attack 25269
something, 25256
King 25249
For@@ 25230
res@@ 25212
one's 25199
Ne@@ 25186
ten@@ 25177
with. 25152
ch. 25144
formal 25138
arm 25130
herself 25120
exposure 25119
Italian 25112
details 25075
tomorrow. 25075
storage 25034
gu@@ 25027
Cor@@ 25026
40@@ 25020
information, 25020
addressed 25006
paper 24988
generally 24986
meat 24986
invited 24985
ru@@ 24985
clo@@ 24966
box 24963
of@@ 24949
asked. 24943
90 24935
enough. 24926
definitely 24917
kid 24911
stupid 24906
Here 24904
laws 24857
nuclear 24851
ble 24850
school. 24850
N 24849
article 24845
practices 24839
est@@ 24829
facilitate 24828
wonder 24813
patient 24787
tions, 24781
ev@@ 24771
ings. 24767
sale 24765
Sometimes 24763
notes 24750
s." 24733
release 24723
alive. 24699
suppose 24686
Sh@@ 24678
maintenance 24650
Se@@ 24640
device 24630
ly@@ 24615
ine. 24600
remained 24596
Czech 24594
together, 24588
m. 24563
industrial 24548
Br@@ 24544
morning, 24543
extended 24520
dr@@ 24518
user 24508
note 24504
gre@@ 24502
so... 24497
love. 24494
2/@@ 24485
knowing 24475
regions 24475
putting 24464
st. 24456
ous. 24448
it... 24440
operator 24432
effectiveness 24428
can. 24427
serve 24422
ori@@ 24412
believed 24387
population 24383
located 24379
(4) 24378
During 24377
char@@ 24345
miles 24342
week. 24341
dec@@ 24340
50@@ 24339
hasn't 24337
stone 24303
controls 24301
crazy 24287
's. 24282
ful 24273
reading 24268
just... 24267
then. 24267
ay@@ 24258
brain 24251
ES@@ 24246
el, 24242
circumstances, 24237
re. 24205
town. 24193
9, 24176
ds 24168
notify 24154
them? 24147
explained 24131
spread 24122
woman. 24107
days, 24104
land@@ 24104
0.@@ 24055
aspects 24050
Or@@ 24043
I. 24029
mouth 24028
Action 24021
is? 24021
os 24019
played 24019
compatible 23998
sed 23996
history 23992
definition 23990
sk@@ 23970
regulations 23945
ous, 23931
office. 23910
bet 23894
consultation 23886
helping 23883
remaining 23859
fast 23850
ments 23841
ff@@ 23829
sw@@ 23827
pi@@ 23819
example 23816
arguments 23811
officer 23798
audit 23796
Central 23782
services, 23776
determining 23772
ve 23767
Agreement. 23756
guy. 23754
primary 23737
s). 23732
train 23721
bro@@ 23715
ked 23711
disease 23694
laying 23694
ide@@ 23689
heavy 23679
bringing 23662
sa@@ 23657
clean 23647
Po@@ 23641
glanced 23637
inspection 23631
3/@@ 23627
services. 23623
unable 23618
dropped 23616
series 23614
Can't 23611
consumers 23605
IS@@ 23599
mainly 23593
concentration 23585
); 23568
as. 23558
may, 23548
sectors 23547
sto@@ 23534
site 23531
system, 23530
produce 23525
walking 23517
wind 23517
visit 23515
tions. 23503
60@@ 23502
add 23498
border 23495
tells 23481
ant. 23471
restructuring 23440
6. 23435
discovered 23413
beside 23403
bu@@ 23403
electricity 23403
recommendations 23399
sample 23395
fulfil 23390
daily 23378
end. 23368
ear@@ 23363
]. 23360
manner 23360
later. 23354
"? 23351
win 23347
business. 23332
Management 23319
page 23319
traffic 23305
'I 23301
8/@@ 23301
We@@ 23295
supporting 23270
older 23258
subsequent 23252
behalf 23236
comments 23230
Fund 23224
drop 23209
category 23198
har@@ 23182
milk 23170
powerful 23160
pen@@ 23142
countries, 23139
ings, 23133
Another 23116
categories 23107
led. 23107
good, 23105
flight 23099
Mor@@ 23088
re, 23086
willing 23073
highly 23062
sets 23054
testing 23042
design 23036
Bank 23012
bur@@ 23003
ar, 22968
wife. 22960
sun 22953
paying 22937
lines 22936
fore@@ 22935
Rules 22930
gotten 22926
Sha@@ 22925
wear 22924
granting 22912
declared 22893
performed 22874
Inter@@ 22871
thought. 22866
signs 22860
AR@@ 22853
crisis 22846
slowly 22844
eyes, 22837
stepped 22837
valid 22834
costs. 22833
estimated 22830
measures, 22828
worse 22826
seek 22825
ary 22821
influence 22814
4/@@ 22806
commitments 22805
ters 22800
Give 22798
bas@@ 22797
la@@ 22780
floor 22770
investments 22767
Thanks 22765
red, 22751
ze 22748
alternative 22726
approximately 22724
bit@@ 22724
correct 22718
anyway. 22717
ke 22716
amendment 22713
question, 22712
...that 22706
hands. 22702
aimed 22689
shares 22679
claimed 22665
identification 22662
ties 22644
m, 22640
moment. 22619
head, 22617
recognition 22617
crime 22612
percentage 22599
contributions 22589
calculation 22586
you@@ 22585
And, 22580
8.@@ 22574
beat 22574
ard 22566
copy 22566
Directive, 22561
normally 22561
Finally, 22560
Sir, 22559
cross-border 22559
accounting 22553
finished 22541
priority 22539
ian 22534
(1@@ 22533
picture 22509
licence 22500
allows 22497
greatest 22486
ahead 22466
construction 22455
dog 22455
coordination 22451
fuel 22444
revenue 22439
no. 22430
improving 22397
mission 22393
use. 22388
A, 22384
promised 22384
pre-@@ 22372
minute 22359
er... 22355
AT@@ 22352
bed. 22350
conducted 22350
ring 22329
ies 22328
would've 22313
Bur@@ 22305
cap@@ 22289
ER@@ 22284
collection 22282
ure@@ 22280
ai@@ 22277
any@@ 22277
ok@@ 22271
damn 22269
speed 22259
res 22254
Do@@ 22245
surprised 22243
d? 22239
measures. 22230
Last 22226
su@@ 22226
vo@@ 22224
entitled 22220
es) 22209
dream 22200
7/@@ 22192
places 22191
Should 22183
noticed 22182
ning 22165
enjoy 22162
possibly 22157
hide 22155
half-@@ 22146
arm@@ 22134
side, 22103
ants 22092
Staff 22091
ve, 22088
Looks 22082
sources 22081
der 22070
surface 22064
memory 22058
fiscal 22057
drug 22051
fourth 22050
jurisdiction 22046
see. 22039
9/@@ 22033
children. 22026
mention 22008
av@@ 22007
aw@@ 22004
begin 21986
selling 21977
11@@ 21973
raw 21965
files 21963
34@@ 21951
Gu@@ 21945
mass 21931
competitive 21929
easily 21908
twice 21898
anti@@ 21897
cor@@ 21889
transferred 21883
So@@ 21881
ass@@ 21875
you! 21873
exception 21871
think. 21863
products, 21861
%@@ 21846
(EEC) 21828
reducing 21828
round 21828
Qu@@ 21817
cr@@ 21810
argument 21808
den@@ 21799
orders 21799
suitable 21798
Data 21794
sufficiently 21793
Gr@@ 21779
ry 21769
Ma@@ 21767
sun@@ 21754
red. 21737
zed 21736
completed 21729
you'il 21726
level, 21723
?! 21714
to... 21708
ast@@ 21704
latest 21704
tomorrow 21700
creation 21693
gotta 21682
justified 21675
wrote 21675
mutual 21673
35 21670
representatives 21670
Man@@ 21666
constitutes 21664
EC. 21659
press 21659
introduce 21636
area. 21631
records 21616
gl@@ 21613
meetings 21603
vessel 21599
shook 21584
differences 21580
500 21564
around. 21560
33@@ 21555
transmission 21554
possible, 21537
discuss 21529
Use 21516
hol@@ 21510
fix 21509
severe 21507
ses 21471
units 21464
a-@@ 21462
guidelines 21454
France 21446
World 21431
controlled 21429
2002 21423
mother. 21418
Per@@ 21415
down@@ 21411
ing! 21408
regard, 21402
dinner 21391
Com@@ 21389
table. 21388
assigned 21374
ality 21366
rac@@ 21355
on-@@ 21350
ages 21345
Group 21335
headed 21321
treat 21318
1999 21317
e: 21313
anything, 21302
yl@@ 21301
(e.g. 21272
promoting 21262
80 21252
GDP 21252
banks 21247
exemption 21246
chosen 21245
like. 21214
residence 21197
sugar 21196
Everyone 21185
person. 21183
Ab@@ 21172
ance, 21167
command 21163
"And 21161
loc@@ 21159
empty 21155
Pe@@ 21154
anti-@@ 21149
products. 21148
turning 21142
permit 21138
worst 21136
breach 21132
Isn't 21131
designated 21102
integration 21101
apparent 21099
enc@@ 21093
either. 21091
45 21068
Community, 21048
name, 21047
allocation 21043
track 21032
classified 21014
accompanied 21010
closer 21009
About 21002
ors, 21000
t! 21000
wor@@ 20995
effort 20988
id 20987
'Cause 20986
Go@@ 20979
on... 20977
flying 20967
Nobody 20964
port 20958
times. 20954
ary. 20947
ves 20941
Communication 20939
sister 20936
2006, 20932
198@@ 20930
region 20915
dispute 20909
integrated 20909
used. 20905
wine 20904
consequences 20894
package 20878
ancient 20875
late. 20870
yours. 20865
ordinary 20862
adjustment 20854
entirely 20851
ar. 20845
led, 20843
lies 20836
wi@@ 20829
EN@@ 20828
197@@ 20827
trans@@ 20823
(S@@ 20816
der@@ 20810
South 20796
ps 20787
emergency 20782
appreciate 20756
ite 20734
* 20728
obviously 20728
opportunities 20725
period, 20722
climate 20700
co-@@ 20700
charges 20693
idea. 20693
geographical 20683
22@@ 20679
He@@ 20667
location 20663
strength 20662
AC@@ 20655
feels 20655
humans 20642
forgot 20639
task 20634
Both 20630
requests 20630
incurred 20625
biggest 20624
but, 20622
Sorry, 20620
Du@@ 20612
checked 20612
threw 20611
despite 20606
run@@ 20599
perform 20589
well-@@ 20586
men, 20585
welcome 20581
remove 20570
died. 20568
ised 20563
w 20557
:@@ 20546
liability 20544
assume 20543
pension 20541
okay, 20538
ili@@ 20524
derogation 20518
boy. 20514
off, 20514
ed; 20501
...the 20499
h, 20498
resolution 20496
schemes 20486
injury 20484
gar@@ 20456
2000 20453
truly 20450
crew 20448
deemed 20445
respective 20433
locked 20427
following: 20423
200@@ 20406
distance 20405
finance 20396
great. 20387
introduction 20382
form@@ 20367
int@@ 20351
true. 20348
sought 20345
Stop 20336
advice 20320
prepare 20272
door, 20270
bul@@ 20253
mal@@ 20244
ors. 20242
absolutely 20224
8. 20219
2005, 20218
als. 20217
beneath 20213
monitor 20195
happening 20187
mad@@ 20183
fire@@ 20180
200 20179
interesting 20176
EU. 20172
point. 20165
ath@@ 20158
wake 20157
character 20149
please, 20146
slightly 20139
bound 20138
baby. 20131
refer 20129
today, 20121
thanks 20108
burden 20105
ser@@ 20105
Table 20092
2011) 20083
Instance 20083
als, 20072
sleeping 20072
child. 20048
ments. 20040
card 20038
IC@@ 20033
ous@@ 20033
before, 20009
Contracting 20008
removed 20008
ship, 20008
understood 20004
5/@@ 20003
recorded 20002
g. 20001
wal@@ 19998
fac@@ 19996
am, 19995
col@@ 19990
p, 19981
35@@ 19979
brother. 19971
Me@@ 19967
chemical 19963
substantial 19961
Su@@ 19950
rules. 19948
ven@@ 19946
point, 19939
alia, 19934
components 19928
af@@ 19922
High 19917
6/@@ 19916
Ri@@ 19915
sir, 19913
AN@@ 19911
dealing 19899
ned 19899
sen@@ 19899
agent 19891
Council, 19890
showing 19879
truth. 19871
ub@@ 19871
grand@@ 19866
other, 19862
anti-dumping 19856
Given 19847
sending 19844
Ver@@ 19829
come. 19828
2010, 19802
anc@@ 19790
Ac@@ 19788
officials 19760
Ed@@ 19753
lucky 19750
2004, 19745
secure 19738
grew 19728
System 19725
master 19722
carefully 19718
permanent 19717
ans. 19709
Te@@ 19708
medicine 19708
Bl@@ 19698
edge 19695
highest 19695
imp@@ 19689
e) 19688
attached 19677
Russian 19675
ach@@ 19668
lodged 19668
scared 19665
happen. 19653
leave. 19651
course. 19643
(E@@ 19642
Regulations 19629
innovation 19628
path 19609
ani@@ 19602
thereof, 19594
ches 19588
description 19587
Right 19586
Whatever 19582
money, 19581
participating 19580
represent 19555
finish 19547
delivered 19544
thought, 19539
structural 19530
body, 19528
ma@@ 19520
ind@@ 19517
procedure. 19515
items 19512
creating 19501
grow 19496
verification 19490
app@@ 19485
finds 19485
impossible 19485
post@@ 19480
supplied 19476
one-@@ 19471
others. 19471
weapons 19455
arrived 19447
rose 19444
che@@ 19442
s," 19441
future. 19440
sho@@ 19431
RE@@ 19430
at. 19425
"I'm 19421
restrictions 19419
findings 19416
Harry 19411
practical 19392
face, 19387
appropriations 19383
waited 19382
Je@@ 19381
ks, 19379
sts 19379
2007, 19378
Nor@@ 19369
things, 19369
Didn't 19363
reactions 19358
view, 19351
inside. 19350
32 19341
%. 19340
administered 19337
Excuse 19333
surveillance 19328
authorities, 19325
Lu@@ 19322
(5) 19309
fly 19307
Hel@@ 19304
extremely 19303
First, 19292
marry 19279
commitment 19271
don@@ 19266
committee 19265
drew 19264
i.e. 19259
machine 19256
48 19248
mine 19246
look, 19241
teach 19239
proceedings, 19238
shared 19218
governing 19214
ery 19213
du@@ 19207
2010) 19205
stick 19198
successful 19198
missed 19196
taught 19192
ref@@ 19185
aircraft 19182
sil@@ 19181
l. 19180
2009, 19167
hiding 19163
s-@@ 19163
hospital 19157
billion 19155
2008, 19150
flow 19150
hidden 19144
Development 19135
hang 19134
involving 19134
gold 19133
7. 19130
trac@@ 19121
mer@@ 19114
line. 19106
Paragraph 19083
smell 19079
case-law 19063
wh@@ 19055
gener@@ 19050
é@@ 19038
,000 19037
ine@@ 19029
double 19028
imported 19028
win@@ 19021
experts 19020
therefore, 19020
heart. 19018
hereby 19014
covering 19013
manufacturer 19013
nine 19002
father's 18983
partners 18981
Following 18963
w. 18957
water, 18950
Very 18945
ing-@@ 18935
uniform 18933
partner 18932
9.@@ 18923
Special 18904
reform 18900
believes 18881
friend, 18881
ig@@ 18867
admit 18864
namely 18861
periods 18860
over, 18858
touched 18850
COMMISSION 18849
ride 18842
Hol@@ 18838
staring 18838
36@@ 18835
2011, 18824
street 18823
blow 18810
He'd 18799
ay 18786
h. 18781
201@@ 18778
contrary 18778
pp@@ 18768
Fi@@ 18761
complex 18751
barely 18748
more, 18748
cultural 18737
mind, 18724
ents 18717
Accordingly, 18710
X 18704
Pr@@ 18697
allocated 18695
ol 18695
conclusions 18689
North 18684
ks. 18683
know@@ 18666
arising 18653
He'll 18651
tu@@ 18651
Si@@ 18648
image 18620
Netherlands 18614
at, 18610
ax@@ 18592
joined 18589
36 18585
wondering 18580
aid. 18579
dead, 18562
here@@ 18562
ant, 18561
proud 18558
have. 18556
fun 18555
will. 18527
did, 18523
in-@@ 18516
Report 18503
Wal@@ 18488
easier 18488
foot 18484
situations 18468
plan. 18462
tender 18453
land. 18449
39@@ 18436
9. 18430
army 18423
Annexes 18422
exist 18418
wonderful 18408
White 18405
count 18396
ker 18384
city. 18378
38@@ 18374
Until 18372
te 18367
ched 18361
Bi@@ 18356
Thus, 18353
37@@ 18349
Q@@ 18349
eli@@ 18347
sum 18342
yeah, 18338
es' 18335
ide 18330
/200@@ 18326
log@@ 18326
l, 18325
operate 18323
recently 18323
Community. 18313
music 18306
stock 18306
covers 18302
fields 18298
ash@@ 18280
Who's 18278
es! 18271
long. 18269
ruling 18264
interpreted 18260
To@@ 18255
de. 18249
expression 18249
equ@@ 18245
use, 18242
Earth 18230
remembered 18220
huh? 18217
intervention 18205
ip@@ 18200
Wil@@ 18196
/ 18192
Act 18188
EM@@ 18188
light. 18186
extension 18184
kids. 18169
guard 18164
ins 18155
seat 18150
Here's 18147
trading 18136
Great 18135
one@@ 18131
wood 18126
planet 18118
IV 18114
sub-@@ 18114
gro@@ 18110
aims 18106
stayed 18105
plan@@ 18103
figured 18092
award 18088
k? 18068
mental 18058
losing 18056
ments, 18056
plus 18054
encourage 18050
necessary. 18042
aged 18026
holder 18026
mechanism 18025
doing. 18023
ble@@ 18013
once. 18011
ina 18009
super@@ 18009
ators 18008
safe. 18008
tur@@ 18004
ty@@ 17997
boat 17994
Its 17990
of. 17980
ist@@ 17975
sure. 17975
complaint 17968
gg@@ 17958
bar 17955
cop@@ 17953
father, 17950
closely 17937
(the 17936
ish@@ 17931
ex 17926
ed: 17920
preparation 17919
story. 17919
2012, 17892
delivery 17885
length 17869
w, 17866
2004/@@ 17865
Market 17861
hum@@ 17858
enterprises 17857
por@@ 17849
dumping 17848
courts 17847
effectively 17843
ering 17835
stuck 17829
change. 17821
bon@@ 17820
exceeding 17819
ded 17818
purchase 17818
tal@@ 17811
fit 17807
learning 17806
sexual 17806
re 17804
please? 17802
dri@@ 17800
specifically 17782
contracting 17780
understanding 17752
factor 17749
tt@@ 17742
long, 17741
know... 17722
dated 17719
stri@@ 17717
action. 17707
plants 17705
useful 17695
what, 17692
fil@@ 17690
previously 17687
suggest 17686
wedding 17673
ann@@ 17671
K 17661
radio 17657
there@@ 17654
EE@@ 17649
,I 17641
peace 17638
harm 17632
position. 17628
licences 17624
comparable 17623
transaction 17622
1,@@ 17617
ties. 17613
uc@@ 17602
statistical 17600
look. 17599
o-@@ 17589
beneficiary 17572
gh@@ 17562
settled 17562
reply 17561
i, 17559
ness. 17557
sick 17555
de, 17538
changing 17530
al? 17528
perfectly 17515
though. 17513
hardly 17511
injection 17502
rich 17499
cal@@ 17481
forces 17476
post 17474
engine 17464
fied 17464
Code 17461
not@@ 17459
direction 17453
They've 17452
sky 17451
read@@ 17449
binding 17447
my@@ 17438
zz@@ 17435
war. 17427
answered 17425
ness, 17424
Star@@ 17420
st 17418
client 17409
AL@@ 17407
smaller 17405
element 17398
released 17395
See, 17394
combined 17394
air. 17388
Spanish 17384
solely 17382
item 17380
Agreement, 17378
fire. 17377
situation. 17376
thousands 17375
lady 17372
likes 17365
allowing 17361
turns 17357
alive 17354
d-@@ 17353
Fo@@ 17350
York 17350
immediate 17348
leaves 17346
God. 17343
e." 17327
traditional 17323
Public 17316
transparency 17302
represented 17300
Implementing 17289
manage 17289
Dar@@ 17287
relations 17279
Service 17274
properly 17272
customers 17271
whereas 17267
profit 17266
ence, 17263
escape 17259
top@@ 17253
2001 17251
Energy 17250
agents 17245
ary, 17243
ends 17243
of, 17243
& 17242
Aid 17242
inf@@ 17242
comparison 17241
classification 17239
participate 17230
x. 17227
firm 17224
ically 17222
dam@@ 17205
ana 17201
magic 17188
They'll 17187
alleged 17181
becomes 17177
tw@@ 17177
ground. 17169
ably 17168
val@@ 17145
larger 17130
leg@@ 17128
served 17127
enemy 17123
initiative 17122
eri@@ 17108
75 17102
ml 17095
bad. 17092
loan 17084
ely 17081
ic, 17078
evil 17070
pay@@ 17067
ans, 17059
%, 17052
therapy 17049
something? 17048
ving 17047
Mal@@ 17028
IT@@ 17027
negotiations 17021
10.@@ 17009
ster 17007
bigger 17004
und@@ 17004
blood. 17002
determination 17001
indication 17000
hotel 16997
while. 16996
Ber@@ 16990
37 16980
des@@ 16970
"We 16969
instance, 16953
33 16949
marks 16948
oper@@ 16946
carbon 16945
wondered 16945
lock 16943
English 16936
smile 16930
Col@@ 16928
battle 16924
Wh@@ 16923
China 16912
weeks. 16912
CO@@ 16911
procurement 16911
drove 16906
ars 16898
plane 16894
pushed 16888
hor@@ 16885
bri@@ 16877
submission 16872
Anyway, 16870
guarantees 16869
speaking 16867
promotion 16865
steel 16864
AD@@ 16856
devices 16855
"It 16854
procedure, 16847
demonstrate 16838
ship@@ 16827
process. 16824
asset 16823
for? 16822
Internet 16816
eating 16814
heat 16807
station 16801
tor 16795
legitimate 16794
2013, 16791
ie 16788
options 16788
expiry 16782
facilities 16781
cul@@ 16772
statements 16767
Mac@@ 16766
initiatives 16765
about? 16764
fingers 16763
Protection 16758
illegal 16745
advanced 16741
we'il 16741
ying 16740
falls 16739
"S@@ 16737
smiled 16736
a) 16728
ther@@ 16725
Sp@@ 16722
AS@@ 16721
b. 16716
cat@@ 16709
grown 16708
supervisory 16707
Spain 16705
medicines 16693
rock 16685
EU, 16683
ah 16680
Mag@@ 16678
competence 16675
hun@@ 16669
Cal@@ 16662
i. 16662
seconds 16662
CI@@ 16660
soldiers 16655
Never 16649
doing? 16644
phase 16644
(s) 16638
ECB 16636
store 16618
tools 16617
ler 16614
2) 16612
ising 16611
C. 16609
developments 16596
hour. 16596
video 16595
s/@@ 16592
il 16590
Mat@@ 16589
company. 16587
ah@@ 16583
IP 16578
cells 16576
assessing 16571
horse 16566
decrease 16559
observations 16559
program 16553
figures 16551
tiny 16549
advance 16534
host 16534
protecting 16523
sight 16520
tim@@ 16520
bottom 16512
Many 16511
sur@@ 16511
measured 16505
fat 16496
temperature 16492
War@@ 16483
Fin@@ 16482
parent 16479
ic. 16474
jo@@ 16471
extra 16464
verify 16464
staying 16463
losses 16459
Make 16444
(including 16440
Association 16438
lights 16433
comprehensive 16431
ics 16430
charged 16429
convinced 16420
control. 16415
Agent 16414
pat@@ 16411
ere@@ 16406
cross 16403
al-@@ 16400
y; 16400
acid 16395
challenges 16386
field. 16384
friends, 16381
ines 16375
power. 16375
00 16372
attempt 16370
Im@@ 16368
ner 16360
transitional 16356
er-@@ 16347
inclusion 16345
soon. 16339
here... 16338
H 16335
validity 16330
ble. 16325
EU@@ 16310
indeed 16309
gen@@ 16308
country, 16307
deliver 16303
ys@@ 16301
yes. 16300
submits 16288
rejected 16287
liable 16281
forever. 16278
for, 16259
broad 16258
mechanisms 16256
pan@@ 16255
day@@ 16250
Min@@ 16248
media 16248
sees 16248
calm 16241
old. 16240
1) 16238
loans 16234
], 16232
margin 16228
lives. 16225
collected 16223
load 16223
strengthen 16220
individuals 16219
authorities. 16204
g, 16204
Sam@@ 16199
"But 16197
art 16195
different. 16191
fisheries 16191
high-@@ 16184
another. 16176
gun@@ 16172
T-@@ 16171
proportion 16171
e," 16166
letters 16162
employees 16158
hel@@ 16153
owe 16151
proceedings. 16151
Trade 16144
Besides, 16142
won 16140
considering 16133
driver 16133
activities. 16132
34 16129
challenge 16128
Cl@@ 16112
supervision 16108
speci@@ 16106
appointed 16104
Kar@@ 16094
les. 16093
armed 16083
chair 16080
sing@@ 16079
server 16076
game. 16075
ale 16072
that@@ 16062
bio@@ 16061
saving 16059
yet, 16059
care@@ 16058
scale 16056
threat 16045
A.@@ 16044
indicators 16042
slow 16042
matter. 16037
0,@@ 16036
ending 16028
stuff. 16023
e; 16022
spending 16019
exceptional 16017
books 16012
Er@@ 16007
play@@ 16004
ball 16003
ard@@ 15997
coming. 15994
Remarks 15989
Appeal 15980
delay 15977
this... 15974
but@@ 15973
deficit 15972
procedural 15971
Communities 15970
respect, 15969
ens 15968
strategic 15960
ping 15959
fought 15944
taxation 15944
ver 15940
warm 15937
Internal 15936
family, 15933
38 15931
cha@@ 15930
Ti@@ 15927
(i) 15926
4) 15922
dry 15922
2010. 15921
Policy 15918
think, 15913
vote 15910
TV 15909
S. 15906
rely 15899
wild 15894
doors 15893
daughter. 15887
(in 15882
airport 15882
pain@@ 15877
depending 15864
specify 15861
technological 15859
bor@@ 15856
afford 15849
belong 15849
excuse 15849
passenger 15836
select 15833
ran@@ 15830
drawing 15827
Sub@@ 15822
communicate 15820
girl, 15819
Remember 15817
she'll 15809
spot 15804
conditions. 15788
ma 15787
Within 15785
Research 15781
agency 15777
Sorry 15767
going. 15763
car, 15762
Mi@@ 15760
data. 15759
party. 15759
se? 15759
lot. 15757
up? 15755
stole 15754
extend 15747
in? 15743
sor@@ 15743
ass 15741
database 15739
intention 15737
ade 15725
d's 15720
None 15716
statistics 15714
favorite 15699
satisfy 15696
struck 15696
ess 15695
suffered 15694
ble, 15693
UN@@ 15690
component 15690
occur 15687
multiple 15683
med@@ 15677
Somebody 15673
70 15672
becoming 15664
(f) 15662
formed 15662
Time 15660
rescue 15659
film 15657
ple@@ 15655
functions 15650
waters 15645
ber 15642
flu@@ 15637
d... 15633
familiar 15623
listening 15621
walls 15621
metal 15618
clothes 15601
bright 15600
Think 15598
preparing 15598
networks 15589
nationals 15588
floor. 15585
sec@@ 15577
organised 15572
date. 15571
Appendix 15567
weapon 15565
force. 15558
reflect 15558
(P@@ 15556
leaned 15556
months, 15556
difficulties 15549
sharing 15546
rural 15539
ash 15537
communicated 15534
much, 15533
conditions, 15525
acquired 15508
certificates 15500
ank@@ 15486
communications 15480
oni@@ 15477
43 15476
hu@@ 15475
assist 15470
mad 15470
Where's 15466
ay, 15451
Keep 15446
drinking 15446
refused 15439
(Text 15435
dying 15432
dat@@ 15426
understand. 15426
choice. 15419
ation? 15414
300 15410
depends 15410
obvious 15409
victim 15409
ate@@ 15402
Bel@@ 15401
forgive 15399
corner 15396
It'll 15395
pol@@ 15390
America 15388
Unless 15378
hole 15373
register 15367
): 15357
bus 15357
improvement 15357
appropriation 15352
Has 15350
leads 15347
s), 15347
Treaty. 15344
click 15342
destroyed 15339
ane 15337
quota 15333
tired 15333
hanging 15328
account. 15323
44@@ 15322
angry 15321
judge 15319
dialogue 15313
favour 15303
experienced 15299
wife, 15295
els 15287
sector. 15287
letting 15284
marked 15283
ill 15278
+ 15275
seeking 15268
ating. 15266
sn@@ 15266
met. 15262
(Article 15261
Customs 15258
regime 15258
Italy 15253
important. 15253
bed, 15244
heads 15241
book. 15236
thereby 15235
rules, 15233
Greek 15228
Be 15226
steal 15221
45@@ 15218
placing 15218
Ke@@ 15216
ANNEX 15215
replace 15215
ves, 15207
replied 15205
Number 15202
our@@ 15197
pack 15190
2003, 15189
match 15188
summer 15186
improved 15181
automatically 15175
stocks 15162
ye@@ 15160
processed 15159
expert 15156
alia 15142
event, 15133
son's 15133
sentence 15131
39 15126
ingly 15118
part, 15117
SA@@ 15116
smart 15104
ain@@ 15103
mel@@ 15096
C-@@ 15095
some@@ 15095
guidance 15088
symptoms 15078
Stay 15077
Am@@ 15071
le? 15070
prison 15069
passengers 15066
dumped 15064
cross-@@ 15061
fication 15058
exports 15057
woman, 15054
80@@ 15053
Mari@@ 15050
Her@@ 15047
amazing 15040
cas@@ 15040
skills 15036
2013. 15021
IP@@ 15021
ess, 15019
update 15011
sudden 15010
again? 15009
forgotten 15006
conversation 14981
modified 14980
famous 14973
cy@@ 14966
trouble. 14957
low@@ 14954
frequency 14950
stakeholders 14950
surprise 14947
systems. 14943
vis@@ 14943
pal@@ 14935
hy@@ 14931
Put 14928
Sal@@ 14921
express 14920
AP@@ 14918
victims 14918
break@@ 14915
micro@@ 14913
collective 14905
permitted 14900
starts 14900
ed! 14898
Next 14891
sleep. 14890
Welcome 14877
ca@@ 14869
propose 14869
less. 14864
anywhere 14863
forest 14861
or's 14856
amend 14851
outcome 14850
tariff 14848
radi@@ 14845
fallen 14835
fine, 14830
Y 14827
2007. 14826
borne 14824
Civil 14822
center 14811
instructions 14807
interim 14807
star 14803
affecting 14802
Technical 14801
fre@@ 14801
cro@@ 14793
beneficiaries 14787
Cas@@ 14786
Except 14784
God's 14784
wording 14779
2-@@ 14775
You'd 14773
crossed 14763
exact 14763
friend@@ 14763
technologies 14763
dance 14758
wall. 14756
loves 14754
pri@@ 14752
delegated 14749
excluded 14742
done, 14737
2009. 14736
legs 14730
cont@@ 14725
phone. 14722
healthy 14717
see@@ 14717
inc@@ 14715
U.S. 14713
anyone. 14711
Safety 14710
", 14705
ess. 14705
receipt 14705
Human 14701
Gar@@ 14684
qualified 14681
%1 14674
sin@@ 14674
ak 14672
think@@ 14672
suspension 14668
evening 14667
David 14666
smoke 14664
!' 14660
Euro@@ 14657
2001/@@ 14656
alone, 14656
AS 14655
Pl@@ 14647
quick 14647
relatively 14641
Mrs 14640
captain 14639
's, 14634
ty. 14629
considerable 14627
somehow 14625
notably 14623
say? 14622
ini@@ 14614
stability 14614
busy 14613
Air 14612
ns 14611
currency 14610
11.@@ 14597
critical 14594
trees 14594
define 14590
let@@ 14574
excessive 14571
2011. 14569
food. 14569
expenses 14568
words, 14567
2008. 14565
secondary 14561
sheet 14557
sm@@ 14540
Call 14538
Val@@ 14534
Del@@ 14526
pr@@ 14526
voice. 14521
kiss 14520
"It's 14518
fill 14516
Health 14515
air, 14515
bag 14511
itself. 14500
squ@@ 14500
flew 14495
about, 14492
keeps 14491
data, 14488
mixed 14488
around, 14483
sensitive 14482
quiet 14481
him@@ 14480
emission 14479
il. 14470
minutes, 14465
British 14460
coffee 14459
D. 14458
adjusted 14449
thr@@ 14443
justify 14441
Windows 14435
usual 14433
chief 14431
himself, 14430
disposal 14427
systems, 14426
warning 14425
ready. 14423
could've 14422
ase 14418
ure 14418
order. 14409
vic@@ 14404
treatment. 14397
Paul 14388
scene 14386
spirit 14366
veterinary 14364
withdrawal 14363
necessarily 14361
id, 14360
respond 14357
Richard 14356
2012. 14355
Case 14349
sweet 14348
person, 14344
taxable 14343
dar@@ 14342
undertaken 14342
ris@@ 14340
discrimination 14338
age@@ 14337
views 14337
mostly 14335
twenty 14329
Then, 14323
rap@@ 14323
targets 14322
renal 14310
earth 14303
maintained 14298
pleas@@ 14297
rep@@ 14289
ton@@ 14289
faced 14285
nodded 14285
closing 14282
om 14280
minute. 14278
marriage 14273
time? 14273
Indeed, 14269
hours, 14269
flag 14267
lots 14266
color 14264
Title 14255
available. 14253
ra 14252
demonstrated 14247
feet. 14245
sword 14242
aid, 14236
(2@@ 14232
buried 14229
job, 14227
mut@@ 14227
handling 14225
Sar@@ 14217
fees 14216
id. 14215
soft 14212
42 14208
wrong, 14207
fruit 14204
contractual 14201
subsequently 14194
ed-@@ 14192
suspect 14192
Yet 14186
killer 14185
%) 14183
law@@ 14183
settlement 14183
sol@@ 14177
(6) 14172
ting. 14168
Decision. 14164
essentially 14162
list. 14162
documentation 14160
k's 14158
ger 14157
harmonised 14139
partial 14137
relate 14134
however 14133
less, 14132
Dec@@ 14128
ex-@@ 14126
ory 14122
river 14120
coun@@ 14118
12.@@ 14115
87 14113
an? 14113
ric@@ 14113
out? 14109
trial 14106
officers 14097
relevance) 14097
prevention 14092
Ag@@ 14091
updated 14086
owner 14084
talk. 14078
van@@ 14077
ching 14073
2006. 14072
Mil@@ 14068
two, 14066
mere 14063
ological 14059
tors 14056
want, 14052
cool 14049
EL@@ 14043
owned 14040
issuing 14033
enhance 14028
facing 14026
incorporated 14025
danger 14023
feelings 14021
here's 14021
Christmas 14017
assumed 14011
itt@@ 14009
giant 14006
fired 14001
ped 13996
immediately. 13986
old, 13984
TFEU 13982
Sil@@ 13979
processes 13979
window. 13979
fuck 13973
plenty 13971
ur 13971
ds. 13969
produc@@ 13967
basis, 13962
bottle 13961
Rule 13953
identical 13950
same. 13949
Second 13941
enti@@ 13935
Pol@@ 13923
dozen 13918
arrest 13917
jobs 13917
involve 13912
(2), 13911
Luc@@ 13907
two. 13907
beg 13905
identity 13904
Federal 13899
community 13896
questions. 13896
ID@@ 13893
shape 13885
personnel 13883
studied 13881
faith 13879
ism 13871
-year-old 13868
upper 13864
Bri@@ 13863
ty, 13858
tree 13853
positions 13851
confirm 13850
thereof 13850
49 13849
OK, 13848
killed. 13845
left, 13845
prescribed 13844
supplies 13843
blame 13842
3) 13836
manufacturing 13835
precise 13832
saying, 13823
slept 13822
financed 13820
generation 13820
restriction 13818
here! 13816
post-@@ 13811
Red 13794
light, 13793
though, 13786
bunch 13785
legislation. 13779
guys. 13775
ently 13772
Sch@@ 13769
institutional 13769
House 13765
concept 13764
careful 13760
modern 13759
ys 13758
expecting 13757
2003/@@ 13756
by. 13752
lab@@ 13749
pretend 13748
crazy. 13739
lays 13733
engaged 13728
kid. 13728
yellow 13727
initiated 13721
P. 13719
soul 13715
opinion, 13713
Peter 13709
two-@@ 13708
Nevertheless, 13707
indirect 13704
honor 13702
word. 13696
B. 13695
Director 13695
managing 13691
brings 13690
handed 13687
refuse 13684
split 13682
lied 13681
II@@ 13672
obliged 13666
exclusive 13662
thoughts 13660
90@@ 13658
# 13649
times, 13644
hear@@ 13643
ful. 13634
song 13632
samples 13626
ational 13625
else, 13621
Jan@@ 13619
Plan 13619
chain 13618
block 13615
dressed 13615
Cam@@ 13613
clean@@ 13611
fund 13611
hal@@ 13611
students 13609
fault. 13605
burned 13600
was@@ 13600
Europe. 13578
apartment 13577
lat@@ 13577
Che@@ 13576
science 13570
Pi@@ 13569
ov@@ 13567
Regional 13566
whenever 13565
Lady 13564
convince 13564
Members 13558
tion? 13556
bal@@ 13554
accessible 13551
ne 13551
summary 13551
ky 13550
Anything 13547
burning 13547
impose 13542
err@@ 13527
concrete 13526
report. 13524
by, 13520
Old 13514
hung 13514
2009/@@ 13507
true, 13507
north 13505
conflict 13496
ard. 13492
"If 13487
primarily 13486
mobile 13483
multi@@ 13478
centre 13477
Cooperation 13471
cars 13467
...you 13464
burn 13459
95 13458
May@@ 13453
ay. 13447
ey@@ 13446
tre@@ 13445
prohibition 13444
85@@ 13443
indicates 13439
U 13437
restrictive 13437
night? 13426
en? 13424
pregnant 13407
remuneration 13407
George 13400
trip 13399
children, 13390
default 13386
West 13384
used, 13378
accession 13377
exclusively 13377
chose 13373
Rec@@ 13371
bilateral 13367
bridge 13362
ga@@ 13360
Vi@@ 13358
ster@@ 13352
variety 13351
achieving 13347
criterion 13341
ry@@ 13330
definitive 13329
ation; 13321
drugs 13321
features 13320
chance. 13315
foot@@ 13315
spo@@ 13310
gone, 13307
ox@@ 13307
ged 13301
EUROPEAN 13298
os@@ 13298
businesses 13293
ence. 13293
water@@ 13286
recognized 13281
sector, 13281
East 13277
Procedure 13276
him... 13276
196@@ 13272
Ah, 13271
action, 13271
book@@ 13270
week, 13269
way@@ 13268
open. 13262
= 13261
breaking 13259
costs, 13259
ang 13257
..." 13254
Show 13250
ens@@ 13248
(1), 13246
trained 13244
sad 13243
Amendment 13237
sounded 13236
bra@@ 13230
space. 13229
ms 13225
thereof. 13225
equity 13224
nic@@ 13218
priorities 13217
involvement 13211
back? 13210
display 13208
focused 13208
Mer@@ 13207
its. 13207
ds, 13206
strengthening 13203
point@@ 13198
x, 13197
checking 13191
2002/@@ 13183
compatibility 13183
smile. 13182
reason, 13171
2005. 13170
ta@@ 13170
lim@@ 13167
41 13159
Based 13154
tics 13150
My@@ 13149
ator@@ 13149
en's 13147
doing, 13140
gri@@ 13133
shooting 13128
Don@@ 13126
push 13125
shit 13125
5) 13124
divided 13123
Microsoft 13114
We'il 13113
participants 13108
red@@ 13105
online 13104
47@@ 13103
knife 13102
wind@@ 13097
female 13092
service. 13091
ME@@ 13088
suggested 13088
ation... 13086
conferred 13081
remind 13081
suspected 13080
agencies 13077
weird 13077
deadline 13075
restricted 13070
bother 13069
recognize 13069
increases 13068
luck 13066
revised 13066
call. 13056
core 13056
enough, 13055
na 13055
derived 13053
dy@@ 13052
hated 13047
Guidelines 13041
gain 13039
e.g. 13035
Court, 13034
largest 13029
plastic 13028
activities, 13027
tor. 13027
cri@@ 13026
doses 13024
okay 13023
fur@@ 13021
honest 13021
made. 13020
interest. 13012
annulment 13009
low-@@ 13007
noise 13004
ting, 13002
Ge@@ 13001
movie 13001
once, 13000
west 12999
raising 12998
Food 12995
Everybody 12994
y: 12993
Treaty, 12992
0, 12985
2002, 12984
school, 12981
tran@@ 12976
company, 12975
driven 12975
Five 12973
row 12967
2007) 12964
signal 12962
ta 12961
,... 12958
rolled 12956
SP@@ 12952
women. 12950
Father 12949
zing 12947
Third 12946
somewhere. 12938
mother, 12936
can, 12935
ya 12934
ing: 12932
profile 12931
product. 12929
weak 12929
group. 12927
bearing 12926
She@@ 12918
should've 12917
year@@ 12913
buildings 12910
regulated 12904
sign@@ 12904
competitiveness 12903
format 12903
Tor@@ 12899
liver 12899
bel@@ 12896
wing 12892
The@@ 12890
I-I 12889
pieces 12887
guy, 12879
cu@@ 12878
preceding 12863
king. 12859
machines 12858
route 12858
(for 12853
lan@@ 12852
agreement. 12850
na@@ 12844
guards 12843
principle, 12842
"How 12841
As@@ 12839
governance 12837
problems. 12829
mm 12826
repeated 12817
IR@@ 12816
ily 12811
47 12806
farmers 12805
outside. 12802
ute 12799
belongs 12798
brown 12797
Hor@@ 12796
y) 12795
y," 12794
aside 12791
b, 12789
basis. 12781
uni@@ 12780
organic 12774
65 12772
att@@ 12769
below. 12768
cour@@ 12767
les, 12766
banking 12763
ile 12763
deserve 12757
pilot 12754
ner@@ 12753
Services 12752
counter@@ 12750
Black 12748
Too 12743
investigation. 12743
seriously 12743
bone 12740
changed. 12732
searching 12731
fr@@ 12728
mother's 12725
time@@ 12720
murdered 12716
2020 12715
husband. 12713
trad@@ 12712
Pan@@ 12703
y." 12702
reaching 12699
birth 12696
yourself, 12695
City 12691
2005/@@ 12686
context, 12685
ances 12682
announced 12682
entering 12680
dic@@ 12668
lifted 12668
reaction 12662
Bre@@ 12661
ats 12656
tool 12652
zone 12651
area, 12650
us... 12649
number. 12648
land, 12645
Sure, 12641
Type 12638
Tur@@ 12636
programme. 12635
Four 12634
OR@@ 12634
prob@@ 12630
love, 12621
Sam 12614
ants. 12614
pres@@ 12614
88 12610
dinner. 12610
need. 12607
calendar 12605
favourable 12604
ome@@ 12604
say@@ 12601
above. 12599
dependent 12598
virus 12598
Yeah. 12594
duly 12593
mid@@ 12593
be? 12590
relative 12588
cooperate 12586
Tar@@ 12585
sharp 12584
digital 12582
offering 12582
transmitted 12576
underlying 12565
sole 12564
breath 12561
ties, 12556
map 12554
offers 12548
refers 12548
hom@@ 12546
cle@@ 12544
recitals 12543
tied 12543
tional 12543
in's 12542
firms 12541
ratio 12538
worse. 12538
million. 12532
confidence 12530
with, 12530
ture 12528
70@@ 12526
kin@@ 12526
myself, 12524
W 12522
bre@@ 12522
band 12514
wished 12513
ES 12511
through. 12507
reliable 12503
south 12503
invitation 12501
witness 12497
med 12492
die, 12490
defend 12489
fol@@ 12489
passing 12486
legislation, 12485
beautiful. 12480
Colonel 12473
innocent 12473
ss@@ 12473
website 12471
ure, 12470
conclude 12469
subjects 12469
Pal@@ 12468
silver 12467
apply. 12463
industry. 12461
stable 12459
Michael 12458
92/@@ 12456
alisation 12455
nice. 12455
100@@ 12454
relates 12454
2006/@@ 12446
limitation 12446
0/@@ 12444
ef@@ 12444
disappeared 12440
taxes 12433
...in 12430
stars 12429
answer. 12426
month. 12424
AM@@ 12423
second, 12422
hard. 12421
exposed 12420
thin 12418
Council. 12415
2008) 12414
resident 12409
will, 12409
Try 12406
solve 12404
pair 12402
regularly 12398
ating, 12396
fast. 12394
represents 12392
ot 12391
deb@@ 12390
God@@ 12388
dress 12387
team. 12385
og@@ 12381
right@@ 12381
person@@ 12380
swear 12377
44 12376
stronger 12375
motor 12374
defence 12373
shot. 12372
2004. 12370
spoken 12369
Dev@@ 12368
relied 12360
del@@ 12356
., 12355
stop. 12355
lists 12353
man? 12349
pur@@ 12349
tough 12346
hop@@ 12342
situation, 12342
application. 12340
ously. 12340
execution 12339
stand@@ 12338
ver. 12336
race 12333
Wait, 12328
night@@ 12325
stories 12324
sit@@ 12322
satisfied 12318
Bu@@ 12316
ging 12316
not? 12313
principal 12312
articles 12311
rare 12310
accident 12306
or... 12303
train@@ 12303
fro@@ 12302
Ireland 12301
ele@@ 12301
ard, 12293
199@@ 12291
Legal 12287
Juli@@ 12286
gathered 12286
leader 12284
tested 12283
Minister 12282
hired 12281
Well 12277
fle@@ 12277
EU-@@ 12275
in' 12275
Yes. 12271
Far@@ 12270
EU's 12268
ir 12268
Pri@@ 12264
Though 12262
atic 12262
black@@ 12261
van 12258
yours 12256
wore 12253
6) 12249
pleasure 12246
seen. 12246
sion 12246
le-@@ 12245
one? 12242
help, 12237
tab@@ 12237
transparent 12235
sides 12228
stored 12227
spare 12222
hundreds 12219
mean@@ 12203
f. 12198
dear 12196
anger 12195
pleased 12194
producing 12194
Ki@@ 12185
mistake 12182
maritime 12175
Thanks, 12171
rest@@ 12171
list@@ 12170
says, 12170
presentation 12167
dro@@ 12156
invite 12154
representing 12152
reflected 12147
Bor@@ 12145
Second, 12139
ever. 12138
James 12135
regulation, 12134
Gi@@ 12133
direc@@ 12130
sure, 12127
absolute 12124
silent 12124
comfortable 12121
poly@@ 12121
applicable, 12115
Were 12113
lif@@ 12111
past@@ 12110
association 12109
sti@@ 12105
le... 12104
hoped 12102
environment. 12100
rising 12100
need@@ 12099
insufficient 12094
exported 12091
reason. 12087
soil 12087
fic@@ 12085
solid 12078
Control 12077
birds 12077
truth, 12074
survive 12072
Parliament, 12071
automatic 12068
Rights 12063
ke, 12059
ret@@ 12059
happy. 12058
uh... 12058
What, 12057
blood@@ 12055
ters. 12054
acquisition 12051
equally 12047
protection. 12045
faster 12043
boy, 12042
IT 12041
aff@@ 12037
then? 12037
minor 12036
tically 12034
Over 12033
mil@@ 12030
world's 12026
retail 12024
ish, 12023
hydro@@ 12020
building. 12018
hon@@ 12017
Probably 12015
son@@ 12013
46 12010
journey 12009
decreased 11999
San 11992
table, 11992
prefer 11989
5% 11986
1999, 11978
business, 11975
21@@ 11973
ram@@ 11971
EP@@ 11970
died, 11969
il, 11968
RO@@ 11961
AL 11954
gentlemen, 11954
ka 11954
pictures 11951
parking 11948
Ni@@ 11947
Mary 11946
-up 11944
replied. 11943
president 11942
32@@ 11940
input 11939
amp@@ 11934
guaranteed 11934
tic, 11933
Cre@@ 11928
success 11928
hands, 11927
desk 11926
kitchen 11923
career 11922
sectoral 11917
disclosure 11913
solutions 11913
continuous 11909
governed 11907
pass@@ 11907
corporate 11903
ick@@ 11898
requiring 11898
them@@ 11895
bank@@ 11894
ator. 11892
Joe 11888
someone. 11885
already. 11884
pon@@ 11882
tering 11882
doubts 11880
supplementary 11877
have, 11875
ful, 11871
path@@ 11862
Non-@@ 11857
mobility 11857
!@@ 11856
Open 11856
le's 11855
links 11855
application, 11853
sampling 11850
date, 11849
46@@ 11847
proved 11847
envisaged 11845
hard@@ 11842
pin@@ 11842
tonight, 11842
Authorities 11836
house@@ 11836
stolen 11836
competition. 11829
Strategy 11828
initi@@ 11826
specifications 11826
plasma 11824
yesterday. 11822
Thought 11820
Sa@@ 11819
IM@@ 11818
protective 11818
question@@ 11817
mandatory 11814
darkness 11810
availability 11807
thing@@ 11806
pul@@ 11805
opposite 11800
younger 11800
apparently 11798
(ii) 11795
gift 11792
Name 11789
funny 11784
EN.0100@@ 11781
supports 11781
indic@@ 11779
death, 11773
grants 11772
themselves. 11767
Mel@@ 11760
Germany, 11755
legally 11755
Lisbon 11751
awarded 11751
ation: 11747
hospital. 11747
wishes 11734
screen 11732
heav@@ 11731
Schengen 11724
ask@@ 11723
Hal@@ 11722
policy. 11722
CC@@ 11721
faces 11719
.... 11715
vision 11713
2008/@@ 11708
ents, 11708
iron 11705
completion 11704
plan, 11702
1/200@@ 11701
Bas@@ 11701
mistake. 11699
lawyer 11698
sav@@ 11696
background 11693
ace 11692
Tri@@ 11684
key. 11683
ved 11679
ger@@ 11678
cast 11676
him! 11674
with@@ 11674
Leave 11671
doctor. 11666
mark@@ 11665
silence 11662
ones. 11659
others, 11657
taste 11656
ants, 11653
board. 11649
town, 11648
Em@@ 11645
best. 11636
creature 11635
gate 11634
intend 11632
La@@ 11626
add@@ 11622
television 11622
while, 11622
chi@@ 11621
its, 11618
securities 11617
pain. 11615
farm 11612
pressed 11603
ord@@ 11599
Big 11594
by@@ 11591
aries 11589
55 11587
island 11586
"That's 11585
0. 11584
tic. 11582
shi@@ 11580
Working 11576
ton. 11575
IS 11569
rail 11569
Ir@@ 11567
rapidly 11566
words. 11565
attacked 11564
excellent 11562
installation 11562
exists 11560
treat@@ 11555
TR@@ 11554
Ko@@ 11552
fun. 11552
,and 11549
ters, 11549
(1)@@ 11547
jump 11547
dollars 11546
comp@@ 11542
consists 11539
Bon@@ 11536
ast 11536
was... 11536
brother, 11531
continues 11529
instance 11527
+@@ 11523
precisely 11523
dare 11513
don't. 11506
56 11505
care. 11505
labelling 11502
Den@@ 11501
51 11497
recalled 11493
rum@@ 11492
flo@@ 11488
office, 11488
rolling 11485
fight. 11483
visible 11483
dogs 11482
rights, 11481
ban@@ 11480
nervous 11480
liber@@ 11478
CN 11476
maintaining 11475
begun 11474
launched 11474
que 11473
narrow 11467
Queen 11463
live. 11463
responsibilities 11463
visa 11463
court. 11461
Ministry 11458
efficacy 11457
Ben@@ 11456
ily. 11456
incompatible 11453
clearance 11451
band@@ 11450
tro@@ 11444
Directives 11442
ong@@ 11440
asks 11439
stor@@ 11438
CR@@ 11434
voluntary 11434
innovative 11433
crucial 11431
Access 11428
name? 11428
boo@@ 11424
Despite 11423
slipped 11423
ground, 11422
ell 11421
real. 11421
bs 11419
res. 11416
people's 11410
hur@@ 11408
C, 11407
found. 11407
inform@@ 11407
woke 11407
Annual 11406
abovementioned 11403
road. 11400
cut@@ 11399
ai 11398
Str@@ 11396
tan@@ 11395
grabbed 11391
preventing 11390
discussed 11384
laboratory 11384
lovely 11384
friendly 11380
rain 11380
issue. 11371
pa@@ 11371
tonight 11370
rejected. 11369
fifth 11366
providers 11360
ability, 11357
Assessment 11354
he? 11347
bling 11344
Mur@@ 11342
ia, 11342
2015 11341
I-@@ 11340
flat 11338
co-operation 11336
DG 11332
Master 11329
ongoing 11322
runs 11322
suffering 11322
detail 11320
ff 11319
officially 11315
B, 11312
settle 11312
week@@ 11312
Uncle 11307
meters 11305
neck 11303
ki@@ 11301
unique 11300
cycle 11299
Mark 11296
ies. 11296
ourselves 11295
non@@ 11292
Tom 11290
per, 11289
...? 11284
church 11284
ity@@ 11282
led@@ 11281
recovered 11280
languages 11279
~ 11279
hair@@ 11276
Green 11274
farm@@ 11273
Payments 11271
hair. 11270
ing's 11268
certification 11267
go? 11265
dreams 11264
ben@@ 11263
Tom@@ 11261
position, 11259
meeting. 11258
argued 11254
equipped 11254
Executive 11250
certainty 11250
tical 11249
to? 11240
test. 11239
tonnes 11239
boss 11238
increasingly 11236
quarter 11234
justice 11233
ves. 11229
threshold 11225
sections 11224
areas. 11223
cancer 11217
2001, 11216
evening. 11215
manager 11213
hat@@ 11210
MS@@ 11209
guys, 11207
z, 11206
male 11205
Competent 11204
desire 11204
accordingly. 11203
lets 11203
xi@@ 11201
ers' 11196
rights. 11195
long@@ 11193
Ser@@ 11187
everything, 11186
Patients 11182
Either 11180
pic@@ 11179
Hy@@ 11173
appeal, 11173
bun@@ 11172
cho@@ 11172
regulation. 11172
effect. 11167
unknown 11167
climbed 11166
Cha@@ 11164
combat 11159
Say 11154
measurement 11153
considerations 11152
52 11151
court, 11150
expressly 11150
allowances 11149
move. 11149
parameters 11145
regardless 11141
yet? 11139
output 11134
railway 11133
renewable 11125
Several 11123
installed 11121
Ben 11119
UN 11118
record@@ 11115
intelligence 11111
adult 11107
cutting 11107
replacement 11107
Decision, 11103
Indian 11101
Web 11093
sy@@ 11088
fu@@ 11084
enabling 11081
ws 11081
murder. 11080
box. 11077
nothing, 11077
blind 11076
ed) 11072
Mad@@ 11070
urban 11064
happen@@ 11063
easy. 11062
folks 11060
ban 11056
manufacture 11053
operation. 11053
fairly 11048
process, 11042
it'd 11038
marine 11038
packaging 11037
happened, 11034
transition 11033
rooms 11032
effect, 11029
Outturn 11024
ps. 11023
structures 11018
rain@@ 11016
customer 11015
Bal@@ 11013
indications 11012
consequence 11006
lunch 11005
ID 11004
rest. 11002
upset 11002
bit. 11000
93/@@ 10998
partly 10995
matter, 10987
collect 10985
calculating 10984
Cap@@ 10983
rapid 10982
contrac@@ 10981
Chief 10975
apart 10975
ly... 10974
door@@ 10972
fer@@ 10971
Ram@@ 10967
sister. 10966
ates, 10965
ls 10964
objects 10964
value. 10963
jumped 10961
...is 10960
declare 10959
line, 10956
ong 10955
reality 10955
production, 10952
tin 10949
fee 10946
thick 10946
ce 10944
tor, 10944
directed 10943
mg/@@ 10942
village 10942
continuing 10932
partnership 10930
ates. 10928
teeth 10927
storm 10926
PC@@ 10925
?@@ 10924
Greece 10923
deal. 10919
targeted 10918
undertake 10917
problem, 10916
2000/@@ 10912
Char@@ 10910
M. 10909
(or 10903
safeguard 10900
sites 10899
Got 10890
Proposal 10889
Find 10888
dad. 10882
fixing 10882
part. 10873
class@@ 10870
ia. 10868
al... 10862
electrical 10860
connect 10859
constant 10859
la 10859
requirements. 10859
tar@@ 10859
pping 10856
operated 10855
recommendation 10854
test@@ 10852
CS@@ 10844
indicating 10843
scar@@ 10843
bloody 10833
returning 10830
sli@@ 10830
def@@ 10828
hyper@@ 10828
listened 10827
refund 10827
to-@@ 10822
cases. 10820
reserve 10819
psycho@@ 10817
awful 10815
Japanese 10814
Single 10811
fel@@ 10810
buying 10809
2,@@ 10808
lit 10807
seconds. 10806
ain 10804
dealt 10793
married. 10793
inten@@ 10789
doc@@ 10788
Henry 10786
camera 10782
ely. 10773
report, 10771
Better 10768
had. 10764
ing; 10763
quotas 10756
Fre@@ 10754
cops 10754
families 10752
false 10750
far@@ 10749
wanting 10749
youth 10748
brief 10744
acted 10743
PS@@ 10742
sive 10741
din@@ 10740
seeks 10739
tie 10736
ley, 10733
harmonisation 10728
ator, 10726
tablets 10725
employed 10724
Sol@@ 10723
causing 10720
Gre@@ 10718
purpose. 10718
too? 10715
CT@@ 10714
Earth. 10714
assure 10714
truck 10713
parallel 10712
UK 10702
ball@@ 10701
'You 10699
defendant 10699
cell@@ 10698
needed. 10695
Gener@@ 10693
Sea 10690
act@@ 10688
file. 10688
medi@@ 10688
past. 10684
relief 10680
kinds 10679
news. 10679
pursued 10674
lips 10673
vari@@ 10673
impairment 10671
far. 10669
pulling 10669
Commitments 10668
"Do 10665
2014, 10665
81 10663
ton, 10661
o's 10658
discretion 10656
parties. 10656
shoulder 10656
Belgian 10654
TA@@ 10649
ceiling 10648
isation 10647
massive 10647
facility 10642
ement 10641
ment? 10641
sco@@ 10641
horrible 10638
SMEs 10635
three-@@ 10632
nose 10631
Europe, 10626
Further 10625
publish 10621
ore 10616
ages, 10615
US@@ 10612
conver@@ 10612
and. 10608
Partnership 10605
power, 10605
alleging 10603
anything? 10602
someone's 10602
dirty 10600
markets. 10600
(g) 10596
Bro@@ 10594
grade 10594
shadow 10593
conservation 10592
logical 10590
tive. 10590
policy, 10587
43@@ 10585
label 10585
Ger@@ 10577
describe 10576
territorial 10576
resulted 10575
methodology 10574
ology 10571
II, 10570
awareness 10570
contents 10570
composed 10564
Specific 10563
appellant 10562
Shi@@ 10559
agreement, 10559
department 10559
evidence. 10559
available, 10555
UR@@ 10552
distant 10552
insul@@ 10551
less@@ 10549
&@@ 10548
result, 10548
Tim@@ 10547
concentrations 10547
2011/@@ 10541
scheduled 10541
fraud 10538
landing 10537
millions 10536
candidate 10533
ING 10530
child, 10530
ful@@ 10527
whoever 10523
strike 10521
depend 10518
laws, 10516
admitted 10515
herself. 10515
Wat@@ 10514
hurt. 10514
frozen 10511
refusal 10511
detected 10505
3/200@@ 10499
ace@@ 10492
reminded 10492
150 10491
EFTA 10491
inspections 10486
attention. 10481
bullet 10481
references 10480
s" 10477
street. 10477
well@@ 10476
boyfriend 10474
programme, 10472
launch 10469
parties, 10459
investors 10456
nation@@ 10454
eventually 10449
(200@@ 10446
codes 10444
reasons, 10444
(3@@ 10443
acc@@ 10441
Select 10439
Rob@@ 10438
Poland 10437
extraordinary 10437
and-@@ 10436
kg 10432
Back 10430
Ty@@ 10429
dedicated 10429
itself, 10429
pursue 10429
use@@ 10428
works. 10427
Mom, 10425
imposition 10422
ents. 10421
Had 10419
alien 10415
new@@ 10414
2014. 10413
cartel 10413
ough@@ 10413
force, 10411
column 10406
good@@ 10404
ack@@ 10399
who, 10393
z. 10392
enjoyed 10390
atory 10389
den 10388
EA@@ 10387
ability. 10385
ists 10382
free. 10381
turnover 10379
So... 10377
COUNCIL 10374
2006) 10373
penalties 10371
Ap@@ 10370
ice. 10361
wave 10356
Nations 10355
dist@@ 10355
vast 10353
origin@@ 10351
Administrative 10348
carrier 10342
stat@@ 10339
electric 10338
requesting 10338
CFSP 10336
transfers 10331
authority. 10329
consult 10327
zo@@ 10327
candidates 10325
CH@@ 10324
meets 10323
performing 10319
'. 10318
Date 10317
States' 10316
or? 10314
Oh 10313
button 10308
8) 10307
8/200@@ 10307
purpose, 10307
shar@@ 10306
funded 10304
development. 10302
Network 10301
War 10299
key@@ 10299
mail 10296
Russia 10295
far, 10295
opinions 10295
areas, 10289
ders 10289
ently, 10288
telephone 10288
behaviour 10286
terrorist 10285
better, 10284
Sir 10282
What? 10280
2010/@@ 10278
London 10278
HAS 10277
enormous 10276
Jesus 10274
Doesn't 10271
biological 10270
Por@@ 10269
.) 10266
400 10265
Officer 10265
guilty 10265
generated 10263
tru@@ 10261
ack 10259
stro@@ 10259
Police 10257
glo@@ 10257
trials 10257
life@@ 10255
proportionate 10254
trace 10253
bat@@ 10251
Total 10248
mu@@ 10247
Ju@@ 10246
gun. 10246
helps 10244
Western 10243
Europe@@ 10242
per. 10241
public@@ 10240
mother@@ 10239
web 10239
danc@@ 10238
SE@@ 10237
should, 10237
ad, 10234
great, 10233
ligh@@ 10231
weather 10231
8/EC 10230
ham@@ 10230
who@@ 10227
Hu@@ 10226
difficulty 10224
remote 10224
causes 10223
ish. 10223
ming 10220
ED@@ 10218
mag@@ 10216
suit 10216
adapt 10215
suit@@ 10215
complied 10211
ese 10211
revealed 10206
1998 10205
AG@@ 10204
Han@@ 10202
Opinion 10201
ass. 10189
Project 10185
ill. 10180
lic@@ 10180
be... 10177
ad. 10176
Investment 10175
permission 10172
rating 10172
shop 10171
clear. 10170
club 10167
substantially 10167
"This 10166
7/200@@ 10161
houses 10160
cook@@ 10159
10, 10156
Ham@@ 10154
(2). 10153
errors 10153
removal 10151
Mother 10150
Ru@@ 10150
thro@@ 10149
debate 10142
windows 10142
adopting 10139
lie. 10136
second. 10135
Fr@@ 10134
laughed 10129
apologize 10127
forward. 10127
industry, 10122
ug@@ 10120
mine, 10119
objections 10118
subsidiary 10117
emp@@ 10116
issue, 10116
smo@@ 10114
Reference 10113
ick 10112
Still 10110
real@@ 10108
ruled 10108
messages 10106
tall 10105
conference 10102
teaching 10102
planet. 10101
addressing 10100
adapted 10096
2009) 10093
possibilities 10090
lost. 10085
environment, 10082
alive, 10081
day? 10079
food, 10079
authorisations 10076
correction 10076
war, 10072
alised 10070
applicant, 10070
vel@@ 10070
som@@ 10069
consistency 10068
rev@@ 10067
senior 10067
spl@@ 10067
annex 10066
protec@@ 10066
tom@@ 10064
vulnerable 10061
sion. 10060
appointment 10059
own, 10059
circle 10057
software 10057
ge. 10054
f, 10049
suffer 10047
nature. 10046
Stat@@ 10041
successfully 10035
suggests 10032
open@@ 10031
IF@@ 10030
nature, 10030
plac@@ 10030
on: 10026
88@@ 10021
ination 10021
alcohol 10020
order, 10020
ure. 10020
low. 10019
k-@@ 10016
finger 10015
EEC 10014
blo@@ 10013
golden 10012
throwing 10011
Products 10007
53 10006
acceptable 10006
54 10003
asi@@ 9998
"the 9997
ious 9997
resource 9995
arranged 9993
AB@@ 9992
mountain 9991
DNA 9990
iting 9986
edly 9985
puts 9981
"He 9980
sch@@ 9979
96 9978
liquid 9976
AND 9975
Dor@@ 9972
abandoned 9972
future, 9971
moments 9971
time... 9971
a! 9970
arm. 9970
establishes 9967
je@@ 9967
cards 9965
ac 9959
ero@@ 9958
prison. 9958
sooner 9956
sense. 9955
92 9954
Res@@ 9954
enterprise 9952
,but 9944
governments 9944
recording 9942
toxicity 9937
01 9936
hunting 9936
that! 9935
evaluate 9932
fa@@ 9932
servic@@ 9930
;@@ 9924
house? 9922
now! 9920
avi@@ 9916
"A 9911
duc@@ 9911
slo@@ 9911
intends 9906
viol@@ 9906
'll 9902
NO@@ 9901
TS@@ 9901
girlfriend 9900
smooth 9900
relevance 9899
wait. 9899
87@@ 9894
accident. 9893
Sim@@ 9890
activity. 9890
(B@@ 9889
spac@@ 9887
constantly 9885
now... 9885
en... 9883
medium 9883
conversion 9882
girls. 9882
square 9880
dead@@ 9879
transit 9875
yn@@ 9873
adequately 9872
persons, 9871
holds 9867
valuable 9866
explo@@ 9861
clause 9856
dream. 9854
vir@@ 9852
wanted. 9852
close. 9851
sea. 9851
Romania 9850
history. 9849
manufactured 9849
reimbursement 9849
Captain, 9848
Sho@@ 9846
consultations 9843
organis@@ 9843
Department 9842
es." 9842
lad@@ 9842
-based 9827
til@@ 9825
qui@@ 9824
Dad 9823
worker 9823
little. 9821
tac@@ 9819
request, 9818
bad@@ 9817
New@@ 9816
confidential 9814
ley. 9814
Additional 9811
1-@@ 9809
employee 9808
Things 9807
consent 9805
pool 9805
reforms 9804
provider 9803
Rom@@ 9802
must, 9802
II. 9801
body@@ 9797
high@@ 9797
system@@ 9797
eliminate 9794
change, 9793
ground@@ 9790
cited 9789
Also, 9787
CHAPTER 9782
cli@@ 9780
gray 9778
Unfortunately, 9777
bomb 9777
iss@@ 9775
human@@ 9773
part@@ 9773
2/200@@ 9772
wound 9772
Hold 9770
Ladies 9770
development, 9770
remember, 9770
properties 9769
ened 9767
ge, 9765
monitored 9759
ideas 9757
unlawful 9755
whilst 9755
How's 9754
clients 9754
heart@@ 9754
fake 9752
tion... 9752
finest 9751
Chi@@ 9747
ail@@ 9746
prohibited 9746
tra@@ 9739
kind@@ 9736
ladies 9736
show. 9735
2000, 9733
on! 9732
ries 9732
investigations 9730
ly? 9730
resources. 9730
57@@ 9728
liabilities 9727
missing. 9724
come, 9723
ju@@ 9723
reviewed 9722
eng@@ 9719
shift 9718
thrown 9715
es). 9712
light@@ 9711
ening 9710
3-@@ 9708
kids, 9707
excess 9705
security. 9705
try. 9705
advantages 9703
panel 9703
dy 9702
I.@@ 9701
strategies 9701
ei@@ 9697
evaluated 9696
grav@@ 9695
fond 9693
ET@@ 9689
programmes. 9688
surrounded 9684
(N@@ 9682
infection 9682
fleet 9681
side@@ 9681
product, 9677
You'il 9676
formul@@ 9672
Believe 9669
procedures. 9669
s?" 9668
time-@@ 9668
discussion 9666
flows 9663
I? 9661
ages. 9661
ney 9660
Little 9659
tin@@ 9658
intellectual 9654
ry, 9654
importers 9651
pers 9651
enhanced 9649
adjustments 9648
from. 9644
tex@@ 9642
destination 9641
exc@@ 9636
forward, 9636
universe 9634
eggs 9630
unusual 9630
mak@@ 9629
aver@@ 9626
eas@@ 9625
fines 9621
memories 9621
partially 9620
heart, 9618
ers? 9617
healthcare 9607
(OJ 9606
why. 9606
rul@@ 9603
other@@ 9601
ses. 9598
recall 9596
Sen@@ 9595
could. 9595
spring 9592
holders 9590
barriers 9589
breathing 9588
Miles 9587
loaded 9585
gradually 9584
switch 9584
asylum 9582
college 9580
lift 9580
ow@@ 9577
revision 9577
serving 9577
Paris 9576
afternoon 9576
96/@@ 9570
er! 9570
attack. 9568
authority, 9568
High@@ 9567
keys 9565
field, 9561
List 9560
pages 9559
thinking, 9557
tomorrow, 9555
Gal@@ 9551
ins. 9551
=@@ 9550
monetary 9548
elled 9547
milli@@ 9546
kid@@ 9545
longer. 9541
exclude 9540
ko 9539
likelihood 9539
powder 9539
reac@@ 9537
percent 9536
Wait 9535
ears 9535
sel@@ 9535
does. 9533
potentially 9531
...with 9530
fulfilled 9530
evolution 9529
print 9529
aging 9528
satellite 9527
regul@@ 9526
sustainability 9525
85 9524
blew 9524
drink. 9524
(T@@ 9523
weeks, 9523
impression 9521
spr@@ 9520
gs 9518
ids 9518
Committee, 9517
tem@@ 9516
A) 9515
suppliers 9510
troops 9510
1st 9508
Sy@@ 9507
achievement 9507
sky. 9507
Pursuant 9506
fy 9503
ories 9503
ality. 9498
Bulgaria 9497
Centre 9492
res, 9488
picking 9486
involved. 9483
sleep@@ 9482
Sk@@ 9480
Tal@@ 9478
division 9475
patients. 9474
pho@@ 9468
doctors 9465
reasons. 9462
return. 9461
Recommendation 9457
acceptance 9457
wood@@ 9457
obtaining 9452
correctly 9451
watch@@ 9450
long-@@ 9448
Lar@@ 9447
VI 9447
interview 9447
warn 9447
ce@@ 9444
tive, 9444
understand, 9444
of... 9443
rent 9443
institutions, 9442
DECISION 9440
pil@@ 9439
CO 9437
bodies, 9436
cleaning 9429
pointing 9429
guns 9427
ter's 9427
ours 9424
who'd 9421
thirty 9418
horses 9417
project. 9416
migration 9414
territories 9410
contract. 9408
ath 9404
Professor 9403
ies, 9403
strict 9402
da 9398
e-mail 9398
home? 9395
reason@@ 9395
papers 9392
arise 9390
composition 9390
rode 9390
mouth. 9389
Thomas 9386
drunk 9386
employ@@ 9386
sa 9385
urgent 9385
vers 9385
ft 9384
moon 9384
om. 9384
leg 9381
Tribunal 9379
initiate 9376
Nice 9375
initiation 9375
fast@@ 9374
largely 9373
Rem@@ 9371
accused 9371
Doctor 9370
ways. 9370
ely, 9369
party, 9367
forming 9365
cent@@ 9364
dream@@ 9362
genuine 9358
lor@@ 9357
advertising 9356
lu@@ 9356
form. 9355
wn 9352
name's 9351
surely 9351
Basic 9349
cand@@ 9347
guy's 9345
ver, 9345
fying 9344
Right, 9343
(and 9340
manufacturers 9340
think? 9339
animals. 9334
Air@@ 9329
Support 9329
clear, 9329
R. 9328
eye@@ 9328
Sun@@ 9327
violence 9327
copies 9326
cat 9325
like... 9324
ishing 9322
k... 9321
pure 9321
(A@@ 9320
98/@@ 9320
Ryan 9320
answers 9319
Neither 9318
Trust 9317
Prince 9316
even@@ 9314
accompanying 9311
lit@@ 9311
el's 9308
gained 9302
were, 9300
bird 9299
Check 9295
signature 9294
ll@@ 9293
another, 9291
asked, 9291
worry, 9291
Charlie 9287
arrested 9287
estimate 9285
group, 9285
frequently 9282
infringements 9282
extensive 9275
group@@ 9275
approached 9274
separ@@ 9273
dust 9268
room@@ 9268
public. 9264
Frank 9260
place? 9260
*@@ 9259
student 9259
bil@@ 9257
we? 9257
France, 9255
PRC 9255
Sixth 9255
Measures 9254
programming 9252
dragged 9251
gravity 9251
city, 9250
may@@ 9250
condition@@ 9248
publicly 9247
recognise 9247
follow@@ 9246
ws. 9244
Belgium 9243
distinction 9243
ne. 9243
ago@@ 9242
bodies. 9242
ences 9241
measuring 9240
82 9239
Point 9236
culture 9236
if, 9236
Monitoring 9235
circulation 9235
Lan@@ 9234
mus@@ 9231
fellow 9229
fool 9228
impacts 9228
risk. 9228
57 9226
Ren@@ 9223
established. 9220
dom@@ 9219
carriers 9218
Nor 9215
sy 9212
Dan@@ 9210
connec@@ 9210
could, 9210
foodstuffs 9210
thing? 9210
spite 9209
plate 9207
al's 9200
grab 9197
bled 9195
station. 9194
exist. 9193
fire, 9192
ins, 9190
6/200@@ 9188
gin@@ 9188
savings 9186
ling@@ 9185
cities 9183
eye. 9183
protection, 9183
kissed 9181
Am 9178
predic@@ 9178
view. 9178
Des@@ 9176
OP@@ 9176
closed. 9174
ently. 9172
eth@@ 9170
ency 9169
service, 9167
vital 9165
Secondly, 9162
et. 9162
volumes 9162
termination 9161
actors 9157
creatures 9156
numerous 9155
school@@ 9152
abl@@ 9150
nearest 9146
hard, 9142
cup 9140
payable 9140
Wor@@ 9134
explanation 9134
models 9132
cargo 9130
(as 9126
reveal 9126
resistance 9124
wall, 9124
sanctions 9122
ownership 9121
entrusted 9118
theory 9118
lar@@ 9116
avoiding 9114
floor, 9113
purely 9113
pending 9110
father@@ 9106
Ter@@ 9105
93 9104
kicked 9104
identifying 9103
the... 9102
genetic 9096
s,@@ 9096
call@@ 9095
investigation, 9093
Charter 9092
after@@ 9092
account, 9091
ited 9091
east 9089
ward 9089
pushing 9088
65@@ 9084
usi@@ 9083
tax@@ 9082
collec@@ 9080
stands 9080
anyway? 9079
branch 9076
ular 9076
ative, 9072
Note 9071
required. 9070
command@@ 9068
her... 9067
"That 9064
ol, 9061
Ph@@ 9060
management, 9059
ok 9058
hospit@@ 9056
treatment, 9054
control, 9050
teacher 9048
suspended 9046
power@@ 9045
apartment. 9044
treating 9041
5-@@ 9038
Ear@@ 9037
ruin 9034
snow 9034
Um, 9033
assurance 9028
designation 9022
Okay. 9020
minute, 9020
Today 9016
regret 9016
SG@@ 9014
Taking 9011
daughter, 9011
investig@@ 9010
ously, 9010
mer 9008
parents. 9004
kill@@ 9003
sex. 9002
dates 9000
feet, 8997
q@@ 8995
ST@@ 8994
ach 8993
r. 8992
argue 8991
engage 8990
defense 8989
leave, 8989
wherever 8984
We'd 8982
rad@@ 8982
thinking. 8981
...or 8979
stretched 8977
interest, 8976
it." 8973
th? 8973
ment; 8972
fault 8971
outer 8971
investor 8970
coordinated 8966
dangerous. 8966
sof@@ 8964
were. 8964
cover@@ 8960
vial 8960
circumstances. 8959
O'@@ 8957
hire 8957
stomach 8957
ation) 8956
hey, 8954
arrangement 8953
African 8950
low, 8949
consisting 8948
considered. 8947
penalty 8946
strongly 8944
decisive 8943
contributing 8942
directive. 8942
least, 8942
virtue 8941
images 8939
diseases 8938
she@@ 8938
word@@ 8937
Bring 8936
deser@@ 8936
odd 8934
pale 8934
god@@ 8933
appropriate. 8930
Ly@@ 8928
decent 8928
roll 8928
streets 8928
pattern 8926
é 8926
birthday 8925
Lieutenant 8922
last. 8922
Pre@@ 8920
women, 8917
amongst 8916
1.xml 8915
recover 8915
threatened 8911
ished 8910
territory. 8909
expertise 8907
mr. 8906
verified 8905
...because 8903
play. 8901
marking 8900
strictly 8900
number, 8898
oned 8898
own@@ 8896
restore 8896
eligibility 8892
dominant 8890
valu@@ 8887
markets, 8886
measure@@ 8886
computer. 8885
Portuguese 8882
blood, 8881
hypo@@ 8878
mess 8877
request. 8877
Love 8876
withdraw 8876
draw@@ 8873
medium-sized 8872
59 8868
incentives 8868
reasoned 8868
collecting 8867
ich 8867
gross 8863
Especially 8862
bab@@ 8861
quickly. 8861
Standard 8860
shake 8860
irrespective 8858
open, 8858
really, 8858
assessments 8857
compulsory 8857
wooden 8857
infusion 8850
inner 8850
welfare 8850
tion: 8848
adi@@ 8847
Republic, 8844
leaders 8844
neck. 8844
Budget 8839
overcome 8837
Austria 8833
health, 8832
org@@ 8830
pu@@ 8830
mp@@ 8828
reasonably 8826
Brussels 8825
look@@ 8823
estate 8817
harder 8809
bow@@ 8808
gas@@ 8807
Fisheries 8804
stopping 8804
ink@@ 8803
guide 8802
jointly 8800
cried 8798
initially 8798
price. 8798
wrapped 8798
you." 8797
show@@ 8795
Class 8793
closure 8792
Commander 8791
late, 8790
statutory 8790
...for 8789
landed 8789
winter 8789
burst 8787
affects 8786
Vo@@ 8785
class. 8785
ded. 8784
proposes 8784
boys. 8783
exclusion 8782
Ste@@ 8777
third-country 8776
balanced 8775
inside, 8775
veri@@ 8775
Cur@@ 8774
attempted 8772
PR@@ 8768
excited 8766
badly 8763
excluding 8763
boy@@ 8761
continu@@ 8761
ae 8760
Scientific 8758
dismissed 8758
Over@@ 8755
word, 8753
inserted 8751
9) 8749
act. 8749
complicated 8749
Transport 8747
West@@ 8746
improvements 8745
transposition 8745
wider 8740
Wi@@ 8739
in... 8731
Need 8729
grow@@ 8729
pun@@ 8728
pack@@ 8727
Whether 8726
aviation 8724
brothers 8723
critic@@ 8721
roof 8721
had, 8720
ports 8720
Here, 8719
E-@@ 8717
problem@@ 8716
police. 8710
Pen@@ 8704
aren@@ 8703
popular 8702
Bet@@ 8700
bad, 8700
sion, 8700
advis@@ 8699
Mike 8697
transpor@@ 8696
rear 8695
companies, 8694
tight 8694
Op@@ 8691
beauty 8690
custom@@ 8690
everyone. 8690
ene 8685
Dr@@ 8682
000. 8681
voting 8681
commission 8678
security, 8678
66@@ 8677
Win@@ 8674
ice, 8673
escaped 8667
acy 8665
Lou@@ 8660
sen 8660
uck@@ 8657
se... 8655
stages 8654
Fe@@ 8653
Whereas: 8653
brilliant 8652
idea, 8652
ures 8652
this@@ 8651
repair 8648
games 8647
judgment, 8643
procedures, 8642
hair, 8641
rob@@ 8641
ail 8640
proven 8638
support. 8637
weighted 8637
fifty 8630
develop@@ 8629
camp@@ 8626
proportionality 8626
dating 8624
separated 8624
Free 8623
tracking 8616
else? 8615
ly-@@ 8615
camp 8614
rati@@ 8614
mean? 8613
behind. 8612
retirement 8611
Ask 8607
contrary, 8606
month@@ 8606
adap@@ 8605
agrees 8603
examining 8600
laugh 8598
levels. 8598
1). 8597
home@@ 8597
resources, 8595
scre@@ 8595
one... 8593
rid@@ 8592
dog. 8591
ne, 8589
purposes. 8589
king, 8588
ays 8587
prov@@ 8587
multi-@@ 8585
knew. 8584
if@@ 8582
saying. 8582
Fran@@ 8581
arms. 8581
gods 8581
practice. 8581
98 8580
pain, 8579
mom. 8577
feeding 8575
deny 8573
Application 8572
conjunction 8571
profits 8571
Vic@@ 8567
58 8565
attractive 8564
encouraged 8564
programmes, 8564
ill, 8562
termin@@ 8562
lam@@ 8561
warned 8557
OHIM 8556
ate? 8556
chest 8556
religious 8556
bed@@ 8555
Dun@@ 8553
Gen@@ 8553
2005) 8551
Well... 8551
Ra@@ 8550
nec@@ 8550
T. 8548
fri@@ 8548
fitted 8546
thi@@ 8546
accurate 8544
fail 8544
Ur@@ 8543
cooperating 8543
ny 8543
naked 8542
stay. 8542
Advisory 8540
ruined 8540
trusted 8538
kno@@ 8537
correspond 8536
Fri@@ 8535
bent 8534
bow 8534
'd 8533
FBI 8533
mandate 8532
forth 8527
baby, 8525
it," 8525
process@@ 8525
fed 8524
tak@@ 8522
64 8519
non-member 8519
born. 8517
expensive 8517
fate 8517
abuse 8514
decides 8514
deposit 8514
tly 8514
(M@@ 8512
hen@@ 8512
anim@@ 8508
detec@@ 8508
peace. 8508
cab@@ 8507
horizontal 8506
48@@ 8504
coherent 8503
preparations 8503
ü@@ 8502
motion 8499
wedding. 8499
hour, 8498
preamble 8497
arr@@ 8496
(7) 8495
Fac@@ 8494
infected 8494
stream 8492
studying 8492
Life 8491
bol@@ 8489
lun@@ 8487
supplier 8487
belonging 8485
fully. 8485
opposition 8485
contain@@ 8483
ing) 8483
Europe's 8480
leather 8477
medic@@ 8477
sts, 8476
welcomes 8476
Coun@@ 8474
Pap@@ 8472
lac@@ 8472
PP@@ 8471
ker. 8471
unlikely 8471
4/200@@ 8470
borders 8468
tears 8467
approve 8459
happening. 8459
three. 8458
visited 8456
anywhere. 8455
past, 8455
Ol@@ 8451
Structural 8451
assessment, 8451
empowered 8449
sir? 8443
gon@@ 8442
tis 8442
run. 8439
...so 8438
stress 8436
elling 8434
3(1) 8432
direction. 8432
federal 8430
questions, 8430
disputes 8429
then... 8428
ba@@ 8427
survey 8425
declarations 8424
ensures 8422
every@@ 8421
On@@ 8419
etc. 8419
possession 8419
contrast, 8417
oul@@ 8417
cry 8411
wait@@ 8411
photo 8407
win. 8405
contacts 8404
cross@@ 8401
enhancing 8401
follow-up 8395
ek 8392
interest@@ 8392
jail. 8391
sand 8390
Area 8388
discover 8388
gaze 8388
radiation 8388
tables 8387
Fer@@ 8386
calculate 8382
form, 8381
prices. 8380
commit 8378
tobacco 8377
life? 8376
norm@@ 8376
very, 8376
iz@@ 8374
Regi@@ 8373
allowance 8371
equipment, 8370
But@@ 8369
St. 8367
intensity 8365
riding 8364
incentive 8363
ite. 8362
foreseen 8361
backed 8359
start@@ 8358
belonged 8357
%s 8356
Gra@@ 8356
pharmac@@ 8356
tenders 8354
...a 8352
Couldn't 8352
small, 8351
-related 8348
Union's 8347
cost@@ 8347
fully, 8347
P) 8346
wet 8344
cop 8343
gn@@ 8342
brother@@ 8340
will@@ 8340
kid, 8339
ina, 8337
yl 8337
afternoon. 8336
set. 8334
allow@@ 8333
met, 8333
companies. 8332
four@@ 8330
bility 8329
mile 8328
fishery 8325
practice, 8322
rat@@ 8321
kick 8320
can't. 8319
height 8319
ö@@ 8319
Company 8318
portion 8317
ue 8315
72 8314
wall@@ 8314
knocked 8313
EG@@ 8311
desk. 8311
rig@@ 8311
beer 8310
deeply 8309
10. 8308
this! 8306
000@@ 8304
timely 8303
vac@@ 8301
way? 8301
popul@@ 8300
antly 8299
que@@ 8297
precious 8296
transport, 8294
pocket 8293
son? 8293
2/EC 8292
movements 8291
Man 8290
Denmark 8286
afraid. 8284
going, 8283
unemployment 8280
Cro@@ 8278
meal 8278
restaurant 8276
shoulder. 8275
vit@@ 8271
needs. 8270
unlike 8270
ax 8269
97 8268
DE@@ 8267
Portugal 8266
involves 8264
park 8263
Still, 8261
ward, 8261
adults 8260
om, 8257
Tre@@ 8255
ry. 8255
Pat@@ 8253
Captain. 8252
der. 8252
anymore, 8251
Annex. 8250
goal 8247
today? 8247
incorrect 8246
uck 8246
Major 8242
votes 8241
assuming 8240
players 8236
means, 8235
projects. 8234
obstacles 8232
ahead. 8231
destruction 8231
Help 8230
factual 8229
quantitative 8229
harmful 8223
attack@@ 8222
curious 8222
(such 8221
got. 8221
wo@@ 8220
made, 8218
clear@@ 8217
ung 8217
1(1) 8211
objec@@ 8208
ensured 8207
society. 8207
zation 8207
girl@@ 8205
hepatic 8202
us! 8201
visual 8201
knew, 8200
ame 8199
sul@@ 8199
universal 8199
chapter 8198
(3), 8196
Therefore 8196
plays 8196
"Well, 8195
Kal@@ 8193
div@@ 8193
taken. 8193
wid@@ 8193
state. 8192
dum@@ 8191
schedule 8190
snow@@ 8186
nor@@ 8185
sett@@ 8185
general, 8183
message. 8183
standards. 8183
been. 8180
crowd 8176
Edward 8175
rough 8175
bury 8174
explains 8174
Robert 8172
rule, 8172
somewhat 8172
Eastern 8171
S.@@ 8171
bus@@ 8170
evening, 8170
complain@@ 8169
functional 8169
Listen 8168
husband, 8167
shirt 8165
Van 8164
conc@@ 8164
educational 8164
)) 8162
offices 8161
union 8161
attend 8159
ative. 8158
present. 8156
John@@ 8155
cit@@ 8154
production. 8154
row. 8153
ours. 8151
t," 8150
arti@@ 8148
India 8146
Six 8146
fear. 8144
gam@@ 8143
recipient 8143
hero@@ 8141
ality, 8138
estimates 8137
Max 8135
safe@@ 8135
Ari@@ 8132
ech@@ 8132
02 8130
secret. 8130
Implementation 8129
authorise 8129
der, 8129
CP@@ 8128
TE@@ 8128
work? 8126
Know 8125
4(1) 8124
Local 8124
bath@@ 8124
va 8124
blocks 8123
Guess 8122
ves@@ 8122
life-@@ 8121
2). 8120
S, 8120
training, 8120
corresponds 8119
akes 8116
bleeding 8116
chair. 8109
want@@ 8109
trapped 8108
CHMP 8107
originally 8107
row@@ 8107
flexibility 8106
doub@@ 8104
complaints 8102
wit@@ 8102
...who 8101
EIB 8101
view@@ 8100
TFEU, 8099
cris@@ 8099
voice, 8099
CD@@ 8098
where, 8098
fied. 8097
seed 8096
preclude 8092
roc@@ 8092
gul@@ 8091
remember. 8091
me." 8086
dimension 8084
lead@@ 8084
woman's 8084
ast. 8083
directive, 8083
Dr 8082
E, 8080
toxic 8078
es," 8077
D, 8074
scheme. 8073
ths 8072
zi@@ 8071
Ev@@ 8069
maintains 8069
objectives. 8068
holdings 8067
reputation 8066
returns 8066
Resolution 8065
did@@ 8064
Must 8063
sight. 8062
trust@@ 8060
inv@@ 8059
Bill 8056
Jud@@ 8056
drag 8055
tit@@ 8055
tun@@ 8054
Ga@@ 8052
Notice 8049
remo@@ 8049
mean. 8047
bet@@ 8043
cleared 8043
twelve 8041
boat. 8039
lic 8038
sts. 8038
day... 8036
adjust 8035
modification 8035
world@@ 8035
personally 8034
independence 8033
62 8032
borrow 8032
requirements, 8032
dark, 8031
means. 8031
book, 8030
Sweden 8028
commander 8028
only. 8026
99 8023
Under@@ 8022
emerging 8022
meth@@ 8022
exit 8021
Americans 8020
goods, 8019
Ven@@ 8012
decision-making 8012
hour@@ 8010
loading 8008
IV@@ 8007
people@@ 8007
mustn't 8006
sad@@ 8006
Foreign 8005
syn@@ 8005
"and 8003
Lind@@ 8003
number@@ 8003
story, 8000
capit@@ 7998
cool. 7998
along. 7997
enjoying 7997
explicitly 7994
Dam@@ 7993
observe 7993
apped 7992
violent 7992
approaches 7991
...if 7989
internet 7988
business@@ 7986
IC 7985
listen, 7983
certified 7981
Pres@@ 7980
vaccine 7979
pig@@ 7978
manag@@ 7977
ey 7975
them... 7975
pleasant 7973
results. 7973
adding 7971
type-approval 7971
competitors 7968
slight 7967
economy. 7965
housing 7965
mission. 7964
1997 7961
then@@ 7959
-to-@@ 7957
Functioning 7956
exempt 7955
ches. 7954
6(2) 7953
now@@ 7953
exercised 7950
sodium 7949
a: 7948
nevertheless 7948
next. 7946
parti@@ 7946
vely 7946
Holy 7943
fail@@ 7943
introducing 7943
pray 7939
they? 7933
big, 7932
before? 7931
money? 7931
ways, 7929
respon@@ 7928
mode 7927
scene. 7926
ford 7924
Anyone 7923
nights 7923
audi@@ 7922
Wow, 7921
time-limit 7921
orders. 7918
itation 7917
Detective 7915
aking 7915
4-@@ 7913
reductions 7913
signing 7913
kills 7912
D.@@ 7911
t; 7911
teach@@ 7910
director 7909
guest 7909
normal. 7907
mid-@@ 7906
tigh@@ 7905
skin. 7904
desperate 7902
ement, 7902
mysterious 7902
tho@@ 7901
wise 7901
all? 7900
smoking 7899
facilitating 7898
EEC, 7897
"So 7896
63 7895
Sand@@ 7892
ars. 7892
singing 7889
ke. 7888
sick@@ 7886
failing 7885
alter 7883
wash 7881
alo@@ 7878
t) 7878
Land@@ 7874
ella 7874
ss 7874
ki 7871
shaking 7871
ts@@ 7870
activ@@ 7867
grateful 7867
Lin@@ 7866
audits 7864
what@@ 7863
Jimmy 7862
des 7858
ust@@ 7858
tape 7857
consist 7855
REGULATION 7850
concentrate 7850
short@@ 7850
List@@ 7848
Change 7847
Honey, 7846
owners 7844
IL@@ 7843
counted 7843
servants 7843
quit 7840
ignore 7836
hall 7835
subsidy 7835
Funds 7830
lunch. 7829
short-term 7828
ises 7827
sions 7827
luck. 7826
wheel 7825
wis@@ 7825
great@@ 7823
competi@@ 7821
arrange 7818
cer@@ 7818
12, 7817
dancing 7817
yards 7817
climb 7816
crossing 7816
an-@@ 7815
nation 7815
t: 7814
les@@ 7813
capture 7812
centres 7811
secrets 7811
Ric@@ 7810
bar. 7810
clarify 7810
monthly 7810
Gran@@ 7808
twisted 7808
9/200@@ 7807
Grand 7807
ace. 7806
girl's 7805
sum@@ 7805
America. 7804
objection 7804
emotional 7803
ship's 7802
fails 7801
says. 7801
printed 7800
Ob@@ 7799
ina. 7799
lec@@ 7799
three, 7795
cent 7794
depart@@ 7794
isi@@ 7793
soldier 7791
(i.e. 7790
partner@@ 7790
platform 7789
ise. 7788
satisfactory 7788
newly 7787
d! 7786
out... 7786
restrict 7786
title 7781
moral 7778
Franc@@ 7777
tap@@ 7777
nice, 7776
2007/@@ 7775
hope. 7775
an... 7774
basically 7773
reasoning 7772
grand 7771
man... 7771
Long 7769
tissue 7768
ment... 7766
Sig@@ 7764
foster 7763
gol@@ 7763
ration@@ 7762
68 7758
historical 7757
exceeds 7755
ered, 7754
operation, 7752
Africa 7751
Soviet 7751
merger 7751
Ca@@ 7747
premises 7747
yeah. 7747
working. 7746
serious. 7743
assisted 7742
11, 7741
ADOPTED 7741
V. 7741
main@@ 7740
"Why 7739
(vote) 7738
coverage 7737
shadows 7736
o? 7735
Louis 7731
clothes. 7731
nodded. 7730
window, 7729
capacities 7728
ent? 7728
democratic 7727
Turkey 7726
delegation 7725
machine. 7725
rab@@ 7723
didn't. 7721
flow@@ 7720
room? 7720
6(1) 7719
chamber 7717
recommend 7717
ses, 7717
surprise. 7716
perfect. 7715
Conditions 7714
es/@@ 7711
brain. 7710
invest@@ 7707
F. 7706
Star 7706
PL@@ 7704
style 7702
E. 7700
nurse 7700
ture. 7699
ward. 7699
adjust@@ 7698
threatening 7698
kes 7696
sake 7695
settings 7694
"You're 7693
arm, 7693
shock 7693
order@@ 7692
resid@@ 7692
Charles 7690
typical 7690
za 7690
acquis 7689
believ@@ 7688
extending 7687
seat. 7687
ing." 7686
61 7684
earned 7684
mol@@ 7684
yours, 7684
systemic 7683
san@@ 7681
stones 7681
actions. 7680
contract, 7680
Hello, 7679
Cho@@ 7678
alert 7678
actually, 7676
exploitation 7675
earth. 7674
plat@@ 7673
competition, 7672
5/EC 7670
ron@@ 7670
ak. 7666
equality 7664
Due 7662
moderate 7662
Oh. 7660
Shall 7660
ire 7660
assessment. 7659
extreme 7659
modify 7659
cohesion 7656
poverty 7656
ee 7654
thin@@ 7653
­@@ 7652
so-called 7648
stage, 7648
road@@ 7644
wr@@ 7644
Jack@@ 7643
handled 7642
start. 7641
Add 7640
Rel@@ 7637
ared 7637
mix@@ 7637
realise 7637
safety. 7637
beautiful, 7634
Wo@@ 7633
generate 7632
brain@@ 7631
ham 7631
campaign 7629
god 7627
ake 7625
ar? 7620
lab 7620
German@@ 7619
Lam@@ 7619
appearance 7619
associations 7619
throat 7618
infringed 7616
nit@@ 7616
Hi, 7615
Ky@@ 7614
freight 7613
"My 7611
outstanding 7611
danger. 7610
definitions 7606
soul. 7606
switched 7606
2003. 7605
Animal 7605
started. 7604
colour 7603
York. 7602
econom@@ 7602
net@@ 7601
ze@@ 7601
Cy@@ 7600
Whit@@ 7600
frightened 7599
ast, 7598
Looking 7597
are? 7596
ge? 7596
91/@@ 7594
reserv@@ 7593
purchased 7592
pped 7591
250 7590
flesh 7590
pose 7590
alli@@ 7589
Whoever 7588
á@@ 7588
ce, 7587
chang@@ 7587
Ms 7586
s-- 7583
transmit 7580
discussions 7579
e,@@ 7579
pollution 7578
texts 7577
relationship. 7576
Gl@@ 7575
there... 7575
animals, 7573
Fl@@ 7572
insulin 7572
ed." 7571
prices, 7570
arch@@ 7569
connections 7567
1996 7566
agenda 7566
Fro@@ 7565
guess. 7564
our. 7564
consolidated 7563
check@@ 7562
step@@ 7562
approaching 7561
up! 7561
um... 7559
vill@@ 7559
complies 7557
permits 7557
stic@@ 7557
ticket 7553
eat. 7552
like@@ 7551
Angel@@ 7550
illi@@ 7550
EDPS 7548
Wol@@ 7548
istic 7548
speech 7548
Unable 7546
whereby 7546
survived 7545
Indi@@ 7544
(1). 7542
/2006 7542
retain 7542
secret@@ 7540
laughing 7539
practically 7538
distinct 7537
serv@@ 7537
Ray@@ 7535
Court. 7532
Committee. 7531
Bobby 7529
mixture 7528
Mom@@ 7526
stealing 7526
Polish 7525
deployment 7523
Grand@@ 7521
distributed 7521
weapon. 7521
hates 7519
act, 7514
arrival 7512
health. 7512
swung 7512
Can@@ 7511
Dal@@ 7511
paper. 7511
Jim 7508
documents, 7508
secured 7507
greenhouse 7503
ATION 7499
organization 7499
Hun@@ 7498
ier 7496
our, 7493
ugly 7493
thir@@ 7492
Always 7491
VII 7491
navigation 7489
spec@@ 7488
household 7487
IO@@ 7486
chicken 7485
disease. 7485
life... 7485
"I'll 7484
physic@@ 7484
flights 7483
applied. 7482
lap@@ 7481
studies, 7479
proceed 7478
preferred 7477
al) 7473
surrounding 7471
sense, 7467
resolve 7466
ko@@ 7465
policies. 7465
strang@@ 7465
distr@@ 7464
consulted 7462
William 7461
cher 7460
She'd 7459
counting 7459
neutr@@ 7459
annexed 7458
94 7455
Position 7454
education, 7454
th's 7454
Watch 7453
imposing 7453
like? 7453
repeat 7453
Head 7450
Mom 7450
fair@@ 7450
Dol@@ 7449
watch. 7448
ket 7447
Through 7445
ade. 7443
FS@@ 7442
mic@@ 7442
flowers 7441
literally 7441
little, 7441
hid 7437
actively 7435
decline 7434
gay 7434
road, 7434
J. 7433
t." 7433
board, 7431
cheese 7431
stupid. 7430
FR@@ 7428
ah, 7428
by: 7426
Swiss 7424
tly, 7422
help@@ 7421
swe@@ 7417
I) 7415
anybody. 7415
liquidity 7413
memory. 7413
talks 7413
Good@@ 7411
Secretary 7411
wan@@ 7411
legislature 7410
Server 7409
activity, 7408
index 7408
representation 7406
6/EC 7405
manner. 7404
mess@@ 7403
THIS 7401
CE@@ 7399
EX@@ 7398
La 7396
/EC 7394
mark. 7394
favor 7393
Dear 7392
But... 7391
sacrifice 7391
frame 7387
cast@@ 7385
sound@@ 7383
Me 7382
sealed 7382
trend 7382
justification 7380
pleas 7380
4/EC 7378
random 7376
artificial 7374
fat@@ 7373
protocol 7373
Almost 7371
stal@@ 7371
,you 7370
...we 7370
design@@ 7369
known. 7369
sis 7369
placebo 7368
sni@@ 7368
broad@@ 7365
zero 7364
PO@@ 7363
producers, 7361
stair@@ 7360
Produc@@ 7359
Subject 7358
delete 7357
ball. 7355
solar 7355
Talk 7354
Sounds 7353
issues. 7353
temporarily 7352
ell, 7351
license 7351
rail@@ 7351
(R@@ 7349
repealed 7349
ring. 7349
beach 7348
concludes 7348
talk@@ 7348
ven 7348
consequently 7347
fix@@ 7345
catches 7344
recommends 7343
yn 7343
Luxembourg 7342
sweet@@ 7341
conf@@ 7339
...of 7338
Gil@@ 7338
Northern 7338
important, 7336
comment 7335
6-@@ 7333
Mand@@ 7333
ps, 7332
dried 7331
type. 7329
raises 7328
report@@ 7327
evidence, 7325
ial 7325
lady. 7325
fall@@ 7323
ocean 7323
IAS 7321
MO@@ 7320
boyfriend. 7320
locate 7320
tel@@ 7320
Undertaking 7319
ano@@ 7318
opinion. 7318
qualifications 7317
Question 7316
earlier. 7316
ve? 7316
anyway, 7314
controlling 7314
ily, 7314
provides: 7313
]@@ 7312
figh@@ 7312
death@@ 7311
yesterday 7311
discharge 7310
You@@ 7309
Out 7307
breakfast 7307
Out@@ 7304
et, 7302
at? 7301
pric@@ 7301
practic@@ 7300
unnecessary 7300
aid@@ 7299
colon@@ 7299
remedy 7299
girlfriend. 7296
authorising 7293
gender 7293
effects. 7292
Billy 7291
courage 7291
entrance 7288
protein 7288
stage. 7285
Decisions 7284
Tit@@ 7284
reinforce 7284
stag@@ 7284
:00. 7283
Fle@@ 7283
Jam@@ 7283
tele@@ 7283
double-@@ 7282
are... 7281
contributed 7281
bones 7280
formation 7280
care, 7279
rats 7279
Austrian 7278
vol@@ 7278
Dur@@ 7277
game, 7277
loving 7277
spor@@ 7277
Employment 7276
grey 7276
stop@@ 7276
goods. 7275
tion; 7275
exp@@ 7274
matters. 7274
equipment. 7273
attempting 7272
begins 7272
doctor, 7271
stopped. 7271
ances. 7270
ena 7270
steady 7269
wife's 7265
vampire 7264
darkness. 7263
Fol@@ 7262
whis@@ 7262
displayed 7261
import@@ 7259
And@@ 7258
confidentiality 7256
ut 7256
western 7256
confusion 7255
because, 7254
enables 7254
pressing 7254
Ash@@ 7253
Organisation 7252
counter 7252
designate 7249
L. 7247
Work 7247
slow@@ 7246
were@@ 7246
tly. 7244
A-@@ 7243
boss. 7243
defining 7243
waiting. 7243
Bra@@ 7241
installations 7241
liter@@ 7241
manifest 7238
Jack, 7237
elimination 7236
ve... 7236
preserve 7235
funny. 7234
Aren't 7232
Martin 7231
insolvency 7231
outside, 7231
67 7230
represent@@ 7230
Kat@@ 7226
ured 7226
consolidation 7225
pen 7225
comm@@ 7224
slid 7223
lowest 7222
97/@@ 7221
necessity 7221
dark. 7216
phone, 7215
today's 7215
everywhere. 7214
log 7214
1,000 7213
soci@@ 7213
Pop@@ 7210
dev@@ 7210
wrong? 7209
ares 7207
incredible 7207
sex@@ 7206
incredibly 7204
adaptation 7202
Day 7201
measure. 7201
eni@@ 7199
brother's 7197
ement. 7197
quanti@@ 7197
subsidies 7196
hero 7195
itch@@ 7195
gap 7194
F, 7193
space, 7193
ith 7192
Death 7190
dissemination 7189
accuracy 7186
decisions. 7186
wounded 7186
comfort 7184
C) 7183
filling 7182
rice 7182
knock 7181
University 7179
rit@@ 7179
uncle 7179
tow@@ 7178
tons 7177
Mir@@ 7176
lip@@ 7176
up... 7176
2010@@ 7175
vent@@ 7175
irrit@@ 7174
issu@@ 7173
Hon@@ 7171
elev@@ 7170
tablet 7170
everything's 7169
attacks 7168
beings 7168
Andre@@ 7167
cared 7167
conventional 7167
brave 7166
serial 7166
tea 7165
bing 7164
ric 7164
techniques 7164
respect. 7163
arrive 7161
n's 7161
you," 7161
Lev@@ 7160
Tem@@ 7160
appl@@ 7160
interesting. 7160
session 7160
reserved 7159
mountains 7158
thanks. 7158
encountered 7157
relationships 7155
simplified 7152
urg@@ 7152
89/@@ 7150
occup@@ 7150
please! 7149
sigh@@ 7148
withdrawn 7148
e?" 7146
mild 7144
happened? 7143
repayment 7143
kind. 7142
policies, 7141
detection 7139
separately 7139
Dav@@ 7138
fish@@ 7137
syringe 7137
jail 7136
agreed. 7135
monster 7135
You, 7134
adopted. 7134
12. 7133
Mu@@ 7131
3,@@ 7130
provisions, 7130
Army 7129
arms, 7128
interoperability 7128
mirror 7128
sle@@ 7128
lot, 7127
71 7126
fifteen 7125
sell@@ 7124
yearly 7124
aboard 7123
crazy, 7123
derogations 7123
91 7121
ards 7121
99@@ 7120
legality 7120
Dutch 7119
plans. 7118
proceeding 7118
tum@@ 7118
bits 7116
holy 7116
tol@@ 7115
weak@@ 7115
regi@@ 7114
Net@@ 7112
documents. 7112
gang@@ 7110
ism. 7109
chasing 7107
San@@ 7106
husband's 7106
worthy 7103
solution. 7101
heard. 7100
Wood@@ 7099
Tomorrow 7098
concentrated 7096
Rid@@ 7095
110@@ 7094
assistance. 7094
spell 7094
Drizzt 7093
prevented 7092
site. 7092
Tro@@ 7091
B.@@ 7089
Honor 7089
from, 7089
grave 7089
from? 7088
crime. 7086
SC 7084
Ukraine 7084
fications 7084
Gro@@ 7083
to: 7083
ch? 7082
era 7082
Cr@@ 7081
apart. 7078
ning, 7078
where@@ 7078
"They 7077
measure, 7077
motor@@ 7077
both. 7073
dered 7068
If, 7066
branches 7066
commun@@ 7060
Best 7059
tone 7057
CE 7056
institutions. 7056
Royal 7054
occurs 7054
operations. 7054
Hong 7052
enemies 7052
engines 7051
corrective 7050
her! 7050
3% 7049
test, 7049
weapons. 7049
(h) 7047
ing," 7046
civilian 7045
moves 7044
73 7043
Summary 7043
analyses 7043
deal@@ 7043
deeper 7043
expected. 7041
implications 7041
improv@@ 7041
layer 7041
gathering 7040
vertical 7040
creates 7037
elec@@ 7037
ite, 7037
las@@ 7037
Global 7036
flexible 7035
ics. 7035
ond@@ 7035
translation 7034
experience. 7033
employer 7027
"Oh, 7024
Rober@@ 7024
Soon 7024
cold. 7024
essi@@ 7024
do... 7023
engine@@ 7022
cash. 7021
Santa 7020
situated 7020
Pur@@ 7019
consulting 7019
ie, 7019
kitchen. 7019
searched 7019
say... 7018
wishing 7018
cook 7017
pap@@ 7017
'The 7016
ener@@ 7015
found@@ 7014
wn, 7013
century 7012
function@@ 7012
subsidi@@ 7012
ches, 7011
els, 7010
th-@@ 7010
crow@@ 7009
terribly 7008
Fil@@ 7007
Zo@@ 7004
scrap@@ 7004
collaboration 7003
Agricultural 7002
ask. 7002
wed 7002
ars, 7001
shel@@ 7000
cloud 6999
sac@@ 6999
chick@@ 6998
...when 6997
Red@@ 6996
unexpected 6996
rub@@ 6995
CIA 6993
exemptions 6993
stays 6993
are: 6992
aspect 6991
captured 6991
05 6989
twenty-@@ 6986
argu@@ 6983
walk. 6982
Sec@@ 6980
Want 6979
amaz@@ 6979
participated 6978
classes 6976
1994 6975
indicative 6975
TFEU. 6974
dad's 6971
off-@@ 6971
plain 6971
program@@ 6969
winning 6968
tub@@ 6965
floating 6964
alis@@ 6963
directives 6963
7) 6961
sports 6961
ie. 6960
gather 6959
os, 6959
budget. 6958
unfair 6958
economies 6957
T, 6955
charge. 6955
safety, 6955
wa@@ 6953
ture, 6952
laun@@ 6951
confused 6950
acute 6949
Bul@@ 6948
soon, 6947
mur@@ 6946
before@@ 6944
concentr@@ 6944
ultimately 6941
fulfilment 6940
quot@@ 6940
that'll 6940
83 6939
"but 6938
WTO 6938
bly 6938
Dem@@ 6936
brac@@ 6935
craft 6935
ise, 6935
understand@@ 6933
EC) 6932
aps 6931
card. 6931
must@@ 6930
yard 6930
foregoing 6929
heating 6929
eless 6928
cure 6927
particip@@ 6927
55@@ 6926
negoti@@ 6926
(201@@ 6924
rushed 6924
los@@ 6921
alongside 6919
library 6915
Europol 6914
Well@@ 6914
organisations, 6912
projects, 6912
bers 6910
Hom@@ 6909
ships, 6909
Order 6907
ambi@@ 6907
establishments 6905
disabled 6904
Irish 6903
encouraging 6902
Cir@@ 6901
lev@@ 6901
notice. 6901
breath@@ 6900
onic 6900
EF@@ 6899
way... 6899
assured 6898
closest 6898
contends 6898
or-@@ 6898
Tu@@ 6897
66 6895
lands 6895
OK? 6893
survival 6893
batt@@ 6892
ately 6891
cousin 6891
mand@@ 6891
just, 6890
offic@@ 6889
78 6888
Trans@@ 6888
wn. 6888
Lastly, 6887
awfully 6887
board@@ 6887
Clar@@ 6885
Today, 6885
works, 6885
ignored 6884
loose 6884
training. 6883
proposal. 6882
you?" 6882
constructed 6881
limitations 6881
continuation 6880
cool@@ 6880
mechanical 6880
2.1 6879
SC@@ 6877
ter? 6877
wonder@@ 6876
Is@@ 6875
lending 6875
packed 6875
people? 6875
entitlement 6874
harmon@@ 6874
aiming 6873
corruption 6873
exchanges 6872
ol. 6871
ich@@ 6870
14, 6867
rat 6866
touching 6866
(c@@ 6865
worry. 6865
human. 6861
respected 6861
P, 6860
addi@@ 6860
depend@@ 6860
7/EC 6857
child@@ 6857
citizen 6856
river. 6855
(2)@@ 6854
scal@@ 6854
Norwegian 6853
mast@@ 6852
bovine 6851
Article, 6848
le! 6847
marriage. 6847
symbol 6846
Conference 6845
provisions. 6845
Turkish 6843
value, 6843
ther 6842
She'll 6840
apping 6840
laugh@@ 6840
mind@@ 6839
voices 6839
submitting 6838
lines. 6837
ante 6836
farming 6836
hang@@ 6836
painting 6836
sector@@ 6836
sons 6836
sleep, 6835
age? 6834
fun@@ 6832
hood 6832
priest 6832
going? 6831
Notwithstanding 6829
offer. 6829
pac@@ 6828
Sergeant 6826
Cop@@ 6824
Sur@@ 6824
1995 6822
interrupted 6820
research, 6820
Kir@@ 6819
oun@@ 6819
scared. 6819
Wouldn't 6817
cuts 6817
kers 6817
there! 6817
energy, 6816
Ever 6815
Mediterranean 6813
name@@ 6813
wrong@@ 6813
argues 6812
woods 6812
bag. 6811
temp@@ 6810
ides 6809
Business 6807
acknowledged 6807
objectives, 6807
Gentlemen, 6805
There@@ 6805
carb@@ 6804
standards, 6803
tear 6802
account@@ 6800
don't, 6799
imagined 6799
eg@@ 6798
ron 6795
emerged 6793
kil@@ 6793
happens, 6792
northern 6792
shoes 6792
nowhere 6791
shor@@ 6790
analysed 6789
damaged 6789
clouds 6788
girl? 6788
lock@@ 6787
problems, 6786
addresses 6785
focusing 6785
region. 6784
study, 6784
growth. 6783
humanitarian 6782
pe 6781
Arthur 6780
iled 6780
Norway 6778
dreamed 6778
surgery 6775
Land 6774
determin@@ 6774
conversation. 6771
filed 6769
experi@@ 6768
university 6767
Uni@@ 6766
govern@@ 6766
Comm@@ 6764
Mas@@ 6762
document. 6762
escape. 6761
defeat 6760
month, 6760
gently 6758
jac@@ 6758
shoulders 6758
ani 6757
dark@@ 6757
dol@@ 6757
tive@@ 6757
Similarly, 6756
sick. 6756
tickets 6756
risk-@@ 6754
Nov@@ 6753
management. 6752
memor@@ 6752
(a 6750
anda 6749
trade. 6748
Force 6747
lie, 6746
Decree 6745
denied 6745
hesit@@ 6745
folder 6742
aud@@ 6741
England 6739
uring 6739
paint 6738
it?" 6736
ites 6735
Italy, 6734
ers... 6734
tures 6733
Mid@@ 6731
cock@@ 6729
joining 6729
muscle 6729
present, 6728
600 6727
mate. 6727
planted 6727
1% 6726
Young 6726
fal@@ 6725
u, 6723
ino 6721
charging 6720
officer. 6720
st? 6720
ION 6719
quick@@ 6717
Blue 6716
departure 6716
(G@@ 6715
questionnaire 6714
photos 6712
remember? 6711
deck 6710
ude 6710
tries 6709
SS@@ 6707
aching 6707
bathroom 6707
configuration 6705
drag@@ 6705
perfec@@ 6705
Argument 6704
Middle 6702
examples 6702
gear 6702
tivity 6700
Simon 6699
lou@@ 6699
loud 6699
Affairs 6698
angle 6698
groups. 6697
spi@@ 6696
geographic 6694
interrup@@ 6694
Street 6693
warrant 6693
Kim 6690
chances 6690
Otherwise, 6689
granted. 6689
roll@@ 6689
missi@@ 6687
yes 6685
castle 6684
injured 6684
perform@@ 6684
applic@@ 6683
ster. 6683
leav@@ 6682
royal 6681
Dad, 6680
wel@@ 6678
ness@@ 6677
scheme, 6677
agriculture 6674
tunnel 6673
install 6672
ourselves. 6671
government. 6670
level@@ 6669
duty. 6666
os. 6666
sixth 6666
top. 6666
's... 6665
crack@@ 6665
eaten 6664
existed 6663
detect 6662
Jason 6660
carriage 6660
Mis@@ 6659
writ@@ 6659
onal 6658
Shel@@ 6657
needle 6656
reflects 6655
advised 6654
building, 6652
just@@ 6648
network. 6648
gh 6647
again@@ 6646
oli@@ 6644
SO@@ 6643
Trying 6642
acts, 6642
trigger 6642
Product 6641
compare 6641
hell. 6641
avoided 6640
modifications 6640
divorce 6639
killer. 6639
leaning 6639
shit. 6639
ce. 6638
est, 6637
sent@@ 6637
apply, 6636
me," 6636
out! 6635
distortion 6634
desert 6633
escap@@ 6633
tossed 6633
Everything's 6632
promis@@ 6632
oh, 6630
rarely 6630
degrees 6628
demands 6625
Acc@@ 6624
author@@ 6624
enemy. 6623
disappeared. 6620
s.@@ 6618
III, 6615
ick. 6615
"A@@ 6614
combating 6614
lig@@ 6614
scientists 6614
"All 6613
box@@ 6613
hill 6613
periodic 6613
public, 6613
Ha@@ 6612
connection, 6611
lo. 6610
required, 6609
shame 6609
Article. 6608
wish@@ 6608
ized 6607
premium 6607
ture@@ 6607
ultimate 6607
eastern 6606
orange 6606
domain 6605
wait, 6605
shaped 6604
conditional 6603
elderly 6602
selec@@ 6602
Any@@ 6599
belt 6598
hearing, 6598
Haw@@ 6597
trail 6597
systematic 6596
coat 6595
clearing 6594
asc@@ 6593
ISO 6592
Rand@@ 6592
about@@ 6591
occupied 6591
removing 6591
oxygen 6590
damned 6588
aked 6587
forever 6587
ve-@@ 6586
excise 6585
allergic 6583
plane. 6583
present@@ 6583
disputed 6582
wil@@ 6582
Being 6581
bid@@ 6579
9/EC 6578
ist. 6578
ency, 6577
enters 6577
esti@@ 6577
heavily 6577
,5 6576
G. 6576
communic@@ 6576
flav@@ 6576
integrity 6576
Rome 6575
Rod@@ 6574
Standing 6572
Ten 6572
guessing 6572
married, 6572
Johnny 6571
indicator 6571
zones 6571
carries 6570
quar@@ 6570
Industry 6569
productivity 6569
Sarah 6568
bac@@ 6568
dor@@ 6568
Between 6566
ils 6566
ingredients 6565
spot. 6565
dying. 6564
differ 6563
ave 6560
p.m. 6559
birth@@ 6558
ir. 6558
retained 6558
gest@@ 6556
shareholders 6555
surplus 6555
cold, 6554
stairs 6553
wood. 6552
acy. 6551
ailed 6551
lonely 6551
moreover, 6551
period@@ 6551
Click 6550
store. 6550
Tax 6549
Anybody 6548
function. 6547
lin 6547
Thor@@ 6544
Ba@@ 6542
lowered 6542
persist@@ 6542
TO@@ 6541
noble 6541
suc@@ 6540
coal 6538
revenues 6538
"... 6537
Don 6536
slip 6536
Water 6535
food@@ 6533
invest 6533
investigate 6531
character@@ 6530
nu@@ 6530
tell@@ 6529
neuro@@ 6528
ceased 6527
interven@@ 6527
Apparently, 6526
Shar@@ 6526
complementary 6526
Duke 6525
Instead, 6524
educ@@ 6524
nie 6524
reflec@@ 6524
transported 6524
120 6523
Bat@@ 6523
cares 6523
Christ@@ 6522
Prime 6522
clou@@ 6522
pregnant. 6522
variable 6521
Clo@@ 6520
SIS 6519
magical 6519
founded 6518
mix 6518
condition. 6516
Danish 6514
SA 6514
Garion 6511
tonight? 6511
?. 6510
jack@@ 6509
pink 6509
86 6508
Instead 6508
purposes, 6508
Authorisation 6507
Entry 6507
hopes 6507
sand@@ 6507
External 6501
IA 6501
able@@ 6500
skilled 6500
Smith 6499
ascertain 6499
Spain, 6498
"Don't 6497
balls 6497
behavior 6497
price, 6496
Swedish 6495
bit, 6492
incidence 6492
pregnancy 6492
asleep 6490
surface. 6490
'And 6489
gram 6489
see? 6489
patent 6488
speak@@ 6488
routes 6486
Ta@@ 6485
grass 6484
Paper 6482
Remember, 6481
decisions, 6481
provision, 6481
"Is 6480
Accession 6480
begging 6480
trick 6480
Secretariat 6479
tren@@ 6478
Convention, 6477
Z 6477
coherence 6476
Hum@@ 6475
short, 6475
swept 6475
"Yes, 6474
Quality 6474
responded 6473
3/EC 6472
Bec@@ 6472
Suddenly 6472
alarm 6472
projected 6472
ski 6472
ered. 6471
instruments, 6470
lasting 6470
else@@ 6469
reserves 6469
(F@@ 6468
spreading 6467
sums 6466
how@@ 6465
rows 6465
wire 6464
Rol@@ 6463
fied, 6463
preferential 6462
LO@@ 6461
Rus@@ 6461
music. 6461
prisoners 6461
chair, 6460
ga 6460
exist@@ 6459
on-the-spot 6459
Anti-@@ 6458
hook@@ 6458
ghost 6457
ashamed 6456
ences. 6456
connecting 6455
ts? 6455
laugh. 6454
safe, 6454
scare 6454
realised 6452
ica 6450
last, 6450
machinery 6450
Jack. 6447
them! 6446
Test 6445
toler@@ 6445
Governing 6444
hotel. 6444
betrayed 6442
deduction 6442
drinks 6442
04 6441
analy@@ 6440
enabled 6440
end-@@ 6440
executive 6440
Rev@@ 6438
15, 6437
damages 6437
specialised 6435
immune 6433
gent@@ 6432
admission 6430
ders, 6430
below, 6428
hunt 6428
southern 6428
really. 6427
nam@@ 6426
tives 6426
observed. 6425
"Are 6423
sens@@ 6422
Switzerland 6420
Jane 6419
pos@@ 6418
considerably 6417
ens. 6417
(6@@ 6415
95/@@ 6415
ear. 6415
energy. 6415
young, 6415
must've 6414
nat@@ 6414
ato@@ 6413
high. 6413
prison@@ 6413
sky, 6413
Assistance 6411
ance@@ 6411
od 6410
89 6409
Kim@@ 6408
au 6407
Also 6406
dreams. 6406
stone. 6405
Jes@@ 6404
membership 6403
target. 6403
Fundamental 6402
cost-@@ 6402
flag@@ 6402
ment: 6402
threats 6398
Vol@@ 6397
edi@@ 6397
purchasing 6397
demonstr@@ 6396
expor@@ 6395
Half 6394
kilometers 6393
came. 6392
sup@@ 6391
How'd 6390
sampled 6390
ton's 6390
deadly 6389
quietly 6389
Danny 6386
Exchange 6386
minut@@ 6385
constituted 6384
pretending 6384
const@@ 6382
mask 6382
silence. 6382
4.2.@@ 6381
demanded 6381
carri@@ 6379
adopted, 6377
spectrum 6377
teams 6377
warm@@ 6377
Ali@@ 6375
arri@@ 6375
bags 6375
cream 6373
fall. 6372
humans. 6372
p-@@ 6372
wiped 6372
commonly 6370
tail@@ 6370
bank. 6369
di 6368
Mic@@ 6367
more@@ 6367
entail 6366
everyone's 6366
slowly, 6365
Risk 6364
washed 6362
faint 6361
found, 6361
ency. 6360
instant 6360
cheer@@ 6359
ready, 6359
relevant, 6359
,000. 6358
V, 6358
logy 6358
met@@ 6358
organiz@@ 6357
web@@ 6357
exceeded 6356
ity; 6356
pot@@ 6356
device. 6353
wards 6353
se-@@ 6352
smiling 6352
books. 6351
happens. 6351
property. 6351
mystery 6350
valuation 6350
cou@@ 6349
fuck@@ 6348
IP. 6347
Jeff@@ 6347
arrived. 6347
diversity 6347
pigs 6347
.0@@ 6346
trade, 6345
ze. 6345
effec@@ 6344
experience, 6343
breeding 6342
fication. 6342
sou@@ 6342
tend 6342
67@@ 6341
trick@@ 6341
wine. 6340
Stability 6339
Man, 6338
inter-@@ 6338
load@@ 6338
luck@@ 6338
ning. 6338
seats 6338
sun. 6338
achiev@@ 6336
gradu@@ 6336
sed. 6336
CON@@ 6335
by-@@ 6335
employment, 6334
hat 6334
ket@@ 6333
decisi@@ 6332
exposures 6332
limiting 6332
sam@@ 6332
beating 6331
(5@@ 6330
points. 6330
E.@@ 6326
Sparhawk 6326
club. 6326
upstairs 6326
ir, 6323
lan 6323
Sav@@ 6322
enz@@ 6322
len@@ 6322
ation's 6321
diplom@@ 6321
convergence 6320
broader 6318
exchanged 6318
ski@@ 6318
ices 6317
Send 6316
deleted 6316
breast 6315
judg@@ 6315
Jake 6314
dig 6312
forwarded 6312
harm@@ 6312
chronic 6311
fewer 6310
renewed 6309
CA@@ 6308
reli@@ 6308
roads 6308
entr@@ 6307
travel@@ 6307
correc@@ 6305
guests 6305
would, 6305
Cle@@ 6304
negotiated 6304
accounted 6300
breath. 6300
player 6300
Haven't 6299
not... 6297
rop@@ 6296
been, 6295
formally 6295
1/EC 6294
2% 6293
ro 6293
key, 6292
employment. 6291
Ry@@ 6290
happen, 6290
42@@ 6289
incident 6289
knees 6289
1999/@@ 6288
eat@@ 6288
painted 6288
million, 6287
altered 6286
guy? 6285
(H@@ 6284
est. 6284
Sunday 6283
profitability 6283
vis-à-vis 6282
cancel 6281
staff. 6281
ner. 6280
inde@@ 6279
themselves, 6278
Stev@@ 6277
limit@@ 6275
walks 6275
shop. 6274
substantive 6274
bedroom 6273
lives, 6273
fam@@ 6272
state@@ 6272
Met@@ 6271
emphasis 6271
through, 6271
Tran@@ 6270
catching 6270
Registry 6269
characterised 6269
path. 6269
talk, 6269
photo@@ 6268
workers, 6268
factory 6267
kidney 6267
location. 6267
lik@@ 6266
terms, 6266
intermediate 6265
established, 6264
rate, 6264
Vir@@ 6263
coastal 6263
infl@@ 6263
reverse 6263
)0@@ 6260
dragon 6259
Dani@@ 6258
Men 6258
Others 6258
ery. 6257
tongue 6257
answered. 6256
exercising 6256
honour 6256
2(1) 6254
Figure 6254
acquire 6254
associ@@ 6253
bond 6253
dose. 6252
(1)(a) 6251
Carol@@ 6251
fast, 6251
torn 6251
list, 6250
ably, 6249
posts 6249
sister, 6249
exempted 6248
happ@@ 6248
paused 6247
tics, 6245
individually 6244
lay@@ 6244
conflicts 6243
fool@@ 6243
11. 6242
Bob 6242
I'@@ 6242
ving. 6242
95@@ 6241
ual 6241
project, 6240
throat. 6240
Atlantic 6239
ahead, 6239
anci@@ 6238
Ell@@ 6237
coming, 6236
pissed 6236
song. 6236
tree. 6236
pursuit 6234
dra@@ 6233
fies 6233
Using 6232
favourite 6232
prof@@ 6232
cabin 6231
honey. 6229
observ@@ 6228
ships. 6228
sin 6226
ners 6225
visi@@ 6225
Convention. 6224
ake. 6223
weekend. 6223
Ok, 6219
empty. 6216
disclose 6215
dollar 6215
irregularities 6215
3). 6214
uncertainty 6214
alized 6211
transport. 6211
treas@@ 6211
interaction 6210
sed, 6210
claiming 6209
dynamic 6209
support, 6209
Ken@@ 6208
soc@@ 6208
nominal 6206
sted 6205
num@@ 6204
won@@ 6202
un 6201
why, 6201
Pil@@ 6200
daughter's 6200
es), 6200
R&D 6198
actions, 6198
resourc@@ 6198
`@@ 6197
am? 6197
jok@@ 6197
stay@@ 6196
owns 6190
All@@ 6189
pip@@ 6188
tendering 6187
poultry 6185
visiting 6185
walls. 6185
Who@@ 6184
cam@@ 6184
garden 6183
reject 6183
stead@@ 6183
crisis. 6182
whit@@ 6182
investigating 6181
cup@@ 6180
mouth, 6180
spir@@ 6179
EI@@ 6178
ring@@ 6178
"No, 6177
responses 6176
warrior 6176
gentleman 6175
indent 6173
'What 6172
compete 6172
Soci@@ 6170
all-@@ 6170
corridor 6168
Behind 6167
names. 6167
screaming 6167
med. 6166
bridge. 6165
implies 6165
waved 6165
Mus@@ 6164
wage 6164
Shouldn't 6163
suspend 6163
30. 6162
essence, 6162
alle@@ 6161
mood 6161
Cohesion 6156
dies 6156
surpris@@ 6156
feared 6155
Supervisory 6154
micro-@@ 6152
night... 6152
safely 6152
Small 6151
try, 6151
jury 6149
(4@@ 6148
yed 6148
"Then 6147
filter 6147
consequently, 6146
69 6145
Arab@@ 6145
Up@@ 6145
observation 6143
confirms 6141
attributed 6140
authorized 6140
vary 6139
IN 6138
lord 6138
minimal 6138
vers. 6136
airports 6134
accompany 6132
expectations 6132
pret@@ 6130
App@@ 6129
Why, 6129
Start 6128
competing 6128
rag@@ 6126
Emperor 6124
shield 6124
By@@ 6123
ald 6123
someone, 6123
thought@@ 6123
migr@@ 6122
cease 6120
seas@@ 6118
10% 6116
Guys, 6116
2013/@@ 6115
disappear 6115
replies 6115
strength. 6115
eu@@ 6113
ner, 6113
í@@ 6113
"What's 6112
deciding 6111
Green@@ 6110
whispered 6110
b) 6109
confirmation 6109
oppose 6109
renewal 6106
rib@@ 6106
these. 6106
converted 6102
hob@@ 6102
ide, 6102
luck, 6101
Hay@@ 6100
strong. 6100
study. 6100
your@@ 6100
growth, 6097
"I've 6096
They'd 6096
changes. 6095
competences 6095
intelligent 6095
tip 6095
pocket. 6094
trust. 6094
Reg@@ 6093
finger@@ 6093
hurried 6093
worldwide 6093
.12.@@ 6092
Ah@@ 6092
Pu@@ 6092
gged 6091
pace 6090
exhaust 6088
ins@@ 6085
12/@@ 6084
els. 6084
therapy. 6084
exceptions 6083
ics, 6083
flash 6080
origin. 6080
rup@@ 6080
waves 6080
Against 6079
coc@@ 6079
TA 6078
ding. 6078
importation 6078
patients, 6078
specification 6078
advise 6073
administr@@ 6072
pre-filled 6072
beam 6071
/2008 6070
Unit 6070
Vinc@@ 6070
impossible. 6069
posed 6069
profit@@ 6069
2002. 6068
olive 6068
Los 6066
94/@@ 6064
Innovation 6063
Agreements 6062
folded 6062
Move 6061
13, 6060
FOR 6060
Japan 6060
assu@@ 6058
teeth. 6058
presumption 6057
tank 6057
thor@@ 6056
fication, 6055
Admiral 6052
OL@@ 6052
with? 6048
autonomous 6046
800 6045
ity? 6045
poison 6045
poured 6045
Allow 6044
investigated 6044
C_@@ 6043
body? 6043
minim@@ 6043
aks 6042
marri@@ 6041
distinctive 6039
130@@ 6038
{@@ 6038
...he 6034
chair@@ 6034
sar@@ 6034
set, 6034
species. 6034
Py@@ 6033
pays 6032
program. 6032
mark, 6031
ater@@ 6030
provided. 6030
activated 6029
Americ@@ 6028
oph@@ 6028
bum@@ 6027
pled 6026
finished. 6025
meeting, 6024
Sor@@ 6023
people... 6023
suicide 6022
Laur@@ 6021
paediatric 6021
Finland 6020
shouted 6020
alities 6019
lessly 6019
Nick 6017
Tan@@ 6016
dollars. 6016
football 6016
street, 6016
widely 6016
AC 6015
el? 6015
emerg@@ 6014
his. 6014
oring 6014
Home 6013
salary 6011
Gor@@ 6010
chur@@ 6010
pet 6010
coins 6007
tics. 6006
coast 6005
dad, 6004
Germany. 6003
passage 6003
election 6001
get. 6001
C.@@ 6000
Nav@@ 6000
logic 6000
medicine. 6000
multilateral 6000
does, 5999
PRO@@ 5998
observes 5998
ed," 5997
ah. 5996
1:@@ 5994
Private 5994
utilisation 5994
workers. 5994
1998, 5992
ling, 5992
Slo@@ 5989
pile 5989
set@@ 5989
blow@@ 5988
dog@@ 5988
plas@@ 5988
success@@ 5987
ined 5984
wholesale 5983
90/@@ 5982
2007@@ 5979
ker@@ 5979
III. 5978
groups, 5978
operations, 5978
talking. 5978
Mul@@ 5977
Jas@@ 5976
exporter 5976
(L@@ 5975
case-law, 5974
3(2) 5973
cub@@ 5973
holes 5973
nur@@ 5973
EN.01000@@ 5972
Earth, 5972
acts. 5972
notic@@ 5972
reminds 5970
counsel@@ 5969
ff, 5969
(see, 5968
ous? 5968
84 5967
opposed 5967
technology. 5967
Hope 5966
horse@@ 5966
lon@@ 5966
trees. 5966
channel 5965
tour 5965
occasionally 5963
father? 5961
hydr@@ 5961
yourself? 5961
coordin@@ 5960
74 5959
Environmental 5959
document@@ 5959
minus 5959
virtually 5959
instruments. 5958
abilities 5956
alize 5956
enn@@ 5956
boxes 5954
wings 5951
Create 5950
tail 5950
stre@@ 5949
cav@@ 5948
identi@@ 5947
lot@@ 5947
u. 5947
2015. 5946
Washington 5945
speak. 5945
stuff, 5945
where's 5945
20, 5944
Speci@@ 5943
explosion 5943
plea, 5943
weighing 5941
ant's 5940
clam@@ 5940
idi@@ 5939
romantic 5938
vocational 5938
funds. 5937
island. 5937
subheading 5937
impres@@ 5936
need, 5936
has, 5935
residents 5935
Scot@@ 5934
ads 5934
aring 5934
Kelly 5933
interface 5933
levels, 5932
trouble, 5931
2012/@@ 5930
lines, 5930
fold 5929
-and-@@ 5927
Rap@@ 5927
farmer 5927
whether, 5927
deserves 5926
Paris. 5925
coordinate 5925
dwar@@ 5925
numbers. 5925
burn@@ 5923
macroeconomic 5923
oning 5923
read. 5923
Form 5921
th... 5921
30, 5919
ably. 5917
ain, 5917
horse. 5917
job@@ 5917
w's 5917
compensate 5916
300@@ 5913
Set 5912
lined 5910
appreci@@ 5907
Wel@@ 5906
Text 5905
Yu@@ 5905
ate... 5905
drivers 5905
robot 5905
guess@@ 5903
preparatory 5903
still, 5903
ders. 5902
burg 5901
coffee. 5901
Lad@@ 5900
bread 5900
P.@@ 5899
done? 5898
thing... 5897
ion 5896
administrator 5895
guil@@ 5895
stations 5894
amin@@ 5893
e-- 5893
euro@@ 5893
ures. 5893
horror 5892
ma. 5890
qualify 5890
grap@@ 5888
materi@@ 5888
Gri@@ 5887
earn 5887
wai@@ 5887
crum@@ 5886
duties. 5886
respectively. 5886
uses. 5886
want? 5884
staff, 5882
celebrate 5881
ER 5880
Impact 5880
ak, 5879
shopping 5877
Space 5876
erg@@ 5876
radioactive 5876
tower 5875
crack 5874
gran@@ 5874
she? 5873
Final 5872
Roc@@ 5872
Women 5872
ables 5871
schools 5871
EUR@@ 5870
experiences 5868
Euratom 5867
integral 5867
painful 5866
receives 5866
Apparently 5865
contributes 5864
stuff@@ 5864
sacred 5863
command. 5862
fund@@ 5862
17, 5858
disproportionate 5858
hydrogen 5858
move, 5858
sectors. 5858
about... 5857
isolated 5857
Cri@@ 5855
shipping 5855
Roland 5854
honey, 5854
ams 5852
glasses 5851
ills 5851
over-@@ 5851
seal 5851
drank 5850
undertakings, 5850
choice, 5849
integr@@ 5848
patient. 5848
stric@@ 5848
independently 5847
quali@@ 5847
history, 5846
(notified 5845
DR@@ 5845
race. 5845
tag@@ 5845
inland 5844
', 5843
reinsurance 5843
Lee 5842
let, 5842
Tra@@ 5841
bonds 5841
appoint 5840
four-@@ 5840
Sel@@ 5839
devoted 5839
Chin@@ 5838
reception 5838
"Not 5837
crash 5837
tiv@@ 5837
4(2) 5836
emo@@ 5836
firing 5836
blu@@ 5835
fuels 5835
term. 5835
universe. 5835
ACP 5833
Save 5833
illa 5832
truck. 5832
ya. 5832
analysis, 5831
mod@@ 5831
st... 5830
03 5829
Category 5829
Nic@@ 5828
routine 5828
Duncan 5827
Regul@@ 5827
abduc@@ 5827
Max@@ 5824
Q 5824
Why? 5824
organisms 5824
tors, 5824
DG@@ 5823
destroying 5823
require@@ 5823
wealth 5823
Close 5822
a.@@ 5822
buil@@ 5822
serves 5822
council 5820
loyal 5820
turn. 5819
Kor@@ 5818
butter 5818
n? 5818
whole. 5818
assistant 5817
ators. 5816
iness 5815
recei@@ 5815
speaks 5815
members. 5814
new, 5813
Vis@@ 5812
judgments 5812
vaccination 5812
carefully. 5811
cooperation. 5810
Bureau 5809
implic@@ 5809
root 5809
answ@@ 5808
at's 5807
struggle 5807
superior 5807
trends 5806
team, 5805
advisory 5804
dres@@ 5804
elected 5804
undertak@@ 5804
calcul@@ 5803
executed 5803
shorter 5803
Ban@@ 5802
other's 5802
Blood 5801
analys@@ 5800
conducting 5800
satisfaction 5800
Roman 5799
blade 5799
nois@@ 5799
occurrence 5799
AG 5797
Judge 5796
Key 5796
ant? 5796
apparatus 5795
mou@@ 5794
Administration 5793
alling 5793
boy's 5793
first-@@ 5793
sing. 5793
dead? 5792
hurry 5792
Frank@@ 5791
minds 5791
celebr@@ 5790
screwed 5790
behave 5789
Ul@@ 5788
vibr@@ 5788
addres@@ 5787
origin, 5787
paragraph, 5787
resolved 5787
economy, 5785
stating 5785
string 5785
%). 5784
hear. 5784
legs. 5784
visits 5784
prisoner 5782
77/@@ 5781
ach, 5781
operative 5781
Treatment 5778
aine 5778
gram@@ 5778
ss. 5778
audience 5777
away? 5777
shifted 5776
glance 5775
5(1) 5774
al/@@ 5774
Plan@@ 5773
bare 5773
reward 5773
IB@@ 5772
gun, 5772
tte 5772
TS 5771
mom@@ 5770
server. 5770
comb@@ 5769
pel@@ 5769
deposits 5768
Dark 5766
characteristic 5766
rush 5765
rocks 5764
/2009 5763
curren@@ 5763
3rd 5762
Bud@@ 5759
crisis, 5757
society, 5757
1(2) 5756
Doctor, 5756
corrections 5756
inspec@@ 5756
/2004 5754
sea, 5754
atmosphere 5752
stars. 5752
Imperial 5751
ges 5751
(EU@@ 5750
go! 5750
itor 5750
places. 5750
sustained 5750
terminal 5749
tes 5748
tale 5747
cler@@ 5746
Christian 5744
insisted 5744
1: 5743
London. 5742
weekend 5742
Aunt 5741
Directive@@ 5741
contracts, 5741
intensive 5739
privacy 5739
Federation 5738
immunity 5738
p.@@ 5738
six@@ 5738
negotiate 5737
brok@@ 5736
control@@ 5735
(which 5734
Mill@@ 5734
aliz@@ 5734
beneficial 5734
on) 5734
projec@@ 5734
crimes 5733
at-@@ 5732
army. 5731
put@@ 5730
residue 5730
#@@ 5729
call, 5729
ha 5729
lawyer. 5729
visit@@ 5729
exam@@ 5728
leadership 5728
ri 5728
aries, 5726
eigh@@ 5725
naturally 5724
records. 5724
rol@@ 5724
tile 5724
I'm... 5723
TV@@ 5723
re? 5723
Av@@ 5722
rate. 5722
File 5721
liquid@@ 5719
n'@@ 5718
term, 5718
avail@@ 5717
because... 5717
habit@@ 5717
ends. 5715
Up 5714
believe. 5714
modi@@ 5714
tests. 5714
fish. 5713
freely 5713
significance 5713
'il 5712
Father, 5712
simple. 5712
Sher@@ 5710
ever@@ 5709
°C 5709
accept@@ 5708
suggesting 5708
Applications 5705
sectors, 5702
Forgive 5700
asser@@ 5700
economically 5699
ling. 5698
(EUR 5697
MP@@ 5697
promise. 5697
postal 5695
selective 5695
mul@@ 5694
shop@@ 5694
vers@@ 5694
refusing 5693
saw. 5693
accordingly 5692
happiness 5692
producers. 5692
ez@@ 5691
VIII 5689
health@@ 5689
mg/kg 5689
compli@@ 5688
frequent 5688
Croatia 5687
being. 5686
trial. 5685
wear@@ 5685
seized 5684
weaknesses 5684
responsibility. 5683
scor@@ 5683
easy, 5680
funds, 5679
separation 5679
honest, 5678
movie. 5678
tuna 5678
allegedly 5677
ici@@ 5677
container 5675
iling 5674
Eli@@ 5672
e). 5672
traveling 5672
Jesus, 5670
analytical 5670
chemicals 5670
prote@@ 5670
sensi@@ 5667
Declaration 5666
somebody. 5666
3.2.@@ 5665
assumption 5665
complic@@ 5665
CB@@ 5664
ease 5664
assistance, 5663
ff. 5663
nationality 5663
amed 5662
Lord, 5661
comparative 5661
alist 5660
ney, 5660
sustain@@ 5659
Alex 5658
screw 5658
ines. 5657
grandfather 5655
aur@@ 5654
cable 5654
crops 5654
expired 5654
Eurostat 5653
diff@@ 5653
feel@@ 5653
Hard@@ 5652
Saturday 5652
sends 5652
car? 5651
alism 5650
fain@@ 5650
judgment. 5650
Supreme 5649
[2] 5649
agree@@ 5649
Tony 5648
damage. 5648
knows. 5648
sensed 5647
beginning. 5646
crimin@@ 5646
heal@@ 5646
break. 5645
(D@@ 5644
clever 5644
endless 5644
wol@@ 5644
Pot@@ 5642
effects, 5642
fulfilled. 5642
subject-matter 5642
UL@@ 5641
strong, 5640
buck@@ 5639
54@@ 5636
victory 5636
meter 5635
voic@@ 5635
CN@@ 5634
han@@ 5634
solved 5634
marketed 5633
applicant. 5632
listen. 5632
75@@ 5630
COM@@ 5630
fight, 5630
involved, 5630
ell. 5628
revol@@ 5628
50% 5627
Vor@@ 5627
aci@@ 5627
actually. 5627
mighty 5627
seconds, 5627
bell@@ 5626
hitting 5624
chance, 5623
overview 5623
instruc@@ 5622
ap. 5621
bite 5620
ken 5619
TF@@ 5618
Nicole 5617
Document 5614
Language 5614
surviv@@ 5614
Yep, 5613
threat@@ 5613
Imagine 5612
Spe@@ 5612
roof@@ 5612
difficult. 5611
last@@ 5611
shipment 5609
levy 5608
said: 5608
1992 5606
high, 5606
state, 5605
S) 5604
evalu@@ 5604
64@@ 5602
manual 5602
repealing 5601
truth@@ 5601
bid 5600
halfway 5600
deterioration 5599
organise 5599
yours? 5599
MF@@ 5598
Seven 5598
aforementioned 5598
wants. 5598
(3). 5596
suspec@@ 5596
exporters 5594
Som@@ 5593
intra-@@ 5593
cra@@ 5592
mm@@ 5592
journ@@ 5591
Fel@@ 5588
considered, 5588
it-@@ 5587
diplomatic 5585
record. 5585
breakfast. 5584
infections 5584
wag@@ 5584
taken, 5582
Seriously, 5581
chest. 5581
fli@@ 5581
smells 5580
ances, 5579
reaches 5579
run, 5579
quality, 5578
ators, 5577
clue 5577
salt 5577
disrup@@ 5576
hem@@ 5576
phen@@ 5576
76 5575
CF@@ 5575
Import 5575
ler. 5575
serum 5574
Hi@@ 5573
ask, 5573
agreements, 5572
ay? 5571
difference. 5571
exclusi@@ 5571
Lab@@ 5570
ern@@ 5570
pir@@ 5570
strengthened 5570
offences 5569
America, 5568
administration. 5568
happy, 5568
replic@@ 5568
Level 5566
OLAF 5565
textile 5565
NC@@ 5563
ain. 5563
em 5563
experienc@@ 5563
Hungary 5562
relax@@ 5562
OK. 5561
arbitration 5561
hole. 5561
matter@@ 5561
besides 5559
ped@@ 5559
shining 5559
shot, 5559
Kr@@ 5557
different, 5557
seriously. 5557
conduc@@ 5556
member@@ 5556
optim@@ 5556
AF@@ 5555
en-@@ 5555
ised. 5555
wolf 5555
125@@ 5554
simplification 5554
possess 5553
strategy. 5553
bott@@ 5552
whi@@ 5552
ding, 5551
belief 5550
pig 5550
stud@@ 5550
peaceful 5549
Growth 5548
atives 5548
confid@@ 5548
cooking 5547
could@@ 5545
spotted 5545
wasting 5545
tast@@ 5544
Russi@@ 5543
reg@@ 5543
weight. 5542
recruitment 5541
therapeutic 5541
entries 5540
ust 5539
96@@ 5538
sob@@ 5537
inventory 5536
Review 5535
wind. 5535
John. 5534
ancy 5534
invisible 5533
jer@@ 5533
assist@@ 5531
day's 5530
Export 5529
Plus, 5529
ink 5529
something... 5529
fear@@ 5528
swimming 5528
foods 5527
semi-@@ 5527
cooperation, 5526
circul@@ 5525
lesson 5525
think... 5525
wer 5525
disaster 5523
ear 5522
sid@@ 5522
though@@ 5522
complement 5521
witnesses 5521
destroyed. 5519
authorization 5517
begin@@ 5517
bour@@ 5517
cruel 5517
Credit 5516
gentle 5516
ette 5515
venture 5514
De 5513
107@@ 5512
One, 5512
"There 5511
Bob@@ 5511
ised, 5511
pill@@ 5511
therap@@ 5511
Certain 5510
TH@@ 5510
multiannual 5510
leaving. 5509
Brother 5508
Sto@@ 5508
faul@@ 5508
asse@@ 5507
ker, 5507
a; 5506
cameras 5506
Pa@@ 5504
cruci@@ 5504
Mission 5502
prohibit 5502
fir@@ 5501
changed, 5500
insert 5500
parents, 5499
individu@@ 5497
Will@@ 5496
complying 5496
ked. 5496
obligations. 5496
gal@@ 5495
meantime, 5493
ren 5493
vehicles, 5493
nar@@ 5492
18, 5491
Sab@@ 5490
witch 5490
failed. 5489
breath, 5488
lawyers 5488
Daniel 5486
isol@@ 5486
queen 5486
machin@@ 5485
survive. 5485
they'il 5485
vehicle. 5485
Council@@ 5484
canc@@ 5484
gy@@ 5484
Competition 5483
particulars 5483
ware@@ 5482
phas@@ 5481
aled 5480
breakdown 5480
oversight 5480
probability 5480
MA@@ 5478
saying? 5478
trafficking 5478
Princ@@ 5477
Whereas 5477
expand 5477
fan 5477
ounded 5477
slightest 5476
fan@@ 5475
mistak@@ 5475
provisionally 5475
accounts. 5474
frequ@@ 5473
too@@ 5472
broadcasting 5471
my, 5471
novel 5471
gains 5470
roof. 5470
mass@@ 5469
wife? 5469
``@@ 5468
Ve@@ 5466
prime 5466
And... 5465
agu@@ 5465
corrected 5464
Bir@@ 5463
battle. 5462
directory 5462
implementation. 5462
loss. 5461
pharmaceutical 5461
camp. 5460
funeral 5458
risks. 5458
President, 5457
bomb@@ 5457
cheap 5457
custody 5457
r, 5456
scrip@@ 5456
Value 5455
interference 5455
issues, 5455
terror 5455
big@@ 5452
ext@@ 5452
fulfilling 5452
abo@@ 5449
occupational 5449
appeal. 5448
cel@@ 5448
var@@ 5447
4). 5446
"In 5444
files. 5444
ity... 5444
reality. 5443
Cat@@ 5442
news, 5442
usion 5442
77 5441
Communities, 5441
interests. 5441
fashion 5440
bill 5439
maturity 5439
printing 5438
box, 5435
clock 5435
goals 5435
programm@@ 5435
accepting 5434
gate. 5434
something@@ 5434
clothing 5433
handsome 5433
mining 5433
tation 5433
Euro 5432
everywhere 5432
fact. 5432
tank@@ 5432
bru@@ 5431
research. 5431
gging 5430
territory, 5430
base. 5429
Latin 5426
disclosed 5426
peace@@ 5425
wn@@ 5423
Paul@@ 5422
distinguish 5422
language. 5422
priv@@ 5422
initiating 5421
ms. 5421
Lord@@ 5420
address. 5420
assembly 5420
2006@@ 5419
early. 5419
Web@@ 5418
doors. 5418
live, 5417
nom@@ 5417
partnerships 5417
ase. 5416
invented 5416
analysis. 5415
pride 5415
1993 5414
approach@@ 5414
dress. 5414
expansion 5414
undermine 5414
turn, 5413
52@@ 5411
mum@@ 5411
simul@@ 5411
John, 5409
confirmed. 5409
demon 5409
Kur@@ 5408
flowing 5408
ingly. 5408
Justice, 5407
preventive 5407
licensing 5406
lucky. 5406
Southern 5405
pav@@ 5405
government, 5404
tourism 5404
girls, 5403
altern@@ 5402
persons. 5402
Kevin 5401
ent... 5401
tore 5401
reas@@ 5399
perspective 5398
pup@@ 5398
refunds 5398
strain 5398
inst@@ 5397
ys, 5396
inflation 5395
ney. 5394
Choose 5392
hazardous 5392
real, 5392
magnetic 5391
val 5390
democracy 5389
importer 5389
robo@@ 5389
Eddie 5388
acy, 5388
lake 5388
Syn@@ 5387
whe@@ 5387
proves 5386
Long@@ 5385
Ooh, 5385
cleaned 5385
notion 5385
technically 5384
GN@@ 5383
aquaculture 5383
consider@@ 5382
warriors 5382
club@@ 5381
second-@@ 5381
suspen@@ 5381
intense 5380
tain@@ 5380
Sus@@ 5379
mounted 5379
organ 5379
technology, 5378
mate 5377
negotiating 5376
ripped 5376
1999. 5375
he'il 5375
teachers 5375
insur@@ 5372
organisational 5372
Institutions 5371
district 5370
dropping 5370
ments: 5370
Body 5369
fever 5369
lamps 5369
15. 5368
guided 5368
down? 5367
restric@@ 5367
Black@@ 5366
Insurance 5366
clim@@ 5366
applicable. 5365
earlier, 5365
cow@@ 5364
alled 5363
funny, 5362
morn@@ 5362
soul@@ 5362
Whenever 5361
fax 5361
residual 5361
vegetables 5361
consumers. 5360
pow@@ 5359
brief@@ 5358
e.@@ 5357
eye, 5357
adversely 5356
patterns 5356
attracted 5354
Budd@@ 5349
ICT 5349
ms, 5349
sym@@ 5349
risk, 5348
Korea 5346
O. 5346
children's 5345
pharmacist 5345
ank 5344
Mem@@ 5343
forcing 5343
Unlike 5342
ically, 5342
Some@@ 5341
farther 5341
he, 5340
living. 5340
non-compliance 5340
nose. 5340
Hell@@ 5339
approach. 5339
offset 5339
page. 5339
professionals 5339
characters 5338
lessons 5338
1.1 5337
Guarantee 5337
[1] 5336
grim@@ 5336
delays 5335
get@@ 5334
ji@@ 5334
chlor@@ 5333
notifications 5333
recep@@ 5333
sign. 5333
breathe 5332
disease, 5331
picture. 5331
scenario 5328
shortly 5328
inger 5327
computers 5326
Wa@@ 5325
framework. 5325
train. 5324
's@@ 5322
deals 5322
parked 5322
fingers. 5320
password 5320
packages 5319
Ann@@ 5318
Maximum 5318
cap 5318
compar@@ 5318
paper, 5318
China, 5317
infec@@ 5317
scattered 5317
ass, 5316
liv@@ 5315
proportion@@ 5315
tains 5315
anticipated 5314
national, 5314
veget@@ 5314
vice 5314
violation 5314
gang 5313
dict@@ 5311
Institute 5309
appropri@@ 5309
afternoon, 5308
eness 5308
convic@@ 5307
organisations. 5307
thre@@ 5307
Cour@@ 5306
engineering 5306
wholly 5306
supplement 5305
administrations 5304
ailing 5304
...it 5303
sed@@ 5303
art. 5302
Steve 5301
ambitious 5300
es-@@ 5299
church. 5298
belong@@ 5297
ing?" 5297
tors. 5297
ens, 5296
compani@@ 5295
specul@@ 5295
spatial 5293
honestly 5292
Lim@@ 5291
dinner, 5291
dre@@ 5291
shortcomings 5291
thy 5291
shots 5290
ading 5288
bles 5288
berg 5286
bud@@ 5286
depos@@ 5286
siz@@ 5286
versions 5286
whole, 5286
validation 5285
Said 5284
instructed 5284
mail@@ 5284
ESMA 5283
posi@@ 5283
Pic@@ 5281
oblig@@ 5281
excit@@ 5280
peak 5280
safeguards 5280
seen, 5280
my. 5279
answer, 5278
excep@@ 5278
swallowed 5278
brake 5277
itting 5277
season 5277
replac@@ 5276
stops 5276
sure@@ 5276
text@@ 5276
brigh@@ 5275
tam@@ 5275
everybody. 5274
(8) 5273
agreements. 5273
attract 5273
diver@@ 5273
elle 5273
ya, 5273
tour@@ 5272
wast@@ 5272
ake, 5271
lamp 5270
sir@@ 5270
produces 5268
boats 5267
wed@@ 5267
confident 5266
hell@@ 5265
kind, 5264
...as 5263
Way@@ 5262
back! 5262
collateral 5262
Division 5261
ears. 5261
proc@@ 5261
classi@@ 5260
Sou@@ 5259
option. 5259
worth@@ 5259
(iii) 5256
simultaneously 5256
ted@@ 5254
56@@ 5253
Look@@ 5253
Main 5253
anyone, 5253
disorders 5252
plain@@ 5252
shiel@@ 5252
d) 5251
atic@@ 5250
breaks 5250
Loc@@ 5249
presents 5249
would. 5249
indirectly 5248
ward@@ 5248
corpor@@ 5247
crying 5247
hospital, 5247
m? 5247
tted 5247
answering 5246
intr@@ 5245
one! 5245
understand? 5245
utterly 5243
Year 5242
Ji@@ 5241
irregular 5241
med, 5241
skin, 5241
ace, 5240
addic@@ 5240
alise 5240
h... 5240
abs@@ 5239
birthday. 5239
occasion 5239
Ang@@ 5238
Kell@@ 5238
timing 5238
regions. 5237
16, 5235
suited 5235
assets, 5234
fortune 5234
Var@@ 5233
aying 5233
interrog@@ 5233
terms. 5233
impressed 5232
Initi@@ 5231
aggregate 5231
wizard 5231
corner. 5230
Rab@@ 5229
adds 5229
torture 5229
cad@@ 5227
bod@@ 5226
applicability 5225
ished. 5225
kets 5225
kin 5225
mit@@ 5225
Church 5224
'It 5223
bitter 5223
interfere 5223
luc@@ 5223
furn@@ 5222
have? 5222
joy 5222
success. 5222
tackle 5222
Active 5221
cattle 5221
suit. 5221
Auditors 5220
assass@@ 5218
conven@@ 5218
prince 5218
Enter 5216
for... 5215
off? 5215
subjected 5215
Meanwhile, 5214
TV. 5214
Tru@@ 5214
metres 5214
also, 5213
hoc 5213
Dex@@ 5211
prolonged 5211
ridiculous 5211
vide@@ 5211
2nd 5210
sion@@ 5210
Recital 5209
creative 5209
polic@@ 5209
close, 5208
missions 5208
Excell@@ 5207
paren@@ 5207
Protocol. 5206
ment) 5206
pricing 5206
star. 5206
terrorism 5206
2009@@ 5205
Ireland, 5205
assault 5205
feature 5205
rick 5204
blown 5203
cave 5203
killed, 5203
remain@@ 5203
screen. 5203
Chairman 5202
Susan 5202
criteria, 5202
lying. 5202
manifestly 5202
It'd 5201
River 5201
entitlements 5201
delicate 5199
mono@@ 5197
stranger 5197
advice. 5196
defines 5196
ally@@ 5194
approach, 5194
stock@@ 5194
deli@@ 5193
Programme. 5192
replacing 5192
uro@@ 5192
Description 5191
ails 5191
Government, 5190
ashed 5189
clothes, 5189
suspici@@ 5189
age... 5188
operates 5188
Sub-@@ 5187
Technology 5187
ana. 5187
reservation 5187
79@@ 5186
appe@@ 5186
imagin@@ 5186
knowledge, 5185
sequ@@ 5184
situ@@ 5184
missile 5183
non 5183
operators, 5183
101 5182
Statement 5182
gain@@ 5182
static 5181
ita 5180
draws 5179
worn 5179
electro@@ 5178
13. 5177
reports, 5177
knife. 5176
framework, 5175
reflecting 5175
school? 5175
Cul@@ 5174
stin@@ 5174
brand 5173
replied, 5172
programs 5170
py@@ 5170
Statute 5169
adm@@ 5169
ea@@ 5169
phy@@ 5169
progress. 5169
pipe 5167
Bay@@ 5166
defend@@ 5166
anxi@@ 5165
clean. 5165
deadlines 5164
seventh 5163
would@@ 5162
physically 5161
4.4). 5160
sist@@ 5160
One@@ 5159
choic@@ 5159
egg 5159
Bab@@ 5158
ome 5157
provision. 5157
town@@ 5157
ums 5157
13.@@ 5156
inappropriate 5156
proposal, 5156
58@@ 5155
len 5155
together? 5154
tradition 5154
mirac@@ 5153
renew@@ 5152
4.2 5151
deleted. 5151
s,' 5151
C_201@@ 5150
explore 5150
Countries 5149
ep 5149
said... 5149
approximation 5148
most. 5148
return, 5148
best, 5147
demon@@ 5147
igh@@ 5147
Shut 5146
aming 5146
cooper@@ 5146
structured 5145
terminate 5145
Kate 5144
somebody's 5144
(a), 5143
Environment 5143
analyse 5143
hall. 5143
bathroom. 5142
Medical 5141
ano 5141
matches 5141
graphic 5140
Friday 5139
credit@@ 5139
respectively, 5139
non-discriminatory 5138
mechan@@ 5137
muscles 5136
ingly, 5135
nasty 5135
Law@@ 5134
propos@@ 5134
drugs. 5133
gazed 5133
signals 5131
terri@@ 5130
Key@@ 5129
deduc@@ 5129
Contact 5128
unit. 5128
contracts. 5127
duty, 5127
Nick@@ 5126
chocolate 5126
considerations, 5126
ones, 5126
all... 5125
jobs. 5124
baseline 5122
imit@@ 5122
port@@ 5122
as? 5121
boys, 5121
challenged 5120
thorough 5120
Greg@@ 5119
members, 5118
otherwise. 5118
Gun@@ 5117
At@@ 5116
citizens. 5116
distortions 5116
generic 5116
atten@@ 5115
criteria. 5115
ok. 5114
outlined 5114
cigarette 5113
discussing 5113
influenced 5113
2008@@ 5112
database. 5112
event@@ 5112
stimulate 5112
assignment 5111
Jim@@ 5108
amounting 5108
orient@@ 5108
affair 5107
joke 5107
score 5107
detective 5106
fif@@ 5106
neighbouring 5106
Brad@@ 5105
fy, 5105
ath. 5104
calculations 5104
step. 5104
tube 5104
ism, 5103
white, 5103
quarters 5102
second@@ 5101
recycling 5100
undertaking, 5100
drink, 5099
roughly 5099
spar@@ 5099
Hen@@ 5098
chase 5098
industries 5098
rubber 5098
fires 5097
confer 5096
decor@@ 5096
pleasure. 5096
suspicious 5096
tis@@ 5096
authori@@ 5095
blan@@ 5095
ence? 5094
blowing 5093
reinforced 5093
Fa@@ 5092
auto@@ 5092
special. 5092
Ax@@ 5091
administration, 5090
permanently 5090
record, 5090
what. 5090
...I'm 5089
Eth@@ 5089
Nah, 5089
Pacific 5089
atively 5089
equival@@ 5089
ket. 5089
surve@@ 5088
annul@@ 5087
Netherlands, 5086
pot 5086
versus 5086
foot. 5085
quickly, 5085
Fore@@ 5083
file, 5081
10,000 5080
undue 5080
100% 5079
(with 5078
France. 5078
eager 5078
world... 5078
dul@@ 5077
region, 5077
accidents 5076
destined 5076
aster@@ 5075
ately. 5075
implemented. 5075
novel@@ 5075
op 5075
two@@ 5075
avir 5074
company's 5074
listen@@ 5074
tide 5073
[3] 5072
alization 5072
manner, 5072
proving 5072
neighbour@@ 5071
washing 5071
Apart 5069
forc@@ 5069
truck@@ 5069
20. 5068
MR@@ 5068
y?" 5068
Notes 5067
undertakings. 5066
called. 5063
property, 5063
G, 5062
ands 5062
material. 5062
referen@@ 5062
ona 5061
react 5061
mm. 5060
twice. 5060
appointing 5059
consumed 5059
gas, 5059
mas@@ 5059
underground 5059
approv@@ 5058
confined 5058
daddy 5056
School 5055
Tw@@ 5055
AP 5053
pus@@ 5053
defe@@ 5052
drive. 5052
freez@@ 5052
plo@@ 5052
fluid 5051
00. 5049
assets. 5049
try@@ 5049
aqu@@ 5047
illing 5047
pati@@ 5047
distort 5046
nervous. 5046
Agree@@ 5045
Belgium, 5044
Super@@ 5044
opportunity. 5043
slaughter 5043
embarrassed 5042
ended, 5042
sheets 5042
doctor@@ 5041
play, 5041
Nar@@ 5040
dream, 5040
ou 5040
exploit 5039
intra-Community 5039
Sum@@ 5038
organized 5038
amounted 5037
exemp@@ 5037
print@@ 5037
attitude 5036
intravenous 5035
scrutiny 5034
76@@ 5033
Lor@@ 5033
ashes 5032
co, 5032
coordinating 5032
dur@@ 5031
feeling. 5031
procedure@@ 5031
survi@@ 5031
Gab@@ 5030
bell 5030
m... 5030
orial 5030
code. 5029
victim. 5029
It@@ 5027
users. 5027
Hellenic 5025
market@@ 5025
Indic@@ 5024
demonstration 5024
scen@@ 5024
believing 5023
beloved 5023
cannot, 5022
document, 5022
Prepare 5021
evaluating 5021
least. 5021
ines, 5020
79 5019
aun@@ 5019
centuries 5018
mineral 5018
beef 5017
freezing 5017
mac@@ 5017
/2003 5016
Tob@@ 5016
subsidiarity 5016
China. 5015
Told 5015
Ze@@ 5015
explaining 5014
Certificate 5013
fled 5012
glass. 5012
Ak@@ 5010
desired 5010
bears 5009
materials, 5009
orders, 5009
Russians 5008
delayed 5008
ever, 5006
laz@@ 5006
new. 5006
rage 5006
turn@@ 5006
Anna 5005
lob@@ 5005
red-@@ 5005
(i@@ 5004
ple 5004
that," 5004
Forget 5003
PD@@ 5003
fly. 5003
Cyprus 5002
shirt. 5001
L, 5000
Ron@@ 5000
substance, 5000
uncertain@@ 4999
http://@@ 4998
letter. 4998
profession@@ 4998
brains 4997
ordering 4997
Aud@@ 4996
swor@@ 4996
terrible. 4996
traded 4996
Surely 4995
Training 4995
complexity 4995
surgery. 4995
thresholds 4995
undoubtedly 4995
Larry 4994
exists. 4993
have@@ 4993
round@@ 4993
Ital@@ 4992
Jer@@ 4992
population. 4992
Gard@@ 4991
Sustainable 4991
mom, 4991
parts. 4991
pay. 4991
EUR-Lex 4990
Mod@@ 4990
ities 4990
nerve 4990
DO@@ 4989
avian 4987
hearing. 4987
registr@@ 4987
Lang@@ 4986
aches 4986
such, 4986
theat@@ 4986
evil. 4984
Bill@@ 4983
foregoing, 4983
King@@ 4982
ara 4982
infringement. 4982
brand@@ 4981
Enterprise 4980
Strategic 4980
ach. 4980
ets 4980
owed 4980
ny, 4979
struggled 4979
EEC. 4976
bag@@ 4976
clarity 4976
reck@@ 4976
yesterday, 4976
ger. 4975
Stu@@ 4974
deleg@@ 4974
Squ@@ 4973
com 4973
uk@@ 4973
clinically 4972
servant 4971
traders 4971
ty-@@ 4971
NR@@ 4970
Park 4970
chem@@ 4969
steering 4969
IX 4968
ist, 4968
pursu@@ 4968
favour@@ 4967
influenza 4967
large, 4967
appear@@ 4965
divide 4965
architec@@ 4964
lately. 4964
pray@@ 4964
reality, 4964
nodded, 4963
relies 4963
smart, 4963
ny. 4961
smelled 4961
customers. 4960
mes@@ 4960
researchers 4959
shr@@ 4959
stopped, 4959
effective, 4958
ail. 4957
beast 4957
object. 4954
(1 4953
R, 4953
adolescents 4953
ving, 4953
accepted. 4952
somehow. 4952
terminated 4952
width 4952
wheel@@ 4951
(7@@ 4950
antly, 4948
tend@@ 4948
ther. 4948
transformation 4948
hungry 4947
g/@@ 4946
Medicinal 4945
dragging 4945
fulfils 4945
hazard 4945
84@@ 4944
Digital 4943
assi@@ 4942
compound 4941
ll 4940
Jessica 4939
Marsh@@ 4939
caution 4938
XX@@ 4937
channels 4937
simplify 4936
Conclusions 4935
feelings. 4935
stresses 4935
Es@@ 4934
C(200@@ 4933
System@@ 4933
Upon 4933
York, 4933
Est@@ 4932
stare 4932
ley's 4931
machines. 4931
General, 4930
Audit 4929
frag@@ 4929
investment. 4928
show, 4928
tracks 4928
affairs 4927
tor's 4927
weigh@@ 4927
kne@@ 4926
return@@ 4925
row, 4924
unlimited 4924
Commun@@ 4923
defen@@ 4923
economic, 4923
3.2 4921
Among 4921
concession 4921
expect@@ 4921
partners. 4920
Advocate 4919
lasted 4918
objective, 4918
demonstrating 4917
five. 4917
Chamber 4916
triggered 4916
Tel@@ 4915
travelling 4915
agent. 4914
infringement, 4914
powers. 4914
Rachel 4913
disk 4913
posing 4913
wash@@ 4913
approval. 4912
his/her 4912
int 4912
thank@@ 4912
firmly 4911
ared. 4909
debtor 4909
eyed 4908
results, 4908
envelope 4907
Programme, 4906
broadcast 4906
distance. 4906
attempts 4905
fair. 4905
bar, 4904
fatal 4904
supplemented 4904
dynam@@ 4902
talent 4902
Jon@@ 4901
after. 4901
imply 4901
consideration. 4900
strange, 4900
Read 4899
arbitr@@ 4899
concern. 4899
statement. 4899
contacted 4898
Brit@@ 4897
consumers, 4897
cycl@@ 4897
performance. 4897
Ray 4896
Regarding 4896
enter@@ 4896
bars 4895
concep@@ 4895
herself, 4893
ore@@ 4893
1997, 4892
Education 4892
accustomed 4892
appli@@ 4892
character. 4892
oldest 4892
properly. 4892
CO2 4891
broken. 4891
vag@@ 4891
Payment 4890
win, 4890
Inspec@@ 4889
de-@@ 4889
desperately 4889
53@@ 4887
effective. 4887
/2007 4886
exhausted 4886
genetically 4885
subject. 4885
die? 4884
yield 4884
applied, 4883
chop@@ 4883
rightly 4882
} 4882
Poland, 4881
ity-@@ 4881
patient@@ 4881
Mol@@ 4880
back... 4879
e" 4879
SME 4878
forecast 4878
sheep 4878
lum@@ 4877
nes@@ 4876
stun@@ 4876
subsidiaries 4876
Aviation 4874
ek@@ 4874
cm 4873
surrender 4872
TO 4871
obstacle 4871
crush 4870
sourc@@ 4870
managers 4869
sphere 4869
CL@@ 4868
gin 4868
vanished 4868
same, 4867
consumption. 4866
curse 4866
deter@@ 4866
feed@@ 4866
thoughts. 4866
young. 4865
ä@@ 4865
notifying 4864
tory 4864
Operation 4863
deliberately 4863
Current 4862
added. 4861
is: 4861
satisfied. 4861
acqui@@ 4860
books, 4860
suits 4860
vers, 4860
running. 4856
Cases 4855
century. 4855
rs 4855
sex, 4855
ap 4854
continuously 4854
trees, 4854
challenging 4853
illness 4853
invalid 4853
sail@@ 4853
short-@@ 4852
49@@ 4851
escort 4851
execute 4851
clin@@ 4850
m-@@ 4850
there'll 4850
Procedure, 4849
depres@@ 4849
productive 4849
yer 4848
Hop@@ 4847
weapons, 4846
(4), 4845
une 4845
Infrastructure 4844
ender 4844
further. 4844
review. 4844
sters 4844
unrelated 4844
ation). 4843
inherent 4842
recipients 4842
Navy 4841
angry. 4841
inj@@ 4841
change@@ 4840
highlighted 4839
permissible 4839
single-@@ 4839
Conf@@ 4838
histor@@ 4838
wounds 4838
Alice 4837
ements 4837
eternal 4837
safer 4837
sometimes. 4836
prevents 4835
Annex, 4834
free, 4834
jacket 4833
failure. 4832
lips. 4831
asleep. 4830
ese, 4830
formula 4829
meet@@ 4829
Lil@@ 4828
ana, 4828
mean... 4828
songs 4828
blind@@ 4827
ush@@ 4827
tension 4826
USA 4825
again... 4825
review, 4825
sake, 4825
flat@@ 4824
unfounded. 4824
practices. 4823
said? 4823
shed 4823
59@@ 4822
AV@@ 4822
Brand@@ 4822
guar@@ 4822
much@@ 4822
passes 4822
univer@@ 4822
dosage 4821
e/@@ 4821
\@@ 4820
born, 4820
dividends 4820
fucked 4820
street@@ 4820
consequence, 4819
partner. 4819
slowly. 4818
ded, 4817
ned. 4816
threaten 4816
rape 4815
sword. 4815
ws, 4815
dairy 4814
ize 4814
silly 4814
ump 4814
Harry, 4812
People's 4812
lean 4812
tives, 4812
years... 4812
experimental 4811
magic. 4811
8(2) 4810
DS@@ 4810
oil@@ 4810
Correc@@ 4809
ze, 4809
20% 4808
Sam, 4808
User 4807
de? 4807
facts. 4807
gold. 4807
ony 4807
paid. 4807
team@@ 4807
varieties 4806
ver? 4806
Surveillance 4805
comparing 4804
deaths 4804
disgu@@ 4804
stairs. 4804
cell. 4803
chees@@ 4803
stimul@@ 4803
Society 4802
desk, 4802
quiet. 4802
NE@@ 4801
Region 4801
effected 4801
eled 4801
%2 4800
engagement 4800
holiday 4800
ical, 4800
specific@@ 4800
anti-competitive 4799
cord@@ 4799
eries 4799
medium-term 4799
relieved 4799
abandon 4798
bitch 4797
garden@@ 4797
portfolio 4797
tric@@ 4797
Sir@@ 4796
stop, 4796
opens 4795
ound 4795
...which 4794
justice. 4794
Offic@@ 4793
unpleasant 4793
Tommy 4792
known, 4792
Charlie, 4791
Hungarian 4790
awak@@ 4790
B-@@ 4789
Scheme 4789
busy. 4788
Protocol, 4787
ridiculous. 4787
distinc@@ 4786
Instrument 4784
ence... 4784
gradual 4783
te, 4782
wood, 4782
ston 4781
boring 4780
bothering 4780
15.@@ 4779
has@@ 4779
Ale@@ 4778
guns. 4778
delay. 4776
Sm@@ 4775
mad. 4775
friend? 4774
since, 4774
visit. 4774
writing. 4773
ance? 4772
capacity. 4772
other? 4772
disappointed 4771
confers 4770
parental 4770
summer. 4770
Inst@@ 4769
gly@@ 4769
again! 4768
choosing 4768
typically 4768
academ@@ 4767
ned, 4766
amm@@ 4765
ty? 4765
Princess 4764
accounts, 4764
foundation 4764
reports. 4762
ster, 4762
erec@@ 4761
grad@@ 4760
reported. 4760
Deputy 4759
absorbed 4759
additives 4759
cough@@ 4759
st-@@ 4758
keys. 4757
ago... 4756
y). 4756
Kel@@ 4755
chief@@ 4755
native 4755
2001. 4754
common@@ 4754
skill 4754
species, 4754
moment@@ 4753
trip. 4753
Something's 4752
L_@@ 4751
aker 4751
flower 4751
menu 4751
forty 4750
diagno@@ 4749
duties, 4749
mom's 4749
Chris 4748
ade, 4748
rope 4748
slave 4746
10-@@ 4745
feel. 4745
plans, 4745
Comp@@ 4744
nuts. 4744
[4] 4743
km 4743
let. 4743
HC@@ 4742
events, 4742
pper 4742
provid@@ 4741
above-mentioned 4739
extrac@@ 4738
stressed 4738
te. 4738
ere 4737
phosp@@ 4737
Emily 4736
Peter, 4735
ordin@@ 4735
priest@@ 4735
ples 4734
reti@@ 4734
reliability 4733
...was 4732
green@@ 4732
size. 4732
impaired 4730
undertaking. 4730
Fal@@ 4729
dining 4729
lifting 4729
narrow@@ 4729
planet@@ 4729
ases 4728
type, 4728
PC 4727
favor@@ 4727
interval 4727
motiv@@ 4727
names, 4727
dep@@ 4726
Govern@@ 4725
Team 4725
immigration 4725
manu@@ 4725
suddenly, 4725
happen? 4724
shoes. 4724
Marine 4723
pressure. 4723
search@@ 4723
cotton 4722
induc@@ 4722
childhood 4721
oriented 4721
ound@@ 4721
No! 4720
college. 4720
consult@@ 4720
tion) 4720
coll@@ 4719
loyalty 4719
rey 4719
soli@@ 4719
J 4718
pursuing 4718
slav@@ 4718
stret@@ 4718
of-@@ 4717
Rural 4716
distinguished 4716
friendship 4715
generous 4714
changes, 4713
lady, 4713
bran@@ 4712
guard. 4712
module 4711
prints 4711
Gray@@ 4710
famili@@ 4710
scream 4710
Honestly, 4709
choices 4709
re's 4709
Amy 4708
L_201@@ 4707
objective. 4707
ver's 4707
Eri@@ 4706
biocidal 4706
rot@@ 4706
're 4705
infring@@ 4705
irrelevant 4705
spy 4705
ting@@ 4705
transportation 4705
west. 4705
faces. 4704
dimensions 4703
Marc@@ 4702
ber. 4702
delivering 4702
family's 4702
a," 4701
advances 4701
arises 4701
hurting 4701
photograph@@ 4701
Bell@@ 4700
compet@@ 4700
lighting 4700
opened. 4700
remainder 4700
sound. 4700
terrified 4700
Count 4699
equivalence 4699
needed, 4699
"No 4698
crop 4698
dollar@@ 4698
attorney 4697
driver's 4697
ended. 4697
limited. 4697
bothered 4696
gall@@ 4696
hero. 4696
Adam 4695
Len@@ 4695
amend@@ 4695
country's 4695
iv@@ 4695
life's 4695
smar@@ 4695
seated 4694
Oh@@ 4692
factors, 4692
retention 4692
obey 4691
TSI 4690
police, 4690
village. 4690
events. 4689
iss 4689
offence 4689
sting 4689
Cub@@ 4688
Haplo 4688
marsh@@ 4688
nearby 4688
1.2 4687
consistently 4687
otic 4687
somewhere, 4687
absorption 4686
accordingly, 4686
corp@@ 4686
faithful 4686
stream@@ 4686
something's 4685
2(2) 4684
Statistical 4684
tively 4684
arguing 4683
implementation, 4683
Evaluation 4682
airport. 4682
fault, 4682
sank 4681
speed@@ 4681
ck 4680
fear, 4680
big. 4679
cla@@ 4679
ke's 4679
newspaper 4679
Nik@@ 4678
cats 4675
stic 4675
Att@@ 4674
committees 4673
proposing 4673
Hou@@ 4672
connection. 4672
render 4671
repealed. 4671
(9@@ 4670
13/@@ 4670
Orders 4670
proper@@ 4670
shoot@@ 4668
gen 4667
king@@ 4667
ter... 4667
captain. 4665
matters, 4665
victim@@ 4665
boots 4664
increas@@ 4664
solvent 4664
auc@@ 4662
buff@@ 4662
crew. 4662
Governments 4661
career. 4661
hearts 4661
vitro 4661
Tol@@ 4660
,I'm 4659
Colum@@ 4659
traces 4659
cells. 4658
crowded 4658
flash@@ 4658
tribunal 4658
vegetable 4658
Monsieur 4656
ences, 4656
secretary 4656
bottles 4655
Buil@@ 4654
L.@@ 4654
aling 4654
insured 4653
Bun@@ 4651
eling 4651
mouse 4651
targeting 4650
30.@@ 4649
helpful 4649
Wr@@ 4648
careful. 4648
glass@@ 4648
resist 4648
desper@@ 4647
build@@ 4646
joke. 4646
transnational 4646
useless 4646
A/@@ 4643
walls, 4643
-in-@@ 4642
Baltic 4641
capacity, 4641
drives 4641
ED 4640
have... 4640
hold@@ 4640
Yes 4639
kissing 4639
systematically 4639
technique 4639
Laure@@ 4638
That@@ 4638
Clark 4637
cru@@ 4636
68@@ 4635
eria 4635
invested 4635
logi@@ 4635
ma, 4635
shir@@ 4635
posted 4634
profession 4634
"When 4633
1990 4633
embar@@ 4633
spon@@ 4633
°@@ 4633
sak@@ 4632
sne@@ 4632
a." 4631
crystal 4631
discus@@ 4631
ino@@ 4631
Men@@ 4630
away@@ 4630
fun, 4630
margin@@ 4630
material, 4630
strange. 4630
ys. 4630
lo, 4629
presid@@ 4629
stupid@@ 4629
surprised. 4629
Ow@@ 4628
Pretty 4628
enforce 4627
wish. 4627
moving. 4626
inadmissible 4625
ory. 4625
pretty. 4625
plenary 4624
Jacob@@ 4623
bowed 4623
importing 4623
fresh@@ 4622
touch@@ 4622
verse 4622
glowing 4621
capital. 4620
shoulder, 4620
wine, 4620
Germans 4619
idiot 4619
peri@@ 4619
King's 4618
F) 4616
wipe 4616
Son@@ 4615
demanding 4614
ry? 4614
snapped 4614
Detailed 4613
me?" 4613
promo@@ 4613
City. 4612
Fourth 4612
full-@@ 4612
margins 4612
spectac@@ 4612
Thus 4611
2014/@@ 4610
lease 4610
miracle 4610
dies. 4609
14. 4608
Afric@@ 4608
crashed 4608
cumulative 4608
well... 4608
Pleas 4607
gut@@ 4607
milk. 4607
Na@@ 4606
abroad 4606
accur@@ 4606
backup 4606
exciting 4606
Representative 4605
eration 4605
pit@@ 4605
pity 4605
patrol 4604
dian 4603
drops 4603
forestry 4603
lord@@ 4603
(Case 4602
16.@@ 4602
essence 4602
justi@@ 4602
ats. 4601
bes@@ 4601
craz@@ 4601
weight, 4601
ids. 4600
ign@@ 4600
it's... 4600
letter, 4599
briefly 4598
tram@@ 4598
Gold@@ 4596
Brim 4595
prosecution 4595
thum@@ 4595
Alb@@ 4594
abilities. 4594
bucks 4594
flame 4594
walk@@ 4594
Integrated 4593
Walter 4593
vest@@ 4593
zed. 4593
whist@@ 4592
Christmas. 4591
additive 4591
evident 4591
(2 4590
Kin@@ 4590
Marketing 4590
Search 4590
cancer. 4590
sequence 4590
constitu@@ 4588
2015, 4587
Commissioner 4587
barrier 4587
ey. 4586
stake 4586
ved. 4586
years? 4586
Chicago 4585
check. 4585
Austria, 4584
beach. 4583
concomitant 4583
gases 4582
personality 4582
Iran 4581
rubbed 4581
Arch@@ 4580
cere@@ 4579
teen 4579
2: 4578
steps. 4577
ress. 4576
Capital 4574
Grant 4574
ory, 4574
trap 4574
raped 4573
expense 4572
conscious 4571
promoted 4571
the-@@ 4570
weir@@ 4570
colored 4569
ler, 4569
udd@@ 4569
dil@@ 4568
event. 4568
suspicion 4568
eren@@ 4567
invoice 4567
powered 4567
stumbled 4567
concern@@ 4566
rever@@ 4566
chim@@ 4565
Hell, 4564
digging 4564
Industrial 4563
ancillary 4563
blocked 4563
minimise 4563
(not 4562
ab 4562
dog, 4562
smile, 4562
Hav@@ 4561
le: 4561
Book 4560
differently 4560
find. 4560
21.@@ 4559
Roma 4559
response. 4559
Log@@ 4558
undergo 4558
woods. 4558
foreseeable 4557
rest, 4557
D) 4556
Doctor. 4556
erred 4556
etc.) 4556
uses, 4556
wav@@ 4556
Sul@@ 4555
al: 4555
borrowed 4555
exist, 4555
station, 4555
Alfred 4554
ger, 4554
well? 4554
h? 4553
recognises 4553
attended 4552
kins 4552
Tam@@ 4551
complete. 4551
repay 4551
Hand@@ 4550
What@@ 4550
blocking 4550
Asian 4549
okay@@ 4549
specifies 4549
194@@ 4548
consul@@ 4548
devil 4548
remarkable 4548
super 4548
with... 4547
Finance 4545
nick@@ 4544
ot. 4544
came, 4543
class, 4543
establish@@ 4543
frustr@@ 4543
Elizabeth 4542
elections 4542
pants 4542
officer, 4539
Ka@@ 4538
ces 4538
injec@@ 4538
Sco@@ 4537
racing 4537
visitors 4537
Please. 4536
Seems 4536
valley 4536
on; 4535
ado 4534
mistake, 4534
records, 4534
regre@@ 4534
Il@@ 4532
attacking 4532
studies. 4532
Lyn@@ 4531
completed. 4531
evaluations 4531
presumed 4531
tests, 4531
J.@@ 4530
Stre@@ 4530
friends? 4529
rescued 4529
Lis@@ 4528
eding 4528
heads. 4528
accidentally 4527
silently 4527
aire 4526
Bow@@ 4525
source. 4525
Van@@ 4524
dressing 4524
regions, 4524
see... 4524
%), 4523
Director@@ 4523
Nobody's 4523
white. 4523
gentlemen. 4522
ot, 4522
thick@@ 4521
Andy 4520
Standards 4520
informal 4520
ranging 4520
sport 4520
suppli@@ 4520
Agency. 4519
dance. 4519
gli@@ 4519
marke@@ 4519
no-@@ 4519
why? 4519
Pleas@@ 4518
fum@@ 4518
boat, 4517
departments 4517
liqu@@ 4517
tall, 4517
zone. 4517
weird. 4516
believe, 4513
ke? 4513
Failed 4512
ter-@@ 4512
Dre@@ 4511
arity 4511
containers 4511
obligations, 4511
accident, 4510
appropriately 4510
courses 4510
SU@@ 4509
coincid@@ 4509
wide, 4509
19, 4508
victim's 4508
insane. 4507
tanks 4507
oils 4506
102 4505
psychological 4505
conveni@@ 4504
front. 4504
lost, 4504
nobody's 4504
sla@@ 4504
subparagraph, 4504
ania 4503
Cannot 4502
dear. 4502
neck, 4502
provided, 4502
ers@@ 4501
extent, 4501
forwar@@ 4501
fla@@ 4500
mL 4500
discipl@@ 4499
meal. 4499
sail 4499
Airlines 4498
Ton@@ 4498
ba 4498
furi@@ 4497
when, 4497
Programmes 4496
extingu@@ 4496
thunder@@ 4496
tempor@@ 4495
favor. 4494
that?" 4494
type@@ 4494
gates 4493
imm@@ 4493
pine 4493
sight, 4493
alleges 4492
size, 4492
structure, 4492
applications. 4491
fertil@@ 4491
rock. 4491
Maritime 4490
creditors 4490
gie 4490
planet, 4490
shif@@ 4490
Parliament. 4489
Someone's 4489
ative@@ 4488
climbing 4488
communities 4488
deton@@ 4488
five, 4488
smi@@ 4488
F-@@ 4487
firm@@ 4487
you,@@ 4487
CI 4486
dumb 4486
assumptions 4485
contrast 4485
dem@@ 4485
ey, 4485
rental 4485
citizens, 4484
ride. 4484
jam@@ 4483
tax. 4483
restaurant. 4482
ash. 4481
helicopter 4481
struc@@ 4481
worse, 4481
tible 4480
legi@@ 4477
percep@@ 4477
transfer@@ 4477
Climate 4476
7% 4475
granted, 4475
spirits 4475
subject, 4475
heard, 4474
preserv@@ 4474
sorcere@@ 4474
strain@@ 4474
Terr@@ 4473
acceler@@ 4473
ago? 4472
annually 4472
lef@@ 4472
possessed 4472
Children 4471
five-@@ 4471
worrying 4470
mortal@@ 4469
calm. 4468
hide@@ 4468
organs 4468
underneath 4468
chip@@ 4467
claims, 4467
needs, 4467
premi@@ 4467
Brian 4466
Georgi@@ 4466
admit, 4466
negotiation 4465
rang@@ 4465
pec@@ 4464
/2001 4463
Fu@@ 4463
analogue 4463
bly, 4463
bore 4463
stance 4463
Ori@@ 4462
oms 4462
audit@@ 4460
rank 4460
spiritual 4459
Road 4458
battle@@ 4458
lesser 4458
examin@@ 4457
help? 4457
attention, 4456
Bern@@ 4455
X-@@ 4455
commen@@ 4455
continuity 4455
elin@@ 4455
audiovisual 4454
charge, 4454
Chil@@ 4453
K. 4453
ela 4453
-and 4451
Que@@ 4451
bloc@@ 4451
hurry. 4451
loy@@ 4451
occasional 4451
sad. 4451
Bio@@ 4450
Full 4450
atic. 4450
aim@@ 4449
ght 4449
superi@@ 4449
deligh@@ 4448
Jacob 4447
Jewish 4447
Operational 4447
affec@@ 4447
wheels 4447
ama 4446
195@@ 4445
flaw@@ 4445
registry 4445
scan@@ 4445
tremendous 4445
Sat@@ 4444
closed, 4444
roaming 4444
vehicles. 4444
Canc@@ 4443
dle 4443
glow 4443
wives 4443
17.@@ 4442
evol@@ 4442
neighborhood 4442
port. 4442
rip 4442
human, 4441
mill@@ 4441
mistakes 4441
2000. 4440
borrow@@ 4440
j 4439
ole@@ 4439
responding 4439
rus@@ 4439
buy@@ 4438
rated 4438
GD@@ 4437
Item 4437
Main@@ 4437
ard's 4437
detention 4437
preserved 4437
weapon@@ 4437
leaflet 4436
souls 4436
returned. 4435
ends, 4434
i's 4434
EGF 4433
timber 4433
ally... 4432
bases 4431
upstairs. 4431
murderer 4430
shower 4430
Country 4429
rom@@ 4429
Production 4428
contamin@@ 4428
ra, 4428
bedroom. 4427
four. 4427
presenting 4427
Sure 4426
bull@@ 4425
describes 4425
bly. 4424
resul@@ 4424
Amendments 4423
emotions 4423
Really, 4422
flashed 4422
(3)@@ 4421
Systems 4421
boost 4421
makers 4421
zer 4421
Contro@@ 4420
hits 4420
planes 4420
Alan 4419
2.2.@@ 4418
ayed 4418
publishing 4418
stone, 4418
ó@@ 4418
greatly 4417
Lake 4416
owing 4416
...before 4415
sweat@@ 4415
Direc@@ 4412
as... 4412
than@@ 4412
mortality 4411
navig@@ 4411
ols 4411
research@@ 4411
woman@@ 4411
Senator 4410
dear, 4410
Mun@@ 4409
instru@@ 4409
Denmark, 4408
Worl@@ 4408
aries. 4408
gambling 4408
AT 4407
Power 4407
enlargement 4407
grams 4407
substances, 4407
Hotel 4406
R&@@ 4405
panic 4405
reflection 4405
states, 4405
Sam. 4404
ensu@@ 4404
trem@@ 4404
bom@@ 4403
child's 4403
14.@@ 4402
ECR 4402
Israel 4402
What'd 4402
budget, 4401
co-financing 4401
faith. 4401
options. 4401
partners, 4401
inspired 4400
nerv@@ 4400
perm@@ 4400
reproductive 4400
smiled. 4400
awake 4399
bank, 4399
darkness, 4399
(O@@ 4398
El 4398
Google 4398
Hann@@ 4397
antly. 4397
aster 4397
questioned 4397
since. 4397
Wasn't 4396
Personal 4395
fort@@ 4395
mutually 4395
"She 4394
easily. 4394
hills 4394
how's 4394
y,@@ 4394
tra 4393
ased 4391
cool, 4391
palace 4391
sister's 4391
decision). 4390
anxious 4389
deficiencies 4389
depth 4389
determines 4389
resting 4389
lov@@ 4388
teacher. 4387
weekly 4386
Elli@@ 4385
Medicines 4385
animal. 4385
Sophi@@ 4384
beautiful@@ 4384
decom@@ 4384
interpret 4384
devi@@ 4383
Ron 4382
broadband 4382
hurts 4382
loop@@ 4382
park. 4381
yel@@ 4381
Hur@@ 4380
Saint 4380
of? 4380
jealous 4379
utili@@ 4379
widespread 4379
GO@@ 4378
e), 4377
discovery 4376
family? 4376
stupid, 4376
4% 4374
Colon@@ 4374
compromise 4374
encoun@@ 4374
above). 4372
downstairs 4372
inviting 4372
either, 4371
struggling 4371
'We 4370
Jar@@ 4370
Kenn@@ 4370
place@@ 4370
specially 4370
Going 4368
Mexico 4368
gan 4368
swiftly 4368
year's 4368
Commission@@ 4367
dies, 4367
education. 4367
announce 4366
answers. 4366
any, 4366
paint@@ 4366
alternate 4364
employers 4364
suicide. 4364
valid@@ 4364
ball, 4363
consequences. 4363
woman? 4363
"Your 4362
alley 4362
hence 4362
keep@@ 4362
Slovenia 4361
aquatic 4361
wealthy 4360
Jenn@@ 4359
ologi@@ 4359
puzz@@ 4359
synergies 4359
ick, 4358
victims. 4358
Ps 4357
Regulatory 4357
Thre@@ 4357
particles 4357
Bru@@ 4356
can'@@ 4356
cars. 4356
sides. 4356
studi@@ 4356
earliest 4355
frontier 4355
speed. 4355
correct. 4354
nut@@ 4354
cards. 4353
atri@@ 4352
(9) 4351
skill@@ 4351
newspap@@ 4350
seat, 4350
"Did 4348
SM@@ 4348
hood@@ 4348
ov 4348
progressive 4348
shoo@@ 4348
ested 4347
shut@@ 4347
(10 4346
Sky@@ 4345
punishment 4345
revenge 4345
minist@@ 4344
Parties. 4343
crime, 4343
authentic@@ 4342
tired. 4342
constitutional 4341
we, 4341
det@@ 4340
traveled 4340
..and 4338
Al 4338
buddy. 4338
focus@@ 4337
golf 4336
rounded 4335
110 4334
BO@@ 4334
reimbursed 4334
Fish@@ 4333
held, 4333
range. 4333
strong@@ 4333
tent 4333
usage 4333
eco-@@ 4332
enem@@ 4332
inated 4332
man! 4332
Post@@ 4330
anger. 4330
cardi@@ 4330
deprived 4330
graph 4330
operators. 4330
Jun@@ 4329
light-@@ 4329
1), 4328
4,@@ 4328
department. 4328
q 4328
case? 4327
cycles 4327
gas. 4327
likewise 4327
Greece, 4326
sely 4326
00, 4325
Luke 4325
invent@@ 4325
lawy@@ 4325
stretch 4325
Requirements 4324
ssi@@ 4324
eliminated 4323
headquarters 4323
justified. 4323
societies 4323
"There's 4322
2.5 4322
Nat@@ 4322
country@@ 4322
musical 4322
shoulders. 4322
refund@@ 4320
sun, 4320
ageing 4319
Marks 4318
fish, 4318
how, 4317
pass. 4317
Note: 4316
thirty-@@ 4316
constituting 4315
debts 4315
hers. 4315
uncomfortable 4315
Like, 4314
my... 4314
[5] 4313
ville 4313
Michael, 4312
corpse 4312
liberty 4312
mann 4312
metric 4312
predominantly 4312
Finnish 4311
atory, 4311
auction 4310
Explanatory 4309
thematic 4309
autom@@ 4308
ose 4308
vin 4308
Communities. 4307
HIV 4307
Patrick 4307
edly. 4307
kel@@ 4307
mir@@ 4307
ody 4307
teri@@ 4307
fears 4306
ishes 4306
190@@ 4305
ap, 4304
burgl@@ 4304
four, 4304
Regions 4303
coach 4303
outcomes 4303
sources. 4303
babies 4302
sadd@@ 4302
thereto. 4302
murder, 4301
function, 4300
50. 4299
island@@ 4298
updating 4298
vor@@ 4298
product@@ 4297
bs, 4296
rejection 4296
Bol@@ 4295
urgency 4295
Dude, 4294
lifetime 4294
grip 4293
ties; 4293
Kh@@ 4292
disposed 4292
dogs. 4292
fur 4292
hall@@ 4292
Finally 4291
predat@@ 4291
Mister 4290
idity 4290
passport 4290
broadcast@@ 4289
co 4289
strip 4289
Bay 4288
carcin@@ 4288
dawn 4288
Kingdom, 4287
desirable 4287
knows, 4287
cardiac 4286
defending 4286
longer, 4286
respec@@ 4286
warehouse 4286
wasted 4286
me-@@ 4285
ant... 4284
benefiting 4282
ck@@ 4282
es" 4282
patch 4282
princ@@ 4282
understands 4282
06 4281
Canada 4281
preservation 4281
regard. 4281
waste. 4281
beaten 4280
l-@@ 4280
music, 4280
was? 4280
107 4278
leader. 4278
nitrogen 4278
pump 4278
unit@@ 4278
Gol@@ 4277
advantage. 4277
charges. 4277
landscape 4277
6). 4276
carved 4276
residues 4276
secrets. 4276
17. 4275
first@@ 4275
lav@@ 4275
mess. 4275
necessar@@ 4275
afraid, 4274
arian 4274
finally, 4274
Kong 4273
cous@@ 4273
got, 4272
guilty. 4272
verifying 4272
1.5 4271
Art. 4271
accommodation 4271
lows 4271
rule. 4270
everybody's 4269
Bad 4268
perceived 4267
Lem@@ 4266
Speaking 4266
jun@@ 4266
serious, 4266
type-@@ 4266
voy@@ 4266
18. 4265
Actions 4265
blank 4265
bear@@ 4264
Grace 4262
den. 4262
viability 4262
AU@@ 4261
Exc@@ 4260
Forum 4260
Gam@@ 4260
Real 4260
collap@@ 4260
comprise 4260
dreadful 4260
guilt 4260
ogen@@ 4260
Med@@ 4259
curve 4259
ery, 4259
instead. 4259
stem 4259
ideal 4258
project@@ 4258
tal 4257
ures, 4257
batch 4256
ide. 4256
phones 4255
GH@@ 4254
substanti@@ 4254
support@@ 4254
animal@@ 4253
ritu@@ 4253
ession, 4252
men's 4252
Beyond 4251
creditor 4251
summoned 4251
closer. 4250
judged 4250
occurring 4250
zer@@ 4250
axis 4249
ering. 4249
pel 4249
ship? 4249
H. 4248
Interest 4248
diseas@@ 4248
edit@@ 4248
egg@@ 4248
extract 4248
ignoring 4248
intervals 4248
problem? 4248
ty's 4248
mind? 4247
P-@@ 4246
access@@ 4246
consensus 4246
stiff@@ 4246
telecommunications 4246
State@@ 4245
corporation 4245
expose 4245
Lex@@ 4244
g's 4244
plants, 4244
approving 4243
backs 4243
ented 4243
Hall 4242
L.A. 4242
Lat@@ 4242
rs. 4241
intern@@ 4240
ished, 4240
deal, 4239
ativ@@ 4238
goddamn 4237
shore 4237
sors 4237
y" 4237
experiencing 4236
hid@@ 4236
suff@@ 4236
expedi@@ 4235
hint 4235
confess 4234
Daddy 4233
sticking 4233
Minimum 4232
eable 4232
specifying 4232
(b@@ 4231
gift. 4231
notice, 4231
substantiated 4231
Liber@@ 4230
sel 4230
conform 4229
1996, 4228
fantas@@ 4228
strategy, 4228
Military 4226
Consul@@ 4225
Ted 4225
leg. 4225
ved, 4225
community. 4224
dilution 4224
forest. 4224
download 4223
Rain@@ 4222
custom 4222
facts, 4222
worlds 4222
M.@@ 4221
destin@@ 4220
dirt 4220
offen@@ 4220
elevator 4219
Maur@@ 4218
rein@@ 4218
stuffed 4218
supplying 4216
68/@@ 4213
arrow 4213
20th 4211
87(1) 4210
brush 4210
dared 4210
levied 4210
responsible. 4209
(I@@ 4208
energy-@@ 4208
ress 4207
style. 4206
sickness 4205
cost. 4204
half. 4204
legs, 4204
packing 4204
Serbia 4203
differentiated 4203
fraction 4203
haz@@ 4203
numbers, 4203
ache 4202
disciplinary 4202
measurements 4202
meat. 4202
foolish 4201
instantly 4201
o'clock 4201
22.@@ 4200
Argument@@ 4200
columns 4200
supply, 4200
attack, 4199
ried 4199
Bren@@ 4198
Package 4198
Pre-@@ 4198
Wy@@ 4198
explicit 4198
discount 4197
knowledge. 4197
Labour 4196
prison, 4194
ra. 4194
ately, 4193
density 4193
convention 4192
copper 4192
inadmissible. 4192
ok, 4192
operation@@ 4192
Youth 4191
design, 4191
ored 4191
Eric 4190
abol@@ 4190
Dri@@ 4189
Icelandic 4189
airlines 4189
funeral. 4189
modes 4189
shell 4189
y'@@ 4189
adul@@ 4188
acknowledge 4186
black, 4186
moun@@ 4186
Exactly 4185
ague. 4185
dump 4185
slammed 4185
English, 4184
activate 4184
alk@@ 4184
informing 4184
ptic 4184
transf@@ 4184
didn'@@ 4183
inhibit@@ 4183
sulph@@ 4183
anch@@ 4182
first? 4182
ve! 4182
mission, 4181
virgin@@ 4181
> 4179
atom@@ 4179
picture@@ 4179
respecting 4179
users, 4179
ail, 4178
deducted 4178
earth, 4178
libr@@ 4178
sharehol@@ 4178
toilet 4178
adverti@@ 4177
dispatch 4177
hot. 4177
investment, 4177
nuts 4177
read, 4177
updates 4176
ye 4176
ECH@@ 4175
interested. 4175
kar@@ 4175
kill. 4175
requisite 4175
swim 4175
desi@@ 4174
needn't 4174
't. 4173
fits 4173
sci@@ 4173
sity, 4173
bastard 4172
dug 4172
LE@@ 4171
chloride 4171
finances 4171
accumul@@ 4170
neutral 4170
Mexican 4169
viable 4168
Provisions 4167
amount. 4167
expanded 4167
farms 4167
any. 4166
centr@@ 4166
ners. 4166
pag@@ 4165
intimid@@ 4164
optional 4164
London, 4163
heal 4163
Meeting 4162
Nuclear 4162
bub@@ 4161
ert 4161
his@@ 4161
< 4160
Whose 4160
conclusion, 4160
disturbed 4160
sick, 4160
ids, 4159
ings? 4159
Baron 4157
Cel@@ 4157
Next, 4157
bust@@ 4157
substance. 4157
DC 4156
g-@@ 4156
municipal 4156
company@@ 4155
parliamentary 4155
risks, 4155
witness@@ 4155
collapsed 4154
liaison 4154
moder@@ 4153
qualification 4153
3.1 4152
G-@@ 4152
Good, 4152
Light 4152
Cast@@ 4151
Alic@@ 4149
minority 4149
welcomed 4149
Hil@@ 4148
Scott 4148
Why'd 4148
market-@@ 4148
peered 4148
remembering 4148
ss, 4148
Caramon 4147
Consumer 4147
kilome@@ 4147
Broad@@ 4146
alloc@@ 4146
boy? 4146
lining 4146
pensions 4146
Political 4145
payments. 4145
values. 4145
aluminium 4144
er." 4144
pool. 4143
Bran@@ 4142
However 4142
include, 4142
recourse 4142
Syl@@ 4141
Street. 4140
experiment 4140
Legislative 4139
Monday 4139
chamber. 4139
standardisation 4139
1(3) 4138
Ready 4138
Secur@@ 4138
baby's 4138
condition, 4138
invit@@ 4138
movies 4138
Method 4137
cott@@ 4137
innov@@ 4137
mam@@ 4137
refriger@@ 4137
humans, 4136
proof. 4136
treasure 4135
enemies. 4133
Media 4132
resistant 4132
transferring 4132
Scar@@ 4131
borrowing 4131
shoved 4131
differently. 4130
friend's 4130
...then 4129
hurt, 4129
indeed, 4129
lend 4129
religion 4129
step, 4129
world? 4129
...it's 4128
Direct 4128
discipline 4127
rais@@ 4126
structure. 4126
Bond 4125
Ci@@ 4125
immediately, 4125
insist 4125
master. 4125
Dou@@ 4124
dosing 4124
passion 4124
slaves 4124
ur. 4124
added: 4122
everyone, 4122
ity: 4121
legisl@@ 4121
livestock 4121
brother? 4119
locations 4119
take. 4119
someplace 4118
...they 4117
California 4117
Prague 4117
ane. 4117
gle@@ 4117
move@@ 4117
network, 4117
alone? 4116
practices, 4116
(a)@@ 4115
amazing. 4115
mortal 4115
Rick@@ 4114
Sc@@ 4114
ashing 4114
cope 4114
ffs 4114
right... 4114
50, 4113
Rit@@ 4113
academic 4113
reduces 4113
speak, 4113
160@@ 4112
Hydro@@ 4112
Mom. 4112
accus@@ 4112
sh. 4112
chest@@ 4111
robbed 4111
Assembly 4110
forbidden 4110
w? 4109
Community's 4108
Considering 4108
fancy 4108
fron@@ 4108
section. 4108
Turn 4107
synthetic 4107
terrori@@ 4107
Kno@@ 4106
plates 4106
solidarity 4106
model. 4105
rav@@ 4105
20.@@ 4104
Rest@@ 4104
cover. 4104
induced 4104
sey 4104
2005@@ 4103
attributable 4103
executing 4103
gericht 4103
teenag@@ 4103
Fire 4101
Iraq 4101
sophisticated 4100
sorts 4100
spilled 4100
accessibility 4099
fitting 4099
handic@@ 4099
memories. 4099
stated, 4099
h-@@ 4098
sensitivity 4098
treaty 4098
ata 4097
toi@@ 4097
aemia 4096
guessed 4096
Facility 4094
else's 4094
Reporting 4093
added, 4093
ats, 4093
construed 4093
flames 4093
mitigation 4093
'But 4092
ally-@@ 4092
attain 4091
bullets 4091
Same 4090
kidnapped 4090
vehic@@ 4090
Lots 4089
explosi@@ 4089
108 4087
Camp@@ 4087
Prior 4087
betray 4087
bility, 4087
client. 4087
impor@@ 4087
pieces. 4087
rout@@ 4087
PS 4086
cursed 4086
Center 4085
That'll 4085
eve 4085
mitigate 4085
rested 4085
complainant 4084
context. 4084
judges 4084
quality. 4084
Teva 4083
obsessed 4083
wind, 4083
2/EEC 4082
Joe, 4082
Place 4082
Findings 4081
alcoholic 4081
oner 4081
77@@ 4080
CAP 4080
drugs, 4080
kitchen, 4080
tis, 4080
vehicle, 4080
Family 4079
Step 4079
defec@@ 4079
dly, 4079
Empire 4078
Enough 4078
along, 4078
block@@ 4078
ring, 4078
rooms. 4078
Archi@@ 4077
PA 4077
direction, 4077
unfortunate 4077
court@@ 4076
betray@@ 4075
minimis 4075
populations 4075
realistic 4075
resol@@ 4075
scary 4075
"that 4074
ations; 4074
encounter 4074
tooth@@ 4074
transactions. 4074
Where, 4073
don'@@ 4073
intent 4073
lab. 4073
expenditure. 4072
respects 4072
still@@ 4072
jewel@@ 4070
6% 4069
co-ordination 4069
(represented 4068
07 4068
PA@@ 4068
Progress 4068
Somewhere 4068
error. 4068
mortgage 4068
rain. 4068
should@@ 4068
Earth@@ 4067
sink 4067
working, 4067
FO@@ 4066
payment. 4066
content, 4065
(1)(b) 4064
ades 4064
hell, 4064
ON 4063
stomach. 4063
ched. 4062
infrastructure, 4062
regulate 4062
arriving 4061
pe. 4061
storm. 4061
23.@@ 4060
export@@ 4060
7(1) 4059
Leg@@ 4059
Tun@@ 4059
freedoms 4059
anonymous 4058
inging 4058
screamed 4058
authorisation. 4057
correct, 4057
tell. 4057
execu@@ 4056
vacation 4056
° 4056
baby? 4055
battery 4055
exten@@ 4055
hed@@ 4055
voted 4055
OECD 4054
capital, 4054
circum@@ 4054
IV, 4053
acqu@@ 4053
circu@@ 4053
consum@@ 4053
contribut@@ 4053
20/@@ 4052
Eric@@ 4052
Ful@@ 4052
Likewise, 4052
mate, 4052
Decisi@@ 4051
agree. 4051
ear, 4051
journey. 4051
Tanis 4050
camera. 4050
sculp@@ 4050
ult 4050
EP 4049
IV. 4049
gar 4048
murdered. 4048
relying 4048
variations 4048
ached 4047
objectively 4047
GmbH 4046
century, 4046
"He's 4045
Administr@@ 4045
how. 4045
ora 4045
straight. 4045
Sun 4044
[6] 4044
kn@@ 4044
plate. 4044
a.m. 4043
accreditation 4043
cher@@ 4043
cin@@ 4043
explained. 4043
Proc@@ 4042
pistol 4042
specifically, 4042
task. 4042
Happy 4041
Max, 4041
Micro@@ 4041
boarding 4041
staff@@ 4041
interior 4040
historic 4039
meat, 4039
oting 4039
total@@ 4039
advice, 4038
glucose 4038
intervene 4038
beer. 4037
ty... 4037
ying, 4037
illed 4036
map@@ 4036
pillar 4036
pretended 4036
ental 4035
forms, 4035
prospec@@ 4034
rings 4034
104 4033
documented 4033
prep@@ 4033
tech 4033
Adri@@ 4031
Az@@ 4031
Command@@ 4031
Ralph 4031
calcium 4031
fragile 4031
ilit@@ 4030
discrimin@@ 4029
Raistlin 4028
declined 4028
maxim@@ 4028
copyright 4027
guarded 4027
infrastructures 4027
usual, 4027
8% 4026
D-@@ 4026
Martin@@ 4026
mountain@@ 4026
old@@ 4026
thri@@ 4026
compensatory 4025
dialog 4025
osis 4025
Usually 4024
chill 4024
conspir@@ 4024
endo@@ 4024
latest. 4024
odds 4024
symbols 4024
constraints 4023
dim 4023
innovation, 4023
organism 4023
politics 4023
respiratory 4023
punish 4022
endorsed 4021
fairy 4021
fog 4021
mother? 4021
mouth@@ 4021
skull 4021
Pitt 4020
cake 4020
cooked 4020
gesture 4020
honor. 4019
professor 4019
}@@ 4019
piece. 4018
.I 4017
Publication 4017
31.@@ 4016
FT@@ 4016
sharply 4016
um-@@ 4016
Georgia 4015
morning? 4015
reservations 4015
Building 4014
aph@@ 4014
classic 4014
Sist@@ 4013
corrup@@ 4013
colors 4012
distorted 4012
surveys 4012
Doc@@ 4011
alleg@@ 4011
(if 4010
Tex@@ 4010
forms. 4010
insane 4010
sympath@@ 4010
...what 4009
contest 4009
eral 4009
mature 4009
preced@@ 4009
appearing 4008
pick@@ 4008
08 4007
Authority, 4007
murders 4007
script 4007
tation. 4007
these, 4007
night's 4005
reviewing 4005
violence. 4005
Iceland 4004
Plus 4004
umb@@ 4004
Getting 4003
convicted 4002
precautionary 4002
convert 4001
Member@@ 4000
convers@@ 4000
dread@@ 4000
in-depth 4000
itors 4000
waking 4000
xes 4000
clar@@ 3999
certain@@ 3998
including, 3998
transl@@ 3998
aned 3997
bility. 3997
cracked 3997
dir@@ 3997
ending. 3997
gentle@@ 3997
physician 3997
politic@@ 3997
trader 3997
-1 3996
8). 3996
Charlie. 3996
continued. 3996
distance, 3995
eline 3995
jec@@ 3995
neighbor@@ 3995
atives, 3994
created. 3994
haven@@ 3994
burden@@ 3993
flood 3993
pub@@ 3993
Hungary, 3992
details. 3992
don't... 3992
dossier 3992
qualitative 3992
explain. 3991
homes 3991
sh, 3991
similarity 3991
Dean 3990
hatred 3990
right," 3988
COMMUNITIES, 3987
bir@@ 3987
independ@@ 3987
stabbed 3987
consist@@ 3986
explosive 3986
hallucin@@ 3986
od. 3986
papers. 3986
squeezed 3985
ver... 3985
'It's 3984
Cad@@ 3984
illicit 3984
money@@ 3984
slic@@ 3984
warming 3984
Madame 3983
generations 3983
film. 3982
seeds 3982
through@@ 3982
disappear. 3981
institution, 3981
Agency, 3980
lifelong 3980
repeatedly 3980
decades 3979
thanks, 3979
Arguments 3978
contractor 3977
immuno@@ 3977
it; 3977
nie, 3977
swine 3977
(20 3976
Analysis 3976
barri@@ 3976
prev@@ 3976
content. 3975
saw, 3975
sworn 3974
button. 3973
Leto 3972
cops. 3972
worked. 3971
HS 3970
focuses 3970
grid 3970
mixtures 3970
smoke. 3970
Howard 3969
organ@@ 3969
technic@@ 3969
Angela 3968
Korean 3968
combin@@ 3968
rational 3968
explanations 3967
magazine 3967
shouting 3967
ther, 3967
Accounting 3965
Stan@@ 3965
extinc@@ 3965
inch 3965
observed, 3965
finished, 3964
on," 3964
Remove 3963
concerted 3963
fighters 3962
senti@@ 3962
tasks. 3962
angr@@ 3961
contr@@ 3961
flight. 3961
psych@@ 3961
Wall@@ 3960
language, 3960
CD 3959
Harmonisation 3959
action@@ 3959
relation@@ 3959
retrieve 3959
semin@@ 3959
severely 3959
tool@@ 3959
declar@@ 3958
hot@@ 3958
testify 3958
Africa. 3957
Prov@@ 3957
allocate 3957
promptly 3957
Au@@ 3956
artist 3956
ened. 3956
Arab 3955
debt. 3955
matching 3955
me: 3955
substitute 3955
technolog@@ 3955
touch. 3955
(b), 3953
Ok@@ 3953
dia 3953
only, 3953
laughed. 3952
vot@@ 3952
16. 3950
biting 3950
is! 3950
handful 3949
steps, 3949
America's 3948
appraisal 3948
labor 3948
Rad@@ 3947
Republic@@ 3947
boss, 3947
stay, 3947
circumstanc@@ 3946
wanted, 3946
certificate. 3945
hard-@@ 3945
immun@@ 3945
match. 3945
EB@@ 3944
cooperative 3944
dependence 3944
qualifying 3944
alty 3943
concluding 3943
merits 3943
Party, 3942
bic@@ 3942
brain, 3942
commerci@@ 3942
derivatives 3942
gentlemen 3942
guaranteeing 3942
profitable 3942
viewed 3942
municipality 3941
sources, 3941
8(1) 3940
Comple@@ 3940
assign@@ 3940
lies. 3940
5,@@ 3939
Bank@@ 3939
Carri@@ 3939
IBM 3939
bureauc@@ 3939
Repe@@ 3938
enterprises, 3938
assem@@ 3937
ering, 3936
repe@@ 3936
holo@@ 3935
serious@@ 3935
ups 3934
King. 3933
button@@ 3933
downstream 3933
Maria 3932
ound. 3932
rog@@ 3932
ong, 3931
virtual 3931
forests 3929
grass@@ 3929
leaf@@ 3929
w... 3929
chil@@ 3928
organising 3928
vaccin@@ 3928
broadly 3927
pounds 3927
succeeded 3927
consumption, 3926
teen@@ 3926
Fine, 3925
Group, 3925
divid@@ 3925
women's 3925
being, 3924
hook 3924
Num@@ 3923
affirm@@ 3923
diox@@ 3923
pupp@@ 3923
tionally 3923
crude 3922
construc@@ 3921
points, 3921
troubled 3921
ur, 3921
Daw@@ 3920
amor@@ 3920
ane@@ 3920
inspir@@ 3920
2006/1@@ 3919
bec@@ 3919
dly 3919
dys@@ 3919
kingdom 3919
Stone 3917
driver. 3917
lick 3917
traffic@@ 3917
"F@@ 3916
E/@@ 3916
assign 3916
goodbye 3916
tax, 3916
IP, 3915
assembled 3915
weighed 3915
(recital 3914
Dan 3914
bus. 3914
5). 3913
Okay@@ 3913
abor@@ 3912
bored 3912
concepts 3912
punch 3912
(4 3910
Much 3910
anna 3910
correlation 3910
count@@ 3910
center. 3909
disappear@@ 3909
lo 3909
love@@ 3909
English@@ 3908
astic 3908
ater 3908
shocked 3908
weakness 3908
charming 3907
embarrass@@ 3907
integrate 3907
7-@@ 3906
EFSA 3906
coefficient 3906
dish 3906
horses. 3906
impul@@ 3906
quietly. 3906
simple, 3906
imag@@ 3905
limit. 3905
Jul@@ 3904
Pel@@ 3904
acro@@ 3904
rem@@ 3904
crushed 3903
Kosovo 3902
photograp@@ 3902
O.@@ 3901
afforded 3901
cause. 3901
cen@@ 3901
prop@@ 3901
transposed 3901
...from 3900
Majesty 3900
dly. 3900
oured 3899
song@@ 3899
upset. 3899
inqu@@ 3898
scienti@@ 3898
master@@ 3897
purchas@@ 3897
inadequate 3896
vou@@ 3896
Lun@@ 3895
wri@@ 3895
atomic 3894
rushing 3894
laboratories 3893
rin@@ 3893
apartment, 3892
bless 3892
dam 3892
figu@@ 3892
gel 3892
happily 3892
shelter 3892
classical 3891
address, 3890
dram@@ 3890
Coordination 3888
Victor 3887
sweat 3887
sy. 3887
template 3887
Jess@@ 3886
intrud@@ 3886
quiet, 3886
stringent 3886
trembling 3886
uted 3886
corner, 3885
schem@@ 3885
smart. 3885
umab 3885
unused 3885
Adopted 3884
bs. 3884
opini@@ 3884
Protec@@ 3883
surprising 3883
Day@@ 3882
Slovakia 3882
Third, 3882
share. 3882
temporal 3882
ef 3881
Tab@@ 3879
Where'd 3879
advance. 3879
ber, 3879
brow@@ 3879
fall, 3879
grandmother 3879
urs 3879
CM@@ 3878
Hey@@ 3878
Jerry 3878
colleagues 3878
cry@@ 3878
Agriculture 3877
lock. 3877
cash, 3876
inhal@@ 3876
'em 3875
Kill 3875
head? 3875
supervised 3875
(15 3874
Around 3874
co. 3874
ion@@ 3874
locks 3873
Bai@@ 3872
consignment 3872
credits 3872
impact. 3872
pregnant, 3872
swore 3872
example. 3871
buddy 3870
restaur@@ 3870
thereto 3870
perhaps, 3869
8-@@ 3868
alternatives 3868
au. 3868
fields. 3868
importance. 3868
util@@ 3868
doors, 3867
honored 3867
mentally 3867
mercy 3867
stand. 3867
Resources 3866
Return 3866
Stabilisation 3866
applicants, 3866
breaches 3866
ie@@ 3866
plant. 3866
cereals 3865
contamination 3865
hill@@ 3865
tracked 3865
comes, 3864
tract 3864
yourselves 3864
Slovak 3863
ceilings 3863
jum@@ 3863
oth@@ 3863
...on 3862
strength, 3862
happiness. 3860
looking. 3860
non-EU 3860
had@@ 3859
interrupt 3859
succeed@@ 3859
circumstance 3858
house... 3857
George, 3856
nest 3856
[7] 3855
asha@@ 3855
designations 3855
midnight 3855
segment 3855
technologies, 3855
Dra@@ 3854
Overall, 3854
carefully, 3854
incomplete 3854
march 3854
skir@@ 3854
switching 3854
thoroughly 3854
achieved. 3853
ari 3853
utter 3853
ceas@@ 3852
delighted 3852
risk@@ 3852
translated 3852
che 3851
nex@@ 3851
specimen 3851
eleph@@ 3850
reviews 3850
Whilst 3849
make. 3849
en! 3848
itch 3848
proceeds 3848
removed. 3848
CA 3847
Cont@@ 3847
aria 3847
EV@@ 3846
band. 3846
fortunate 3846
threat. 3846
throne 3846
prepared. 3845
Science 3844
bo 3844
icon 3844
passi@@ 3844
England. 3842
Organis@@ 3842
down! 3842
sa, 3842
danger@@ 3841
langu@@ 3841
mal 3841
signal. 3841
Anne@@ 3840
Certainly 3840
ts... 3840
cann@@ 3839
escal@@ 3839
rou@@ 3839
screening 3839
7(2) 3838
Olympic 3838
adapting 3838
inhibitors 3838
500@@ 3837
ador@@ 3837
comfort@@ 3837
instinc@@ 3837
tz@@ 3837
ouse 3836
sexy 3836
balance. 3835
rifle 3835
applications, 3834
fen@@ 3834
pit 3834
Dea@@ 3833
atic, 3833
prepar@@ 3833
ane, 3832
burdens 3832
sig@@ 3832
Author@@ 3831
distribut@@ 3831
timetable 3831
English. 3830
aggressive 3830
comprises 3829
700 3828
ounds 3828
supply. 3828
'' 3827
Tak@@ 3827
inches 3827
volunte@@ 3827
29.@@ 3826
Stand@@ 3826
alignment 3826
mour@@ 3826
suspects 3826
dose, 3825
valued 3825
d'@@ 3824
inal 3824
Chur@@ 3823
DECIDED 3823
generating 3823
of: 3823
winner 3823
benefits. 3822
combustion 3822
Party. 3821
awesome 3821
pressure, 3821
ada 3820
tea. 3820
radio@@ 3819
(3 3818
2001/8@@ 3818
cab 3818
diagnostic 3818
faith@@ 3818
that." 3818
controls. 3817
ough 3817
Register 3816
ket, 3816
1991 3815
announcement 3815
consciousness 3815
softly. 3815
stories. 3815
humanity 3814
respectively 3814
spread@@ 3814
Dick@@ 3813
Joe. 3813
angel 3813
soldiers. 3813
unhappy 3813
Anti@@ 3812
Da@@ 3812
TI@@ 3812
acquiring 3812
complained 3812
dest@@ 3812
ka, 3812
north. 3812
seriously, 3812
9% 3811
Interim 3811
Mike, 3811
temple 3811
asses 3810
deserved 3810
gaps 3810
gus 3810
smallest 3810
EDF 3809
camer@@ 3809
vely. 3809
2012) 3808
SW@@ 3808
tan 3808
4.4 3807
Ros@@ 3807
defeated 3807
phenomen@@ 3807
self 3807
stu@@ 3807
31.12.@@ 3806
email 3806
missiles 3806
anything@@ 3804
fet@@ 3804
situations. 3804
appellants 3803
border. 3803
coin 3803
infection. 3803
1994, 3802
Cz@@ 3802
Carter 3801
concessions 3801
thing's 3801
airline 3800
good-@@ 3800
sensors 3800
dull 3799
ecological 3799
bomb. 3798
ment's 3798
silence, 3798
smashed 3798
headings 3797
households 3797
intermedi@@ 3797
SS 3796
attach 3796
circular 3796
moon@@ 3796
succeed 3796
imposes 3795
incapable 3795
Leon@@ 3794
sacrific@@ 3794
sometimes, 3794
variation 3794
Republic. 3793
puri@@ 3793
said@@ 3793
transformed 3793
background, 3792
a). 3791
describing 3791
grave. 3791
paper@@ 3791
paths 3791
next, 3790
river, 3790
Objective 3789
Really 3788
imagine. 3788
attrac@@ 3787
fool. 3787
furniture 3787
meaningful 3787
securing 3787
track. 3787
Berlin 3786
aunt 3786
bodi@@ 3786
comes. 3786
hepatitis 3786
boyfriend, 3785
colleagu@@ 3785
photograph 3785
poison@@ 3785
secret, 3785
Honor, 3784
admissibility 3784
mirror. 3784
movement. 3784
righ@@ 3784
sovereign 3784
wat@@ 3784
Cher@@ 3783
drug@@ 3783
expire 3783
se! 3783
ESA 3782
baseball 3782
concealed 3782
haired 3782
hide. 3782
sions. 3782
urge 3782
Already 3781
Brussels, 3781
buyer 3781
consecutive 3781
reluct@@ 3781
vir 3781
ential 3780
Horizon 3779
scarcely 3779
sergeant 3779
trun@@ 3779
v. 3779
footage 3778
phon@@ 3778
unaware 3778
nations 3776
persistent 3776
responsi@@ 3776
88/@@ 3775
Well,@@ 3775
insist@@ 3775
shape. 3775
black. 3774
buildings, 3774
justifying 3773
machine, 3773
tures, 3773
(j) 3772
ared, 3772
hood. 3772
languages, 3771
pneum@@ 3771
profound 3771
audited 3770
ent's 3770
roy@@ 3770
Frank. 3769
dizz@@ 3769
Carl 3768
Dut@@ 3768
Paris, 3768
accelerate 3768
optimal 3768
witnessed 3768
apple 3767
followed. 3767
...where 3766
Really? 3766
ar-@@ 3766
conferen@@ 3766
injected 3766
E) 3765
dim@@ 3765
entails 3765
specified. 3765
Sant@@ 3764
bacteri@@ 3764
it'il 3764
N. 3763
Ran@@ 3763
restrain@@ 3763
rot 3763
ami@@ 3762
conqu@@ 3761
declaring 3761
dish@@ 3761
Port@@ 3760
bath 3760
contradic@@ 3760
judge@@ 3760
lawyer, 3760
merged 3759
status. 3759
tomorrow? 3759
Admir@@ 3758
contin@@ 3758
full. 3758
inclusive 3758
mines 3758
mysteri@@ 3758
Emil@@ 3757
Fred@@ 3757
Phil@@ 3757
bulk 3757
insofar 3757
that'd 3757
Morgan 3756
birth. 3756
lose. 3756
Objec@@ 3755
Reports 3755
boards 3755
perpetr@@ 3755
Activities 3754
God! 3754
North@@ 3754
repeal 3754
switch@@ 3754
trag@@ 3754
yiel@@ 3754
invalidity 3753
pills 3753
submissions 3753
FA@@ 3752
lodging 3752
sain@@ 3752
stores 3752
top, 3752
73@@ 3751
butter@@ 3751
collapse 3751
ind 3750
map. 3750
230 3749
men? 3749
State's 3748
coffee, 3748
families. 3748
gras@@ 3746
habit 3746
surface, 3746
40/@@ 3744
Art 3744
Secret 3744
comprising 3744
immovable 3744
withdrew 3744
Chair@@ 3743
Criminal 3743
Jere@@ 3743
magaz@@ 3743
advanc@@ 3742
palm 3742
Peter@@ 3741
fingerprints 3741
injuries 3741
sound, 3741
Inspector 3740
accepts 3740
lead. 3740
weak. 3740
Asia 3739
Brown 3739
Spr@@ 3739
computer, 3739
destiny 3739
eded 3739
spaces 3739
18.@@ 3738
case: 3738
fell@@ 3737
honest@@ 3737
princess 3737
AN 3736
Hag@@ 3736
median 3736
clarified 3735
identified. 3735
Smo@@ 3734
itted 3734
stakeholders, 3734
streets. 3734
eligi@@ 3733
freedom. 3733
(2)(a) 3732
Foundation 3732
India, 3732
decreasing 3732
stepping 3731
testi@@ 3731
0.5 3730
embedded 3730
entertain@@ 3730
examination, 3730
footnote 3729
clarification 3728
envelop@@ 3728
robust 3728
soldi@@ 3728
Block 3727
Rome. 3727
admir@@ 3727
aggressi@@ 3727
da@@ 3727
employe@@ 3727
T.@@ 3726
drink? 3726
powers, 3726
refrain 3726
places, 3725
President. 3724
Od@@ 3723
chat 3723
pro 3723
specialist 3723
comfortable. 3722
freedom, 3721
injurious 3721
shap@@ 3721
Fifth 3720
destination. 3720
triumph@@ 3720
ame@@ 3719
garage 3719
attend@@ 3718
chanc@@ 3718
ched, 3718
fusion 3718
Captain@@ 3717
Mum@@ 3717
breast@@ 3717
edly, 3717
metabol@@ 3717
Britain 3715
enders 3715
most, 3715
site, 3715
window@@ 3715
crawled 3714
euro. 3714
sus@@ 3714
testimony 3714
del 3713
Regulations, 3712
e,' 3712
cancellation 3711
jobs, 3711
recipi@@ 3711
slide 3711
Approval 3710
authentic 3710
extraction 3710
nai@@ 3710
tec@@ 3710
/2005 3709
Fund, 3709
charg@@ 3709
Eight 3708
Spi@@ 3708
accelerated 3708
filthy 3708
they@@ 3708
Rose 3707
activation 3707
eco@@ 3707
frac@@ 3707
shapes 3707
ues 3707
Every@@ 3706
W. 3706
case-by-case 3706
firm. 3706
Authority. 3705
recogn@@ 3705
Alex@@ 3704
Manager 3704
ca 3704
face? 3704
audio 3703
hul@@ 3703
Run@@ 3702
Sup@@ 3702
actu@@ 3701
arrangements. 3701
mutatis 3701
perman@@ 3701
tree, 3701
Pul@@ 3700
fired. 3700
id? 3700
linking 3700
questioning 3700
1/2003 3699
Less 3699
needing 3699
Study 3698
science. 3698
vel 3698
Definition 3697
surgical 3697
Box 3696
III@@ 3696
access, 3696
congre@@ 3696
lets, 3696
ole 3696
19.@@ 3695
Pakist@@ 3695
fair, 3695
harvest 3695
sman 3695
thered 3695
Agenda 3694
Jackson 3694
called, 3694
claim, 3694
ideas. 3694
ine's 3694
ments; 3694
"We're 3693
(debate) 3693
text. 3693
thrust 3693
AM 3692
Press 3692
Sean 3691
vin@@ 3691
discriminatory 3689
immense 3689
ini 3689
intermediary 3689
mic 3689
Appe@@ 3688
domin@@ 3688
heaven 3688
colum@@ 3687
pulse 3687
roles 3687
hast@@ 3686
rich@@ 3686
speech. 3686
Directorate-General 3685
eat, 3685
fertility 3685
im 3685
payments, 3685
shone 3685
3.1.@@ 3684
banks, 3684
husband@@ 3684
often. 3684
tened 3684
interests, 3683
M, 3682
archi@@ 3682
associate 3682
bridge, 3682
caus@@ 3682
Everyone's 3681
body... 3681
societal 3681
Jordan 3680
cloak 3680
flexi@@ 3680
maj@@ 3680
phrase 3680
U. 3679
folks. 3679
industri@@ 3679
jeal@@ 3679
programmed 3679
promising 3679
summar@@ 3679
er," 3678
films 3678
garden. 3678
ulation 3678
abilit@@ 3677
assaul@@ 3677
collabor@@ 3677
probable 3677
challenge. 3676
er: 3676
Page 3675
deterior@@ 3675
grows 3675
re... 3675
walk, 3675
ang. 3674
Plat@@ 3673
alls 3673
deduct 3673
religi@@ 3673
snow. 3673
solving 3673
tured 3673
ware 3673
Chec@@ 3672
Studies 3672
prosecut@@ 3672
urine 3672
Big@@ 3671
Latvia 3671
idiot. 3671
plum@@ 3671
secretly 3671
steam 3671
Christ, 3670
Reacher 3670
impress 3670
till@@ 3670
weapon, 3670
Blo@@ 3669
hope@@ 3669
safeguarding 3669
braking 3668
faded 3668
mb@@ 3668
n-@@ 3668
vul@@ 3668
common. 3667
reproduction 3667
c. 3666
inconsistent 3666
miserable 3666
Matthe@@ 3665
cigarettes 3665
fighter 3665
residing 3665
sive. 3665
dioxide 3664
ola 3664
poll@@ 3664
chairs 3663
honey@@ 3663
kids? 3663
Changes 3662
ale. 3662
holi@@ 3662
lights, 3662
secondly, 3662
Restructuring 3661
ethnic 3661
rough@@ 3661
disturb 3660
ns. 3660
Rog@@ 3659
readily 3659
betting 3658
jumping 3658
prospects 3658
Opinion, 3657
worried. 3657
insec@@ 3656
isc@@ 3656
materials. 3656
purchases 3656
40/94 3655
innocent. 3655
refresh@@ 3655
tag 3655
Pet@@ 3654
consci@@ 3654
gene 3654
hou@@ 3654
preci@@ 3654
24.@@ 3653
O, 3653
Paediatric 3653
agre@@ 3653
ept@@ 3653
selecting 3653
suspect. 3653
trap@@ 3653
Medi@@ 3652
beat@@ 3652
chap@@ 3652
cut. 3652
den, 3652
sale, 3652
that: 3652
Existing 3651
lightning 3651
pharmacokinetic 3651
relev@@ 3651
six-@@ 3651
vap@@ 3651
David, 3650
avo@@ 3650
lung 3650
theoretical 3650
GR@@ 3649
lodge 3649
planned. 3649
unt 3649
ate-@@ 3648
rented 3648
125 3647
End 3647
resist@@ 3647
(19 3646
lowering 3646
[...]
